<?xml version="1.0"?>
<opencv_storage>
<cascade>
  <stageType>BOOST</stageType>
  <featureType>HOG</featureType>
  <height>40</height>
  <width>20</width>
  <stageParams>
    <boostType>GAB</boostType>
    <minHitRate>9.9500000476837158e-001</minHitRate>
    <maxFalseAlarm>5.0000000000000000e-001</maxFalseAlarm>
    <weightTrimRate>9.4999998807907104e-001</weightTrimRate>
    <maxDepth>1</maxDepth>
    <maxWeakCount>100</maxWeakCount></stageParams>
  <featureParams>
    <maxCatCount>0</maxCatCount>
    <featSize>36</featSize></featureParams>
  <stageNum>27</stageNum>
  <stages>
    <!-- stage 0 -->
    <_>
      <maxWeakCount>1</maxWeakCount>
      <stageThreshold>1.</stageThreshold>
      <weakClassifiers>
        <_>
          <internalNodes>
            0 -1 165 2.4710294383112341e-005</internalNodes>
          <leafValues>
            -1. 1.</leafValues></_></weakClassifiers></_>
    <!-- stage 1 -->
    <_>
      <maxWeakCount>3</maxWeakCount>
      <stageThreshold>1.0403215885162354e+000</stageThreshold>
      <weakClassifiers>
        <_>
          <internalNodes>
            0 -1 168 5.6025996804237366e-002</internalNodes>
          <leafValues>
            9.7392171621322632e-001 -7.8181821107864380e-001</leafValues></_>
        <_>
          <internalNodes>
            0 -1 167 3.9354410022497177e-002</internalNodes>
          <leafValues>
            9.1151911020278931e-001 -6.9418507814407349e-001</leafValues></_>
        <_>
          <internalNodes>
            0 -1 204 2.6089239865541458e-002</internalNodes>
          <leafValues>
            7.6058495044708252e-001 -7.4566936492919922e-001</leafValues></_></weakClassifiers></_>
    <!-- stage 2 -->
    <_>
      <maxWeakCount>4</maxWeakCount>
      <stageThreshold>9.1686773300170898e-001</stageThreshold>
      <weakClassifiers>
        <_>
          <internalNodes>
            0 -1 155 5.7110279798507690e-002</internalNodes>
          <leafValues>
            9.6136051416397095e-001 -4.7692307829856873e-001</leafValues></_>
        <_>
          <internalNodes>
            0 -1 195 2.3924268782138824e-002</internalNodes>
          <leafValues>
            8.7303227186203003e-001 -4.2035067081451416e-001</leafValues></_>
        <_>
          <internalNodes>
            0 -1 70 1.0569798760116100e-002</internalNodes>
          <leafValues>
            7.2889351844787598e-001 -3.5317528247833252e-001</leafValues></_>
        <_>
          <internalNodes>
            0 -1 4 4.3298851232975721e-004</internalNodes>
          <leafValues>
            8.2411217689514160e-001 -3.5303562879562378e-001</leafValues></_></weakClassifiers></_>
    <!-- stage 3 -->
    <_>
      <maxWeakCount>6</maxWeakCount>
      <stageThreshold>6.9886308908462524e-001</stageThreshold>
      <weakClassifiers>
        <_>
          <internalNodes>
            0 -1 194 5.4934747517108917e-002</internalNodes>
          <leafValues>
            9.6185690164566040e-001 -7.4736839532852173e-001</leafValues></_>
        <_>
          <internalNodes>
            0 -1 201 2.5456633418798447e-002</internalNodes>
          <leafValues>
            -4.2044135928153992e-001 8.5512173175811768e-001</leafValues></_>
        <_>
          <internalNodes>
            0 -1 190 1.7205629497766495e-002</internalNodes>
          <leafValues>
            -4.4843769073486328e-001 6.6476202011108398e-001</leafValues></_>
        <_>
          <internalNodes>
            0 -1 140 5.2589741535484791e-003</internalNodes>
          <leafValues>
            6.0927385091781616e-001 -4.5560595393180847e-001</leafValues></_>
        <_>
          <internalNodes>
            0 -1 93 2.6314578950405121e-002</internalNodes>
          <leafValues>
            -4.0903350710868835e-001 5.4174411296844482e-001</leafValues></_>
        <_>
          <internalNodes>
            0 -1 70 5.4147075861692429e-003</internalNodes>
          <leafValues>
            5.1974713802337646e-001 -4.5745369791984558e-001</leafValues></_></weakClassifiers></_>
    <!-- stage 4 -->
    <_>
      <maxWeakCount>5</maxWeakCount>
      <stageThreshold>4.3006590008735657e-001</stageThreshold>
      <weakClassifiers>
        <_>
          <internalNodes>
            0 -1 203 1.9066791981458664e-002</internalNodes>
          <leafValues>
            9.7929203510284424e-001 5.5362945795059204e-001</leafValues></_>
        <_>
          <internalNodes>
            0 -1 174 3.5873733460903168e-002</internalNodes>
          <leafValues>
            -1.3622477650642395e-001 9.0059638023376465e-001</leafValues></_>
        <_>
          <internalNodes>
            0 -1 167 1.5437526628375053e-002</internalNodes>
          <leafValues>
            7.9902303218841553e-001 -4.1371250152587891e-001</leafValues></_>
        <_>
          <internalNodes>
            0 -1 195 1.4208677224814892e-002</internalNodes>
          <leafValues>
            6.4754885435104370e-001 -6.0208672285079956e-001</leafValues></_>
        <_>
          <internalNodes>
            0 -1 177 4.0269933640956879e-002</internalNodes>
          <leafValues>
            -6.0993772745132446e-001 4.7523689270019531e-001</leafValues></_></weakClassifiers></_>
    <!-- stage 5 -->
    <_>
      <maxWeakCount>6</maxWeakCount>
      <stageThreshold>5.6235629320144653e-001</stageThreshold>
      <weakClassifiers>
        <_>
          <internalNodes>
            0 -1 3 6.3963066786527634e-003</internalNodes>
          <leafValues>
            9.8848909139633179e-001 7.7328497171401978e-001</leafValues></_>
        <_>
          <internalNodes>
            0 -1 3 3.0591879040002823e-003</internalNodes>
          <leafValues>
            9.5355904102325439e-001 2.9338920116424561e-001</leafValues></_>
        <_>
          <internalNodes>
            0 -1 131 2.7702110819518566e-003</internalNodes>
          <leafValues>
            8.5703742504119873e-001 -2.0622797310352325e-001</leafValues></_>
        <_>
          <internalNodes>
            0 -1 4 1.5265160473063588e-003</internalNodes>
          <leafValues>
            7.4795788526535034e-001 -2.6380059123039246e-001</leafValues></_>
        <_>
          <internalNodes>
            0 -1 88 3.7143817171454430e-003</internalNodes>
          <leafValues>
            7.1832996606826782e-001 -3.8361808657646179e-001</leafValues></_>
        <_>
          <internalNodes>
            0 -1 161 4.9023840576410294e-002</internalNodes>
          <leafValues>
            -5.2604526281356812e-001 3.9401850104331970e-001</leafValues></_></weakClassifiers></_>
    <!-- stage 6 -->
    <_>
      <maxWeakCount>12</maxWeakCount>
      <stageThreshold>4.6963605284690857e-001</stageThreshold>
      <weakClassifiers>
        <_>
          <internalNodes>
            0 -1 173 7.6596841216087341e-002</internalNodes>
          <leafValues>
            9.5281875133514404e-001 -8.5915493965148926e-001</leafValues></_>
        <_>
          <internalNodes>
            0 -1 4 1.6502968501299620e-003</internalNodes>
          <leafValues>
            9.2789405584335327e-001 3.2332235574722290e-001</leafValues></_>
        <_>
          <internalNodes>
            0 -1 41 5.0972489407286048e-004</internalNodes>
          <leafValues>
            8.1051820516586304e-001 -1.2285132706165314e-001</leafValues></_>
        <_>
          <internalNodes>
            0 -1 207 3.2664470374584198e-002</internalNodes>
          <leafValues>
            -5.4813873767852783e-001 3.5522204637527466e-001</leafValues></_>
        <_>
          <internalNodes>
            0 -1 82 1.9867280498147011e-002</internalNodes>
          <leafValues>
            -3.6301136016845703e-001 4.5161002874374390e-001</leafValues></_>
        <_>
          <internalNodes>
            0 -1 143 7.4014261364936829e-002</internalNodes>
          <leafValues>
            -2.9951280355453491e-001 5.9543776512145996e-001</leafValues></_>
        <_>
          <internalNodes>
            0 -1 174 5.3262114524841309e-002</internalNodes>
          <leafValues>
            -4.6364435553550720e-001 3.2282540202140808e-001</leafValues></_>
        <_>
          <internalNodes>
            0 -1 38 8.5592886898666620e-004</internalNodes>
          <leafValues>
            4.9683499336242676e-001 -2.4885156750679016e-001</leafValues></_>
        <_>
          <internalNodes>
            0 -1 189 2.0831245929002762e-002</internalNodes>
          <leafValues>
            -3.4052470326423645e-001 3.8876262307167053e-001</leafValues></_>
        <_>
          <internalNodes>
            0 -1 158 1.0719887167215347e-001</internalNodes>
          <leafValues>
            1.5235002338886261e-001 -8.0078721046447754e-001</leafValues></_>
        <_>
          <internalNodes>
            0 -1 88 1.0575565975159407e-003</internalNodes>
          <leafValues>
            5.2636808156967163e-001 -2.7155742049217224e-001</leafValues></_>
        <_>
          <internalNodes>
            0 -1 168 1.9880373030900955e-002</internalNodes>
          <leafValues>
            1.9971498847007751e-001 -6.7250150442123413e-001</leafValues></_></weakClassifiers></_>
    <!-- stage 7 -->
    <_>
      <maxWeakCount>3</maxWeakCount>
      <stageThreshold>1.1498137712478638e+000</stageThreshold>
      <weakClassifiers>
        <_>
          <internalNodes>
            0 -1 36 1.4363531954586506e-003</internalNodes>
          <leafValues>
            -7.3146295547485352e-001 9.7099375724792480e-001</leafValues></_>
        <_>
          <internalNodes>
            0 -1 181 1.5796039951965213e-003</internalNodes>
          <leafValues>
            -5.9016865491867065e-001 8.9318305253982544e-001</leafValues></_>
        <_>
          <internalNodes>
            0 -1 193 1.7617259174585342e-002</internalNodes>
          <leafValues>
            -4.2219880223274231e-001 7.6898866891860962e-001</leafValues></_></weakClassifiers></_>
    <!-- stage 8 -->
    <_>
      <maxWeakCount>12</maxWeakCount>
      <stageThreshold>4.4739755988121033e-001</stageThreshold>
      <weakClassifiers>
        <_>
          <internalNodes>
            0 -1 188 2.0367622375488281e-001</internalNodes>
          <leafValues>
            9.5446956157684326e-001 -5.5038762092590332e-001</leafValues></_>
        <_>
          <internalNodes>
            0 -1 4 1.0924816597253084e-003</internalNodes>
          <leafValues>
            9.0661352872848511e-001 3.8983505964279175e-001</leafValues></_>
        <_>
          <internalNodes>
            0 -1 130 1.7511453479528427e-003</internalNodes>
          <leafValues>
            7.2864335775375366e-001 -1.1514358967542648e-001</leafValues></_>
        <_>
          <internalNodes>
            0 -1 11 1.9292000681161880e-002</internalNodes>
          <leafValues>
            -3.3940306305885315e-001 5.2944254875183105e-001</leafValues></_>
        <_>
          <internalNodes>
            0 -1 30 1.0115850018337369e-003</internalNodes>
          <leafValues>
            6.6387212276458740e-001 -2.9117739200592041e-001</leafValues></_>
        <_>
          <internalNodes>
            0 -1 182 3.4871645271778107e-002</internalNodes>
          <leafValues>
            -4.4807386398315430e-001 3.9990946650505066e-001</leafValues></_>
        <_>
          <internalNodes>
            0 -1 94 2.7596179395914078e-002</internalNodes>
          <leafValues>
            -3.2041549682617188e-001 5.4142218828201294e-001</leafValues></_>
        <_>
          <internalNodes>
            0 -1 68 5.8935038745403290e-002</internalNodes>
          <leafValues>
            -2.3429572582244873e-001 6.1288368701934814e-001</leafValues></_>
        <_>
          <internalNodes>
            0 -1 161 6.1664693057537079e-002</internalNodes>
          <leafValues>
            -3.9104673266410828e-001 3.3479198813438416e-001</leafValues></_>
        <_>
          <internalNodes>
            0 -1 89 5.7782547082751989e-004</internalNodes>
          <leafValues>
            4.8116493225097656e-001 -2.3551543056964874e-001</leafValues></_>
        <_>
          <internalNodes>
            0 -1 143 5.0926305353641510e-002</internalNodes>
          <leafValues>
            -3.0022621154785156e-001 4.1145339608192444e-001</leafValues></_>
        <_>
          <internalNodes>
            0 -1 80 1.6070509329438210e-002</internalNodes>
          <leafValues>
            -3.7580826878547668e-001 3.0376520752906799e-001</leafValues></_></weakClassifiers></_>
    <!-- stage 9 -->
    <_>
      <maxWeakCount>18</maxWeakCount>
      <stageThreshold>3.7306168675422668e-001</stageThreshold>
      <weakClassifiers>
        <_>
          <internalNodes>
            0 -1 6 1.7699730396270752e-001</internalNodes>
          <leafValues>
            9.5356249809265137e-001 -3.0158731341362000e-001</leafValues></_>
        <_>
          <internalNodes>
            0 -1 4 1.5457618283107877e-003</internalNodes>
          <leafValues>
            9.0144330263137817e-001 3.6908182501792908e-001</leafValues></_>
        <_>
          <internalNodes>
            0 -1 40 8.3169748540967703e-004</internalNodes>
          <leafValues>
            7.4815928936004639e-001 -4.6141490340232849e-002</leafValues></_>
        <_>
          <internalNodes>
            0 -1 122 3.3892348408699036e-002</internalNodes>
          <leafValues>
            -3.4076079726219177e-001 4.3072062730789185e-001</leafValues></_>
        <_>
          <internalNodes>
            0 -1 34 1.0399653110653162e-003</internalNodes>
          <leafValues>
            5.4908907413482666e-001 -2.2466355562210083e-001</leafValues></_>
        <_>
          <internalNodes>
            0 -1 11 1.4351669698953629e-002</internalNodes>
          <leafValues>
            -4.5226579904556274e-001 2.9074805974960327e-001</leafValues></_>
        <_>
          <internalNodes>
            0 -1 137 3.9367349818348885e-003</internalNodes>
          <leafValues>
            3.3086153864860535e-001 -3.5457140207290649e-001</leafValues></_>
        <_>
          <internalNodes>
            0 -1 93 2.9798172414302826e-002</internalNodes>
          <leafValues>
            -3.1739374995231628e-001 3.7592914700508118e-001</leafValues></_>
        <_>
          <internalNodes>
            0 -1 89 3.2694467809051275e-003</internalNodes>
          <leafValues>
            3.6959323287010193e-001 -2.8262591361999512e-001</leafValues></_>
        <_>
          <internalNodes>
            0 -1 189 1.4604141004383564e-002</internalNodes>
          <leafValues>
            -4.1321998834609985e-001 2.5416958332061768e-001</leafValues></_>
        <_>
          <internalNodes>
            0 -1 149 2.1499136928468943e-003</internalNodes>
          <leafValues>
            -5.2641952037811279e-001 1.7193441092967987e-001</leafValues></_>
        <_>
          <internalNodes>
            0 -1 3 3.0736791086383164e-004</internalNodes>
          <leafValues>
            4.0602001547813416e-001 -2.7801093459129333e-001</leafValues></_>
        <_>
          <internalNodes>
            0 -1 166 1.1386496480554342e-003</internalNodes>
          <leafValues>
            -8.9835202693939209e-001 1.3163585960865021e-001</leafValues></_>
        <_>
          <internalNodes>
            0 -1 64 1.5415641246363521e-003</internalNodes>
          <leafValues>
            4.7916010022163391e-001 -2.5313541293144226e-001</leafValues></_>
        <_>
          <internalNodes>
            0 -1 57 7.5382560491561890e-002</internalNodes>
          <leafValues>
            -1.1086605489253998e-001 6.8417668342590332e-001</leafValues></_>
        <_>
          <internalNodes>
            0 -1 171 1.1572767049074173e-002</internalNodes>
          <leafValues>
            -4.7092881798744202e-001 2.2806423902511597e-001</leafValues></_>
        <_>
          <internalNodes>
            0 -1 141 6.2274216907098889e-004</internalNodes>
          <leafValues>
            5.1342821121215820e-001 -1.8449775874614716e-001</leafValues></_>
        <_>
          <internalNodes>
            0 -1 84 6.4380109310150146e-002</internalNodes>
          <leafValues>
            -1.0181524604558945e-001 7.9326766729354858e-001</leafValues></_></weakClassifiers></_>
    <!-- stage 10 -->
    <_>
      <maxWeakCount>18</maxWeakCount>
      <stageThreshold>2.7846485376358032e-001</stageThreshold>
      <weakClassifiers>
        <_>
          <internalNodes>
            0 -1 213 3.2902920793276280e-005</internalNodes>
          <leafValues>
            -5.4887217283248901e-001 9.5461672544479370e-001</leafValues></_>
        <_>
          <internalNodes>
            0 -1 4 8.5170823149383068e-004</internalNodes>
          <leafValues>
            8.7279129028320313e-001 4.4880890846252441e-001</leafValues></_>
        <_>
          <internalNodes>
            0 -1 54 3.6736566107720137e-004</internalNodes>
          <leafValues>
            7.3043012619018555e-001 -4.8914182931184769e-002</leafValues></_>
        <_>
          <internalNodes>
            0 -1 15 3.0178103595972061e-002</internalNodes>
          <leafValues>
            -3.5593703389167786e-001 3.9679181575775146e-001</leafValues></_>
        <_>
          <internalNodes>
            0 -1 24 5.4664566414430737e-004</internalNodes>
          <leafValues>
            4.7515320777893066e-001 -2.3551972210407257e-001</leafValues></_>
        <_>
          <internalNodes>
            0 -1 197 1.5110907144844532e-002</internalNodes>
          <leafValues>
            -6.0808444023132324e-001 1.8372993171215057e-001</leafValues></_>
        <_>
          <internalNodes>
            0 -1 139 4.7103916294872761e-003</internalNodes>
          <leafValues>
            3.0291628837585449e-001 -3.4020149707794189e-001</leafValues></_>
        <_>
          <internalNodes>
            0 -1 142 1.4652122557163239e-001</internalNodes>
          <leafValues>
            1.1507038027048111e-001 -7.8013080358505249e-001</leafValues></_>
        <_>
          <internalNodes>
            0 -1 70 1.8791909096762538e-003</internalNodes>
          <leafValues>
            3.2981872558593750e-001 -2.7274632453918457e-001</leafValues></_>
        <_>
          <internalNodes>
            0 -1 97 6.4977910369634628e-004</internalNodes>
          <leafValues>
            4.0439453721046448e-001 -1.9777473807334900e-001</leafValues></_>
        <_>
          <internalNodes>
            0 -1 81 1.2043772265315056e-002</internalNodes>
          <leafValues>
            -4.0226373076438904e-001 2.5244367122650146e-001</leafValues></_>
        <_>
          <internalNodes>
            0 -1 2 3.0886316671967506e-003</internalNodes>
          <leafValues>
            3.8027742505073547e-001 -2.7240478992462158e-001</leafValues></_>
        <_>
          <internalNodes>
            0 -1 14 3.3743628591764718e-005</internalNodes>
          <leafValues>
            -9.3528956174850464e-001 1.0566668957471848e-001</leafValues></_>
        <_>
          <internalNodes>
            0 -1 121 4.7633197158575058e-002</internalNodes>
          <leafValues>
            -2.1477596461772919e-001 3.8764041662216187e-001</leafValues></_>
        <_>
          <internalNodes>
            0 -1 170 6.0360163450241089e-002</internalNodes>
          <leafValues>
            -2.2663035988807678e-001 4.1938874125480652e-001</leafValues></_>
        <_>
          <internalNodes>
            0 -1 68 7.1320138871669769e-002</internalNodes>
          <leafValues>
            -1.5150523185729980e-001 5.4919630289077759e-001</leafValues></_>
        <_>
          <internalNodes>
            0 -1 208 7.5453510507941246e-003</internalNodes>
          <leafValues>
            -5.7366126775741577e-001 1.4810883998870850e-001</leafValues></_>
        <_>
          <internalNodes>
            0 -1 187 2.5447376072406769e-002</internalNodes>
          <leafValues>
            -2.1573971211910248e-001 3.6083886027336121e-001</leafValues></_></weakClassifiers></_>
    <!-- stage 11 -->
    <_>
      <maxWeakCount>16</maxWeakCount>
      <stageThreshold>2.0067764818668365e-001</stageThreshold>
      <weakClassifiers>
        <_>
          <internalNodes>
            0 -1 173 6.8320192396640778e-002</internalNodes>
          <leafValues>
            9.5295482873916626e-001 -6.4285713434219360e-001</leafValues></_>
        <_>
          <internalNodes>
            0 -1 17 1.5316307544708252e-003</internalNodes>
          <leafValues>
            9.0127360820770264e-001 4.0550827980041504e-001</leafValues></_>
        <_>
          <internalNodes>
            0 -1 4 2.7754026814363897e-004</internalNodes>
          <leafValues>
            6.9220781326293945e-001 -1.0066565871238708e-001</leafValues></_>
        <_>
          <internalNodes>
            0 -1 130 8.0819951836019754e-004</internalNodes>
          <leafValues>
            5.6898409128189087e-001 -2.3969097435474396e-001</leafValues></_>
        <_>
          <internalNodes>
            0 -1 35 4.1924290359020233e-002</internalNodes>
          <leafValues>
            -2.4165984988212585e-001 4.9852538108825684e-001</leafValues></_>
        <_>
          <internalNodes>
            0 -1 100 3.8849502801895142e-002</internalNodes>
          <leafValues>
            -2.4899043142795563e-001 4.7973960638046265e-001</leafValues></_>
        <_>
          <internalNodes>
            0 -1 55 2.0933761261403561e-003</internalNodes>
          <leafValues>
            3.7871813774108887e-001 -2.8706014156341553e-001</leafValues></_>
        <_>
          <internalNodes>
            0 -1 9 2.0421195775270462e-002</internalNodes>
          <leafValues>
            -3.0884414911270142e-001 3.1977018713951111e-001</leafValues></_>
        <_>
          <internalNodes>
            0 -1 88 4.0917811566032469e-004</internalNodes>
          <leafValues>
            5.6452083587646484e-001 -2.2526440024375916e-001</leafValues></_>
        <_>
          <internalNodes>
            0 -1 8 5.3826428949832916e-002</internalNodes>
          <leafValues>
            -1.6160102188587189e-001 6.5771037340164185e-001</leafValues></_>
        <_>
          <internalNodes>
            0 -1 204 1.3861861079931259e-002</internalNodes>
          <leafValues>
            2.1744163334369659e-001 -4.2818018794059753e-001</leafValues></_>
        <_>
          <internalNodes>
            0 -1 133 1.0328534990549088e-002</internalNodes>
          <leafValues>
            -7.7377969026565552e-001 9.0869709849357605e-002</leafValues></_>
        <_>
          <internalNodes>
            0 -1 10 2.4593133479356766e-002</internalNodes>
          <leafValues>
            -2.8801929950714111e-001 2.6815101504325867e-001</leafValues></_>
        <_>
          <internalNodes>
            0 -1 89 4.6298676170408726e-004</internalNodes>
          <leafValues>
            4.1058185696601868e-001 -2.0208203792572021e-001</leafValues></_>
        <_>
          <internalNodes>
            0 -1 143 8.6926184594631195e-002</internalNodes>
          <leafValues>
            -1.6087126731872559e-001 4.5687627792358398e-001</leafValues></_>
        <_>
          <internalNodes>
            0 -1 25 2.4387303739786148e-002</internalNodes>
          <leafValues>
            -5.1888519525527954e-001 1.6982093453407288e-001</leafValues></_></weakClassifiers></_>
    <!-- stage 12 -->
    <_>
      <maxWeakCount>24</maxWeakCount>
      <stageThreshold>3.4553292393684387e-001</stageThreshold>
      <weakClassifiers>
        <_>
          <internalNodes>
            0 -1 198 6.4633987843990326e-002</internalNodes>
          <leafValues>
            9.5255899429321289e-001 -5.8441555500030518e-001</leafValues></_>
        <_>
          <internalNodes>
            0 -1 3 2.3671404924243689e-003</internalNodes>
          <leafValues>
            8.4037047624588013e-001 3.9738321304321289e-001</leafValues></_>
        <_>
          <internalNodes>
            0 -1 42 3.4581980435177684e-004</internalNodes>
          <leafValues>
            6.9765865802764893e-001 -5.3889494389295578e-002</leafValues></_>
        <_>
          <internalNodes>
            0 -1 91 4.8569258302450180e-002</internalNodes>
          <leafValues>
            -1.9265770912170410e-001 5.3779155015945435e-001</leafValues></_>
        <_>
          <internalNodes>
            0 -1 58 4.9933703849092126e-004</internalNodes>
          <leafValues>
            4.8056557774543762e-001 -2.2574423253536224e-001</leafValues></_>
        <_>
          <internalNodes>
            0 -1 185 9.0176975354552269e-003</internalNodes>
          <leafValues>
            -6.5438187122344971e-001 1.5705263614654541e-001</leafValues></_>
        <_>
          <internalNodes>
            0 -1 125 1.1247780639678240e-003</internalNodes>
          <leafValues>
            3.6117157340049744e-001 -2.4359421432018280e-001</leafValues></_>
        <_>
          <internalNodes>
            0 -1 15 6.5188035368919373e-002</internalNodes>
          <leafValues>
            -1.6860768198966980e-001 5.2927565574645996e-001</leafValues></_>
        <_>
          <internalNodes>
            0 -1 57 6.8114548921585083e-002</internalNodes>
          <leafValues>
            -1.2878848612308502e-001 5.4407531023025513e-001</leafValues></_>
        <_>
          <internalNodes>
            0 -1 182 4.9494568258523941e-002</internalNodes>
          <leafValues>
            -2.6600798964500427e-001 3.5147085785865784e-001</leafValues></_>
        <_>
          <internalNodes>
            0 -1 108 4.3159216875210404e-004</internalNodes>
          <leafValues>
            5.3513085842132568e-001 -1.3814432919025421e-001</leafValues></_>
        <_>
          <internalNodes>
            0 -1 197 8.1812385469675064e-003</internalNodes>
          <leafValues>
            -6.4625453948974609e-001 1.2657316029071808e-001</leafValues></_>
        <_>
          <internalNodes>
            0 -1 192 5.5221527814865112e-002</internalNodes>
          <leafValues>
            -4.1779884696006775e-001 1.7665420472621918e-001</leafValues></_>
        <_>
          <internalNodes>
            0 -1 210 3.2808058895170689e-003</internalNodes>
          <leafValues>
            -5.6656855344772339e-001 1.3793778419494629e-001</leafValues></_>
        <_>
          <internalNodes>
            0 -1 4 4.1441060602664948e-004</internalNodes>
          <leafValues>
            3.0417889356613159e-001 -2.3946553468704224e-001</leafValues></_>
        <_>
          <internalNodes>
            0 -1 95 4.0157064795494080e-002</internalNodes>
          <leafValues>
            -1.6170738637447357e-001 6.4532977342605591e-001</leafValues></_>
        <_>
          <internalNodes>
            0 -1 166 6.7497054114937782e-003</internalNodes>
          <leafValues>
            -6.3883066177368164e-001 1.5493720769882202e-001</leafValues></_>
        <_>
          <internalNodes>
            0 -1 31 4.3263801489956677e-004</internalNodes>
          <leafValues>
            4.4143420457839966e-001 -1.8853498995304108e-001</leafValues></_>
        <_>
          <internalNodes>
            0 -1 187 1.5832856297492981e-002</internalNodes>
          <leafValues>
            -3.4160241484642029e-001 2.5380778312683105e-001</leafValues></_>
        <_>
          <internalNodes>
            0 -1 112 3.0130807310342789e-002</internalNodes>
          <leafValues>
            -3.1271290779113770e-001 2.3246420919895172e-001</leafValues></_>
        <_>
          <internalNodes>
            0 -1 89 1.6988858114928007e-003</internalNodes>
          <leafValues>
            3.5451820492744446e-001 -2.2828808426856995e-001</leafValues></_>
        <_>
          <internalNodes>
            0 -1 64 1.3915069401264191e-002</internalNodes>
          <leafValues>
            1.4838252961635590e-001 -4.2551469802856445e-001</leafValues></_>
        <_>
          <internalNodes>
            0 -1 47 3.6333013325929642e-002</internalNodes>
          <leafValues>
            -1.8243612349033356e-001 3.5225924849510193e-001</leafValues></_>
        <_>
          <internalNodes>
            0 -1 90 1.3915619254112244e-001</internalNodes>
          <leafValues>
            8.0795563757419586e-002 -7.8007417917251587e-001</leafValues></_></weakClassifiers></_>
    <!-- stage 13 -->
    <_>
      <maxWeakCount>25</maxWeakCount>
      <stageThreshold>3.5488945245742798e-001</stageThreshold>
      <weakClassifiers>
        <_>
          <internalNodes>
            0 -1 60 2.3182567954063416e-001</internalNodes>
          <leafValues>
            9.5269620418548584e-001 -4.3820226192474365e-001</leafValues></_>
        <_>
          <internalNodes>
            0 -1 27 1.9833847181871533e-004</internalNodes>
          <leafValues>
            8.9702308177947998e-001 4.6505576372146606e-001</leafValues></_>
        <_>
          <internalNodes>
            0 -1 3 9.5239037182182074e-004</internalNodes>
          <leafValues>
            5.6685936450958252e-001 -1.7060039937496185e-001</leafValues></_>
        <_>
          <internalNodes>
            0 -1 117 4.1308184154331684e-004</internalNodes>
          <leafValues>
            4.7722196578979492e-001 -2.2804623842239380e-001</leafValues></_>
        <_>
          <internalNodes>
            0 -1 175 4.7967974096536636e-003</internalNodes>
          <leafValues>
            -8.1127035617828369e-001 1.3763082027435303e-001</leafValues></_>
        <_>
          <internalNodes>
            0 -1 96 4.1457579936832190e-004</internalNodes>
          <leafValues>
            4.7085070610046387e-001 -2.0192563533782959e-001</leafValues></_>
        <_>
          <internalNodes>
            0 -1 170 3.2556988298892975e-002</internalNodes>
          <leafValues>
            -4.5633855462074280e-001 2.0839348435401917e-001</leafValues></_>
        <_>
          <internalNodes>
            0 -1 186 1.4527875930070877e-002</internalNodes>
          <leafValues>
            -3.4943181276321411e-001 2.0904862880706787e-001</leafValues></_>
        <_>
          <internalNodes>
            0 -1 30 2.8011755784973502e-004</internalNodes>
          <leafValues>
            4.9373430013656616e-001 -2.1857370436191559e-001</leafValues></_>
        <_>
          <internalNodes>
            0 -1 68 8.0324105918407440e-002</internalNodes>
          <leafValues>
            -1.4507845044136047e-001 5.8979779481887817e-001</leafValues></_>
        <_>
          <internalNodes>
            0 -1 189 1.0344705544412136e-002</internalNodes>
          <leafValues>
            -4.6014416217803955e-001 1.7258936166763306e-001</leafValues></_>
        <_>
          <internalNodes>
            0 -1 137 1.3868298381567001e-002</internalNodes>
          <leafValues>
            1.4509469270706177e-001 -5.0137186050415039e-001</leafValues></_>
        <_>
          <internalNodes>
            0 -1 43 5.0847616512328386e-004</internalNodes>
          <leafValues>
            4.2850631475448608e-001 -1.5531171858310699e-001</leafValues></_>
        <_>
          <internalNodes>
            0 -1 209 2.5245577562600374e-003</internalNodes>
          <leafValues>
            -5.9351491928100586e-001 1.2220186740159988e-001</leafValues></_>
        <_>
          <internalNodes>
            0 -1 141 5.0056807231158018e-004</internalNodes>
          <leafValues>
            3.6063510179519653e-001 -1.8489561975002289e-001</leafValues></_>
        <_>
          <internalNodes>
            0 -1 92 5.6336503475904465e-003</internalNodes>
          <leafValues>
            -6.2378036975860596e-001 1.2997862696647644e-001</leafValues></_>
        <_>
          <internalNodes>
            0 -1 70 1.1392671149224043e-003</internalNodes>
          <leafValues>
            3.1790322065353394e-001 -2.0844830572605133e-001</leafValues></_>
        <_>
          <internalNodes>
            0 -1 158 1.0252845287322998e-001</internalNodes>
          <leafValues>
            1.0638464987277985e-001 -6.8068677186965942e-001</leafValues></_>
        <_>
          <internalNodes>
            0 -1 97 7.4651725590229034e-003</internalNodes>
          <leafValues>
            2.2375327348709106e-001 -2.6578247547149658e-001</leafValues></_>
        <_>
          <internalNodes>
            0 -1 2 1.4389271382242441e-003</internalNodes>
          <leafValues>
            3.4982839226722717e-001 -1.8371990323066711e-001</leafValues></_>
        <_>
          <internalNodes>
            0 -1 82 1.5523237176239491e-002</internalNodes>
          <leafValues>
            -3.3639737963676453e-001 2.2677379846572876e-001</leafValues></_>
        <_>
          <internalNodes>
            0 -1 102 3.0652573332190514e-003</internalNodes>
          <leafValues>
            -8.3697277307510376e-001 7.4092477560043335e-002</leafValues></_>
        <_>
          <internalNodes>
            0 -1 184 3.1672774348407984e-003</internalNodes>
          <leafValues>
            -5.0115716457366943e-001 9.8550327122211456e-002</leafValues></_>
        <_>
          <internalNodes>
            0 -1 143 6.9744884967803955e-002</internalNodes>
          <leafValues>
            -1.9394509494304657e-001 2.9518970847129822e-001</leafValues></_>
        <_>
          <internalNodes>
            0 -1 12 2.7775686234235764e-002</internalNodes>
          <leafValues>
            -1.9812735915184021e-001 3.0956852436065674e-001</leafValues></_></weakClassifiers></_>
    <!-- stage 14 -->
    <_>
      <maxWeakCount>25</maxWeakCount>
      <stageThreshold>3.8137829303741455e-001</stageThreshold>
      <weakClassifiers>
        <_>
          <internalNodes>
            0 -1 134 9.0605467557907104e-002</internalNodes>
          <leafValues>
            9.4820111989974976e-001 -7.5999999046325684e-001</leafValues></_>
        <_>
          <internalNodes>
            0 -1 109 2.0538544049486518e-004</internalNodes>
          <leafValues>
            9.1475927829742432e-001 4.9378773570060730e-001</leafValues></_>
        <_>
          <internalNodes>
            0 -1 132 6.9262535544112325e-004</internalNodes>
          <leafValues>
            6.5621900558471680e-001 -8.4197551012039185e-002</leafValues></_>
        <_>
          <internalNodes>
            0 -1 104 3.0150884413160384e-004</internalNodes>
          <leafValues>
            5.9932631254196167e-001 -1.5797412395477295e-001</leafValues></_>
        <_>
          <internalNodes>
            0 -1 25 3.2415688037872314e-002</internalNodes>
          <leafValues>
            -5.2109706401824951e-001 1.5703295171260834e-001</leafValues></_>
        <_>
          <internalNodes>
            0 -1 4 3.9485481102019548e-004</internalNodes>
          <leafValues>
            2.7165129780769348e-001 -3.2492667436599731e-001</leafValues></_>
        <_>
          <internalNodes>
            0 -1 197 1.7890265211462975e-002</internalNodes>
          <leafValues>
            -5.2434992790222168e-001 1.9669926166534424e-001</leafValues></_>
        <_>
          <internalNodes>
            0 -1 204 1.8506295979022980e-002</internalNodes>
          <leafValues>
            1.2128827720880508e-001 -5.6032675504684448e-001</leafValues></_>
        <_>
          <internalNodes>
            0 -1 88 7.9662364441901445e-004</internalNodes>
          <leafValues>
            3.8483983278274536e-001 -2.0970669388771057e-001</leafValues></_>
        <_>
          <internalNodes>
            0 -1 6 7.5097709894180298e-002</internalNodes>
          <leafValues>
            1.2123464792966843e-001 -6.6634398698806763e-001</leafValues></_>
        <_>
          <internalNodes>
            0 -1 71 7.5028056744486094e-004</internalNodes>
          <leafValues>
            3.4896257519721985e-001 -2.3315821588039398e-001</leafValues></_>
        <_>
          <internalNodes>
            0 -1 86 9.4416485808324069e-005</internalNodes>
          <leafValues>
            -9.2644315958023071e-001 9.1783456504344940e-002</leafValues></_>
        <_>
          <internalNodes>
            0 -1 45 4.9987554550170898e-002</internalNodes>
          <leafValues>
            -1.7653439939022064e-001 3.9880466461181641e-001</leafValues></_>
        <_>
          <internalNodes>
            0 -1 162 5.2040603011846542e-002</internalNodes>
          <leafValues>
            -2.7389225363731384e-001 3.0822107195854187e-001</leafValues></_>
        <_>
          <internalNodes>
            0 -1 106 9.9095725454390049e-004</internalNodes>
          <leafValues>
            3.9441335201263428e-001 -1.8145300447940826e-001</leafValues></_>
        <_>
          <internalNodes>
            0 -1 92 1.3862666673958302e-003</internalNodes>
          <leafValues>
            -7.2308504581451416e-001 8.4579855203628540e-002</leafValues></_>
        <_>
          <internalNodes>
            0 -1 2 6.4910501241683960e-003</internalNodes>
          <leafValues>
            2.7041152119636536e-001 -2.9299709200859070e-001</leafValues></_>
        <_>
          <internalNodes>
            0 -1 74 6.9533534348011017e-002</internalNodes>
          <leafValues>
            -1.2977333366870880e-001 6.0996180772781372e-001</leafValues></_>
        <_>
          <internalNodes>
            0 -1 188 5.8470793068408966e-002</internalNodes>
          <leafValues>
            1.8087197840213776e-001 -3.5839444398880005e-001</leafValues></_>
        <_>
          <internalNodes>
            0 -1 32 3.5527683794498444e-002</internalNodes>
          <leafValues>
            -3.3540716767311096e-001 1.8735846877098083e-001</leafValues></_>
        <_>
          <internalNodes>
            0 -1 210 8.2233705325052142e-004</internalNodes>
          <leafValues>
            -7.3103821277618408e-001 6.9486163556575775e-002</leafValues></_>
        <_>
          <internalNodes>
            0 -1 75 1.9251689314842224e-002</internalNodes>
          <leafValues>
            -4.8562082648277283e-001 1.1011374741792679e-001</leafValues></_>
        <_>
          <internalNodes>
            0 -1 87 1.6169426962733269e-003</internalNodes>
          <leafValues>
            4.5445457100868225e-001 -1.4024026691913605e-001</leafValues></_>
        <_>
          <internalNodes>
            0 -1 8 3.4626387059688568e-002</internalNodes>
          <leafValues>
            -1.8947550654411316e-001 3.4421557188034058e-001</leafValues></_>
        <_>
          <internalNodes>
            0 -1 156 2.7356171980500221e-002</internalNodes>
          <leafValues>
            -1.6450932621955872e-001 3.8672542572021484e-001</leafValues></_></weakClassifiers></_>
    <!-- stage 15 -->
    <_>
      <maxWeakCount>31</maxWeakCount>
      <stageThreshold>3.9830419421195984e-001</stageThreshold>
      <weakClassifiers>
        <_>
          <internalNodes>
            0 -1 164 6.4694583415985107e-002</internalNodes>
          <leafValues>
            9.4973808526992798e-001 -2.8695651888847351e-001</leafValues></_>
        <_>
          <internalNodes>
            0 -1 19 6.0835306067019701e-004</internalNodes>
          <leafValues>
            8.5642737150192261e-001 4.3403697013854980e-001</leafValues></_>
        <_>
          <internalNodes>
            0 -1 28 3.2432109583169222e-004</internalNodes>
          <leafValues>
            6.8000191450119019e-001 -5.5717684328556061e-002</leafValues></_>
        <_>
          <internalNodes>
            0 -1 91 4.1244458407163620e-003</internalNodes>
          <leafValues>
            -6.8712031841278076e-001 1.7499387264251709e-001</leafValues></_>
        <_>
          <internalNodes>
            0 -1 108 1.6650048200972378e-004</internalNodes>
          <leafValues>
            5.5592399835586548e-001 -1.9437846541404724e-001</leafValues></_>
        <_>
          <internalNodes>
            0 -1 146 6.7799881100654602e-002</internalNodes>
          <leafValues>
            -2.5249424576759338e-001 3.7547412514686584e-001</leafValues></_>
        <_>
          <internalNodes>
            0 -1 80 1.0769784450531006e-002</internalNodes>
          <leafValues>
            -4.4502094388008118e-001 1.6968947649002075e-001</leafValues></_>
        <_>
          <internalNodes>
            0 -1 88 1.3651889748871326e-003</internalNodes>
          <leafValues>
            3.9482185244560242e-001 -2.1744795143604279e-001</leafValues></_>
        <_>
          <internalNodes>
            0 -1 5 1.4933461789041758e-003</internalNodes>
          <leafValues>
            3.5824868083000183e-001 -2.8503039479255676e-001</leafValues></_>
        <_>
          <internalNodes>
            0 -1 13 1.6555510461330414e-002</internalNodes>
          <leafValues>
            -3.3242803812026978e-001 2.1703256666660309e-001</leafValues></_>
        <_>
          <internalNodes>
            0 -1 192 3.8955159485340118e-002</internalNodes>
          <leafValues>
            -5.3798186779022217e-001 1.3408662378787994e-001</leafValues></_>
        <_>
          <internalNodes>
            0 -1 112 5.6837640702724457e-002</internalNodes>
          <leafValues>
            -2.2313965857028961e-001 3.8618102669715881e-001</leafValues></_>
        <_>
          <internalNodes>
            0 -1 83 2.8988990932703018e-002</internalNodes>
          <leafValues>
            -1.7744153738021851e-001 3.3681410551071167e-001</leafValues></_>
        <_>
          <internalNodes>
            0 -1 2 1.2772195041179657e-003</internalNodes>
          <leafValues>
            3.4085971117019653e-001 -1.7683881521224976e-001</leafValues></_>
        <_>
          <internalNodes>
            0 -1 100 4.7626599669456482e-002</internalNodes>
          <leafValues>
            -1.3355177640914917e-001 4.8536404967308044e-001</leafValues></_>
        <_>
          <internalNodes>
            0 -1 15 8.5289524868130684e-003</internalNodes>
          <leafValues>
            -5.0708609819412231e-001 1.2923157215118408e-001</leafValues></_>
        <_>
          <internalNodes>
            0 -1 50 3.0831940239295363e-004</internalNodes>
          <leafValues>
            3.5705077648162842e-001 -2.1241854131221771e-001</leafValues></_>
        <_>
          <internalNodes>
            0 -1 76 1.8972025718539953e-003</internalNodes>
          <leafValues>
            -4.7930532693862915e-001 1.4154180884361267e-001</leafValues></_>
        <_>
          <internalNodes>
            0 -1 139 1.6739021521061659e-003</internalNodes>
          <leafValues>
            3.1262025237083435e-001 -1.9478403031826019e-001</leafValues></_>
        <_>
          <internalNodes>
            0 -1 186 2.5219000875949860e-002</internalNodes>
          <leafValues>
            -1.8461647629737854e-001 3.2607764005661011e-001</leafValues></_>
        <_>
          <internalNodes>
            0 -1 73 4.1396804153919220e-002</internalNodes>
          <leafValues>
            -1.1665324866771698e-001 5.1626110076904297e-001</leafValues></_>
        <_>
          <internalNodes>
            0 -1 21 5.9801485389471054e-002</internalNodes>
          <leafValues>
            -1.2986662983894348e-001 5.8117634057998657e-001</leafValues></_>
        <_>
          <internalNodes>
            0 -1 149 5.7263933122158051e-003</internalNodes>
          <leafValues>
            -3.0751466751098633e-001 1.8765525519847870e-001</leafValues></_>
        <_>
          <internalNodes>
            0 -1 64 5.5575522128492594e-004</internalNodes>
          <leafValues>
            4.9244990944862366e-001 -1.5203511714935303e-001</leafValues></_>
        <_>
          <internalNodes>
            0 -1 160 5.7835073675960302e-004</internalNodes>
          <leafValues>
            -8.2621383666992188e-001 7.3095425963401794e-002</leafValues></_>
        <_>
          <internalNodes>
            0 -1 188 9.0448580682277679e-002</internalNodes>
          <leafValues>
            8.1633910536766052e-002 -5.1002973318099976e-001</leafValues></_>
        <_>
          <internalNodes>
            0 -1 130 6.9674698170274496e-004</internalNodes>
          <leafValues>
            3.5866403579711914e-001 -1.8419371545314789e-001</leafValues></_>
        <_>
          <internalNodes>
            0 -1 180 2.6234298944473267e-002</internalNodes>
          <leafValues>
            9.5604993402957916e-002 -5.6190270185470581e-001</leafValues></_>
        <_>
          <internalNodes>
            0 -1 9 4.0977202355861664e-002</internalNodes>
          <leafValues>
            -1.5045925974845886e-001 3.3982947468757629e-001</leafValues></_>
        <_>
          <internalNodes>
            0 -1 98 1.9266065210103989e-002</internalNodes>
          <leafValues>
            1.5395496785640717e-001 -3.8540735840797424e-001</leafValues></_>
        <_>
          <internalNodes>
            0 -1 211 3.3584786579012871e-003</internalNodes>
          <leafValues>
            -5.2179127931594849e-001 1.0644785314798355e-001</leafValues></_></weakClassifiers></_>
    <!-- stage 16 -->
    <_>
      <maxWeakCount>27</maxWeakCount>
      <stageThreshold>4.3302193284034729e-001</stageThreshold>
      <weakClassifiers>
        <_>
          <internalNodes>
            0 -1 154 5.9936158359050751e-002</internalNodes>
          <leafValues>
            9.5111221075057983e-001 -3.9860141277313232e-001</leafValues></_>
        <_>
          <internalNodes>
            0 -1 122 6.6323409555479884e-005</internalNodes>
          <leafValues>
            -3.0018481612205505e-001 7.4719911813735962e-001</leafValues></_>
        <_>
          <internalNodes>
            0 -1 16 7.3746091220527887e-004</internalNodes>
          <leafValues>
            5.8282005786895752e-001 -8.9324429631233215e-002</leafValues></_>
        <_>
          <internalNodes>
            0 -1 114 5.7834794279187918e-004</internalNodes>
          <leafValues>
            3.4773710370063782e-001 -2.6334735751152039e-001</leafValues></_>
        <_>
          <internalNodes>
            0 -1 11 7.2642546147108078e-003</internalNodes>
          <leafValues>
            -4.9469017982482910e-001 2.3970586061477661e-001</leafValues></_>
        <_>
          <internalNodes>
            0 -1 20 5.7996995747089386e-004</internalNodes>
          <leafValues>
            3.1419339776039124e-001 -2.7952253818511963e-001</leafValues></_>
        <_>
          <internalNodes>
            0 -1 39 1.9786354154348373e-002</internalNodes>
          <leafValues>
            -7.0034492015838623e-001 1.1407050490379333e-001</leafValues></_>
        <_>
          <internalNodes>
            0 -1 170 5.3908102214336395e-002</internalNodes>
          <leafValues>
            -2.5957471132278442e-001 2.8030166029930115e-001</leafValues></_>
        <_>
          <internalNodes>
            0 -1 135 6.4612880349159241e-002</internalNodes>
          <leafValues>
            -1.5329305827617645e-001 5.5734539031982422e-001</leafValues></_>
        <_>
          <internalNodes>
            0 -1 58 1.2619160115718842e-003</internalNodes>
          <leafValues>
            3.5551688075065613e-001 -1.9107697904109955e-001</leafValues></_>
        <_>
          <internalNodes>
            0 -1 189 2.6025023311376572e-002</internalNodes>
          <leafValues>
            -2.4154637753963470e-001 3.0111709237098694e-001</leafValues></_>
        <_>
          <internalNodes>
            0 -1 63 5.4732497781515121e-002</internalNodes>
          <leafValues>
            -1.7704202234745026e-001 4.0437394380569458e-001</leafValues></_>
        <_>
          <internalNodes>
            0 -1 144 1.1966671794652939e-002</internalNodes>
          <leafValues>
            2.4172124266624451e-001 -2.8280454874038696e-001</leafValues></_>
        <_>
          <internalNodes>
            0 -1 103 2.4183150380849838e-002</internalNodes>
          <leafValues>
            -1.3069237768650055e-001 5.1702857017517090e-001</leafValues></_>
        <_>
          <internalNodes>
            0 -1 26 3.6168075166642666e-004</internalNodes>
          <leafValues>
            4.6540278196334839e-001 -1.4892596006393433e-001</leafValues></_>
        <_>
          <internalNodes>
            0 -1 102 1.4403379522264004e-002</internalNodes>
          <leafValues>
            -6.6482555866241455e-001 1.2557163834571838e-001</leafValues></_>
        <_>
          <internalNodes>
            0 -1 205 1.4892208576202393e-001</internalNodes>
          <leafValues>
            7.4054472148418427e-002 -7.5417095422744751e-001</leafValues></_>
        <_>
          <internalNodes>
            0 -1 196 3.6001190543174744e-002</internalNodes>
          <leafValues>
            7.8736864030361176e-002 -6.3330507278442383e-001</leafValues></_>
        <_>
          <internalNodes>
            0 -1 93 2.3594588041305542e-002</internalNodes>
          <leafValues>
            -2.9862907528877258e-001 1.8555249273777008e-001</leafValues></_>
        <_>
          <internalNodes>
            0 -1 88 6.4161210320889950e-004</internalNodes>
          <leafValues>
            3.9106553792953491e-001 -1.9376747310161591e-001</leafValues></_>
        <_>
          <internalNodes>
            0 -1 2 1.9537815824151039e-003</internalNodes>
          <leafValues>
            3.1149637699127197e-001 -2.0883168280124664e-001</leafValues></_>
        <_>
          <internalNodes>
            0 -1 172 3.3558208495378494e-002</internalNodes>
          <leafValues>
            9.4289064407348633e-002 -7.6346760988235474e-001</leafValues></_>
        <_>
          <internalNodes>
            0 -1 163 2.2376198321580887e-003</internalNodes>
          <leafValues>
            -4.4467547535896301e-001 1.4534452557563782e-001</leafValues></_>
        <_>
          <internalNodes>
            0 -1 149 8.1526447320356965e-004</internalNodes>
          <leafValues>
            -5.1723766326904297e-001 1.1203020066022873e-001</leafValues></_>
        <_>
          <internalNodes>
            0 -1 212 8.6671337485313416e-002</internalNodes>
          <leafValues>
            -2.0147342979907990e-001 3.2368955016136169e-001</leafValues></_>
        <_>
          <internalNodes>
            0 -1 123 4.2715854942798615e-002</internalNodes>
          <leafValues>
            -1.1091794818639755e-001 4.3832883238792419e-001</leafValues></_>
        <_>
          <internalNodes>
            0 -1 95 2.3142714053392410e-002</internalNodes>
          <leafValues>
            -1.6145339608192444e-001 3.8131299614906311e-001</leafValues></_></weakClassifiers></_>
    <!-- stage 17 -->
    <_>
      <maxWeakCount>24</maxWeakCount>
      <stageThreshold>3.6217036843299866e-001</stageThreshold>
      <weakClassifiers>
        <_>
          <internalNodes>
            0 -1 6 1.5040805935859680e-001</internalNodes>
          <leafValues>
            9.5177251100540161e-001 -2.6966291666030884e-001</leafValues></_>
        <_>
          <internalNodes>
            0 -1 41 2.1896018006373197e-004</internalNodes>
          <leafValues>
            8.7589633464813232e-001 4.6896266937255859e-001</leafValues></_>
        <_>
          <internalNodes>
            0 -1 30 1.8397445091977715e-003</internalNodes>
          <leafValues>
            5.5669713020324707e-001 -8.0105766654014587e-002</leafValues></_>
        <_>
          <internalNodes>
            0 -1 81 3.5668082535266876e-002</internalNodes>
          <leafValues>
            -1.9902861118316650e-001 5.7559460401535034e-001</leafValues></_>
        <_>
          <internalNodes>
            0 -1 122 5.4252102971076965e-002</internalNodes>
          <leafValues>
            -2.7411103248596191e-001 3.5203424096107483e-001</leafValues></_>
        <_>
          <internalNodes>
            0 -1 51 3.0367274302989244e-004</internalNodes>
          <leafValues>
            4.7645241022109985e-001 -1.9025044143199921e-001</leafValues></_>
        <_>
          <internalNodes>
            0 -1 210 5.3246915340423584e-002</internalNodes>
          <leafValues>
            1.0176636278629303e-001 -9.5290076732635498e-001</leafValues></_>
        <_>
          <internalNodes>
            0 -1 132 5.0223345169797540e-004</internalNodes>
          <leafValues>
            3.7420615553855896e-001 -2.4096138775348663e-001</leafValues></_>
        <_>
          <internalNodes>
            0 -1 191 1.1639744043350220e-001</internalNodes>
          <leafValues>
            1.0603142529726028e-001 -8.0222886800765991e-001</leafValues></_>
        <_>
          <internalNodes>
            0 -1 74 4.0896274149417877e-002</internalNodes>
          <leafValues>
            -2.1945346891880035e-001 3.7343299388885498e-001</leafValues></_>
        <_>
          <internalNodes>
            0 -1 4 9.9291559308767319e-004</internalNodes>
          <leafValues>
            2.9087001085281372e-001 -3.5060492157936096e-001</leafValues></_>
        <_>
          <internalNodes>
            0 -1 153 1.5223212540149689e-003</internalNodes>
          <leafValues>
            -7.0768678188323975e-001 1.4940731227397919e-001</leafValues></_>
        <_>
          <internalNodes>
            0 -1 201 6.5947547554969788e-002</internalNodes>
          <leafValues>
            -3.6268880963325500e-001 2.1624563634395599e-001</leafValues></_>
        <_>
          <internalNodes>
            0 -1 146 1.0521583259105682e-001</internalNodes>
          <leafValues>
            -1.2733601033687592e-001 5.8200031518936157e-001</leafValues></_>
        <_>
          <internalNodes>
            0 -1 105 8.1498408690094948e-004</internalNodes>
          <leafValues>
            4.1477575898170471e-001 -1.3842026889324188e-001</leafValues></_>
        <_>
          <internalNodes>
            0 -1 9 6.0874200426042080e-003</internalNodes>
          <leafValues>
            -4.3172246217727661e-001 1.7201822996139526e-001</leafValues></_>
        <_>
          <internalNodes>
            0 -1 207 3.8908932358026505e-002</internalNodes>
          <leafValues>
            -4.3240928649902344e-001 1.4238587021827698e-001</leafValues></_>
        <_>
          <internalNodes>
            0 -1 84 3.1387638300657272e-002</internalNodes>
          <leafValues>
            -1.5431384742259979e-001 4.2771378159523010e-001</leafValues></_>
        <_>
          <internalNodes>
            0 -1 3 6.8696239031851292e-004</internalNodes>
          <leafValues>
            2.7413254976272583e-001 -2.6635336875915527e-001</leafValues></_>
        <_>
          <internalNodes>
            0 -1 113 2.6217998936772346e-002</internalNodes>
          <leafValues>
            -1.7601117491722107e-001 3.2434046268463135e-001</leafValues></_>
        <_>
          <internalNodes>
            0 -1 57 9.7550198435783386e-002</internalNodes>
          <leafValues>
            -7.9793244600296021e-002 7.6659882068634033e-001</leafValues></_>
        <_>
          <internalNodes>
            0 -1 203 1.9177893176674843e-002</internalNodes>
          <leafValues>
            1.1508508026599884e-001 -5.4444855451583862e-001</leafValues></_>
        <_>
          <internalNodes>
            0 -1 202 2.0991796627640724e-003</internalNodes>
          <leafValues>
            -8.2664585113525391e-001 5.5537167936563492e-002</leafValues></_>
        <_>
          <internalNodes>
            0 -1 88 5.2081339526921511e-004</internalNodes>
          <leafValues>
            3.3268743753433228e-001 -1.9017881155014038e-001</leafValues></_></weakClassifiers></_>
    <!-- stage 18 -->
    <_>
      <maxWeakCount>26</maxWeakCount>
      <stageThreshold>2.6008823513984680e-001</stageThreshold>
      <weakClassifiers>
        <_>
          <internalNodes>
            0 -1 116 5.2970170509070158e-004</internalNodes>
          <leafValues>
            -5.0561797618865967e-001 9.4939386844635010e-001</leafValues></_>
        <_>
          <internalNodes>
            0 -1 53 1.6031399718485773e-004</internalNodes>
          <leafValues>
            9.0381228923797607e-001 4.5607194304466248e-001</leafValues></_>
        <_>
          <internalNodes>
            0 -1 115 4.6328591997735202e-004</internalNodes>
          <leafValues>
            7.1563583612442017e-001 -5.6090850383043289e-002</leafValues></_>
        <_>
          <internalNodes>
            0 -1 38 2.7860322734341025e-004</internalNodes>
          <leafValues>
            5.7109057903289795e-001 -1.7877379059791565e-001</leafValues></_>
        <_>
          <internalNodes>
            0 -1 81 1.5453895553946495e-002</internalNodes>
          <leafValues>
            -4.9080184102058411e-001 2.7335917949676514e-001</leafValues></_>
        <_>
          <internalNodes>
            0 -1 4 4.5185693306848407e-004</internalNodes>
          <leafValues>
            3.4231293201446533e-001 -3.5674601793289185e-001</leafValues></_>
        <_>
          <internalNodes>
            0 -1 70 8.7119434028863907e-003</internalNodes>
          <leafValues>
            1.8410538136959076e-001 -4.5192050933837891e-001</leafValues></_>
        <_>
          <internalNodes>
            0 -1 152 7.6732999878004193e-004</internalNodes>
          <leafValues>
            -8.0201488733291626e-001 8.9234523475170135e-002</leafValues></_>
        <_>
          <internalNodes>
            0 -1 35 6.4956136047840118e-002</internalNodes>
          <leafValues>
            -1.3494662940502167e-001 5.6991630792617798e-001</leafValues></_>
        <_>
          <internalNodes>
            0 -1 46 5.3542181849479675e-002</internalNodes>
          <leafValues>
            -2.5341975688934326e-001 2.8211423754692078e-001</leafValues></_>
        <_>
          <internalNodes>
            0 -1 145 1.4043415430933237e-003</internalNodes>
          <leafValues>
            3.8581246137619019e-001 -2.1186546981334686e-001</leafValues></_>
        <_>
          <internalNodes>
            0 -1 31 5.0324364565312862e-004</internalNodes>
          <leafValues>
            3.4954032301902771e-001 -1.7506767809391022e-001</leafValues></_>
        <_>
          <internalNodes>
            0 -1 82 1.3434950262308121e-002</internalNodes>
          <leafValues>
            -3.1697082519531250e-001 2.2624506056308746e-001</leafValues></_>
        <_>
          <internalNodes>
            0 -1 120 8.5209608078002930e-003</internalNodes>
          <leafValues>
            -8.0784714221954346e-001 8.7773829698562622e-002</leafValues></_>
        <_>
          <internalNodes>
            0 -1 107 5.5726495338603854e-004</internalNodes>
          <leafValues>
            4.6046480536460876e-001 -1.6632352769374847e-001</leafValues></_>
        <_>
          <internalNodes>
            0 -1 178 9.1490164399147034e-002</internalNodes>
          <leafValues>
            1.7919562757015228e-001 -4.4705083966255188e-001</leafValues></_>
        <_>
          <internalNodes>
            0 -1 72 9.1575324768200517e-004</internalNodes>
          <leafValues>
            4.0728983283042908e-001 -1.5028423070907593e-001</leafValues></_>
        <_>
          <internalNodes>
            0 -1 174 3.7108689546585083e-002</internalNodes>
          <leafValues>
            -5.2124637365341187e-001 1.0394050925970078e-001</leafValues></_>
        <_>
          <internalNodes>
            0 -1 148 2.4211516603827477e-002</internalNodes>
          <leafValues>
            -2.2199448943138123e-001 2.7489525079727173e-001</leafValues></_>
        <_>
          <internalNodes>
            0 -1 197 2.8464745264500380e-004</internalNodes>
          <leafValues>
            -9.0466606616973877e-001 6.4791202545166016e-002</leafValues></_>
        <_>
          <internalNodes>
            0 -1 40 5.2433746168389916e-004</internalNodes>
          <leafValues>
            4.1264975070953369e-001 -1.5496747195720673e-001</leafValues></_>
        <_>
          <internalNodes>
            0 -1 9 3.6588706076145172e-002</internalNodes>
          <leafValues>
            -1.5359137952327728e-001 3.7654203176498413e-001</leafValues></_>
        <_>
          <internalNodes>
            0 -1 84 5.6952230632305145e-002</internalNodes>
          <leafValues>
            -9.0553335845470428e-002 6.3968867063522339e-001</leafValues></_>
        <_>
          <internalNodes>
            0 -1 3 3.6253305734135211e-004</internalNodes>
          <leafValues>
            2.6064035296440125e-001 -2.2325079143047333e-001</leafValues></_>
        <_>
          <internalNodes>
            0 -1 195 3.2466061413288116e-002</internalNodes>
          <leafValues>
            7.3312006890773773e-002 -8.6743718385696411e-001</leafValues></_>
        <_>
          <internalNodes>
            0 -1 90 1.2116971611976624e-001</internalNodes>
          <leafValues>
            5.1804132759571075e-002 -7.7186977863311768e-001</leafValues></_></weakClassifiers></_>
    <!-- stage 19 -->
    <_>
      <maxWeakCount>31</maxWeakCount>
      <stageThreshold>3.7827005982398987e-001</stageThreshold>
      <weakClassifiers>
        <_>
          <internalNodes>
            0 -1 25 5.2910287195118144e-005</internalNodes>
          <leafValues>
            -6.7391306161880493e-001 9.4993221759796143e-001</leafValues></_>
        <_>
          <internalNodes>
            0 -1 28 1.6589497681707144e-004</internalNodes>
          <leafValues>
            9.1980826854705811e-001 5.1207631826400757e-001</leafValues></_>
        <_>
          <internalNodes>
            0 -1 17 4.1467358823865652e-004</internalNodes>
          <leafValues>
            5.2913314104080200e-001 -8.9735470712184906e-002</leafValues></_>
        <_>
          <internalNodes>
            0 -1 81 3.7883869372308254e-003</internalNodes>
          <leafValues>
            -5.1414847373962402e-001 1.7322330176830292e-001</leafValues></_>
        <_>
          <internalNodes>
            0 -1 54 2.1620621555484831e-004</internalNodes>
          <leafValues>
            4.4151192903518677e-001 -2.1663795411586761e-001</leafValues></_>
        <_>
          <internalNodes>
            0 -1 190 1.0834308341145515e-002</internalNodes>
          <leafValues>
            -6.5642797946929932e-001 1.2742200493812561e-001</leafValues></_>
        <_>
          <internalNodes>
            0 -1 5 1.8622369971126318e-003</internalNodes>
          <leafValues>
            2.7617588639259338e-001 -3.0848881602287292e-001</leafValues></_>
        <_>
          <internalNodes>
            0 -1 173 3.6276761442422867e-002</internalNodes>
          <leafValues>
            1.0204192250967026e-001 -7.8092485666275024e-001</leafValues></_>
        <_>
          <internalNodes>
            0 -1 43 5.2789901383221149e-004</internalNodes>
          <leafValues>
            4.0892407298088074e-001 -2.0189389586448669e-001</leafValues></_>
        <_>
          <internalNodes>
            0 -1 208 1.7700072377920151e-002</internalNodes>
          <leafValues>
            -3.4995144605636597e-001 2.4213135242462158e-001</leafValues></_>
        <_>
          <internalNodes>
            0 -1 76 5.7731345295906067e-003</internalNodes>
          <leafValues>
            -3.3453655242919922e-001 2.3613914847373962e-001</leafValues></_>
        <_>
          <internalNodes>
            0 -1 89 2.6215566322207451e-003</internalNodes>
          <leafValues>
            2.5585800409317017e-001 -2.5212037563323975e-001</leafValues></_>
        <_>
          <internalNodes>
            0 -1 142 1.5654270350933075e-001</internalNodes>
          <leafValues>
            8.6360841989517212e-002 -7.9075866937637329e-001</leafValues></_>
        <_>
          <internalNodes>
            0 -1 139 2.4197322782129049e-003</internalNodes>
          <leafValues>
            2.9960379004478455e-001 -2.5909900665283203e-001</leafValues></_>
        <_>
          <internalNodes>
            0 -1 159 3.0492542311549187e-002</internalNodes>
          <leafValues>
            7.8362189233303070e-002 -7.8237849473953247e-001</leafValues></_>
        <_>
          <internalNodes>
            0 -1 129 1.4593665301799774e-001</internalNodes>
          <leafValues>
            8.2658842206001282e-002 -6.0406613349914551e-001</leafValues></_>
        <_>
          <internalNodes>
            0 -1 56 2.5279284454882145e-003</internalNodes>
          <leafValues>
            2.4502767622470856e-001 -2.6924917101860046e-001</leafValues></_>
        <_>
          <internalNodes>
            0 -1 166 1.2280096998438239e-003</internalNodes>
          <leafValues>
            -7.8321146965026855e-001 7.5092040002346039e-002</leafValues></_>
        <_>
          <internalNodes>
            0 -1 24 1.7379503697156906e-004</internalNodes>
          <leafValues>
            4.1039669513702393e-001 -1.7186982929706573e-001</leafValues></_>
        <_>
          <internalNodes>
            0 -1 86 1.0107553005218506e-001</internalNodes>
          <leafValues>
            8.7465569376945496e-002 -6.5860068798065186e-001</leafValues></_>
        <_>
          <internalNodes>
            0 -1 105 9.7564386669546366e-004</internalNodes>
          <leafValues>
            3.9016458392143250e-001 -1.5913057327270508e-001</leafValues></_>
        <_>
          <internalNodes>
            0 -1 182 4.1040398180484772e-002</internalNodes>
          <leafValues>
            -2.6409864425659180e-001 2.1861812472343445e-001</leafValues></_>
        <_>
          <internalNodes>
            0 -1 90 7.4584387242794037e-002</internalNodes>
          <leafValues>
            1.1457970738410950e-001 -4.7243750095367432e-001</leafValues></_>
        <_>
          <internalNodes>
            0 -1 2 1.6372188925743103e-002</internalNodes>
          <leafValues>
            1.6176857054233551e-001 -3.4213322401046753e-001</leafValues></_>
        <_>
          <internalNodes>
            0 -1 13 2.1459072013385594e-004</internalNodes>
          <leafValues>
            -6.6123110055923462e-001 8.0997593700885773e-002</leafValues></_>
        <_>
          <internalNodes>
            0 -1 68 1.1010724306106567e-001</internalNodes>
          <leafValues>
            -8.2991935312747955e-002 5.8812803030014038e-001</leafValues></_>
        <_>
          <internalNodes>
            0 -1 187 2.2009903565049171e-002</internalNodes>
          <leafValues>
            -1.6776736080646515e-001 2.3548170924186707e-001</leafValues></_>
        <_>
          <internalNodes>
            0 -1 118 3.5157546517439187e-004</internalNodes>
          <leafValues>
            4.4940772652626038e-001 -1.1052603274583817e-001</leafValues></_>
        <_>
          <internalNodes>
            0 -1 172 3.3669829368591309e-002</internalNodes>
          <leafValues>
            7.0609577000141144e-002 -7.2466802597045898e-001</leafValues></_>
        <_>
          <internalNodes>
            0 -1 206 3.2605487853288651e-002</internalNodes>
          <leafValues>
            -1.3416506350040436e-001 3.6991211771965027e-001</leafValues></_>
        <_>
          <internalNodes>
            0 -1 106 8.8710099225863814e-004</internalNodes>
          <leafValues>
            3.1270217895507813e-001 -1.6009579598903656e-001</leafValues></_></weakClassifiers></_>
    <!-- stage 20 -->
    <_>
      <maxWeakCount>36</maxWeakCount>
      <stageThreshold>3.3174565434455872e-001</stageThreshold>
      <weakClassifiers>
        <_>
          <internalNodes>
            0 -1 191 2.1721935272216797e-001</internalNodes>
          <leafValues>
            9.4762641191482544e-001 -8.8571429252624512e-001</leafValues></_>
        <_>
          <internalNodes>
            0 -1 27 1.9833847181871533e-004</internalNodes>
          <leafValues>
            8.6133456230163574e-001 4.5186758041381836e-001</leafValues></_>
        <_>
          <internalNodes>
            0 -1 101 5.0652190111577511e-004</internalNodes>
          <leafValues>
            6.3257485628128052e-001 -4.5180572196841240e-003</leafValues></_>
        <_>
          <internalNodes>
            0 -1 127 5.7019770611077547e-004</internalNodes>
          <leafValues>
            3.8486450910568237e-001 -1.8349099159240723e-001</leafValues></_>
        <_>
          <internalNodes>
            0 -1 190 6.6746426746249199e-003</internalNodes>
          <leafValues>
            -7.9495394229888916e-001 1.1558150500059128e-001</leafValues></_>
        <_>
          <internalNodes>
            0 -1 35 2.4552877992391586e-002</internalNodes>
          <leafValues>
            -3.6274081468582153e-001 1.8473896384239197e-001</leafValues></_>
        <_>
          <internalNodes>
            0 -1 4 1.1502767447382212e-003</internalNodes>
          <leafValues>
            2.5986784696578979e-001 -3.4839078783988953e-001</leafValues></_>
        <_>
          <internalNodes>
            0 -1 78 5.8660376816987991e-003</internalNodes>
          <leafValues>
            -5.4853308200836182e-001 1.0129179060459137e-001</leafValues></_>
        <_>
          <internalNodes>
            0 -1 88 1.2511960230767727e-003</internalNodes>
          <leafValues>
            2.9882407188415527e-001 -2.0433820784091949e-001</leafValues></_>
        <_>
          <internalNodes>
            0 -1 8 4.3943215161561966e-002</internalNodes>
          <leafValues>
            -1.6926093399524689e-001 3.7194627523422241e-001</leafValues></_>
        <_>
          <internalNodes>
            0 -1 136 6.9695830345153809e-002</internalNodes>
          <leafValues>
            -3.0377513170242310e-001 2.0388044416904449e-001</leafValues></_>
        <_>
          <internalNodes>
            0 -1 112 3.0769497156143188e-002</internalNodes>
          <leafValues>
            -2.9509347677230835e-001 1.7780061066150665e-001</leafValues></_>
        <_>
          <internalNodes>
            0 -1 157 1.7859546467661858e-002</internalNodes>
          <leafValues>
            -3.0282339453697205e-001 1.8253096938133240e-001</leafValues></_>
        <_>
          <internalNodes>
            0 -1 94 3.2008789479732513e-002</internalNodes>
          <leafValues>
            -1.7214773595333099e-001 3.1599625945091248e-001</leafValues></_>
        <_>
          <internalNodes>
            0 -1 55 1.2646254617720842e-003</internalNodes>
          <leafValues>
            3.0696240067481995e-001 -1.7932575941085815e-001</leafValues></_>
        <_>
          <internalNodes>
            0 -1 179 4.3041080061811954e-005</internalNodes>
          <leafValues>
            -5.7393509149551392e-001 1.0065449029207230e-001</leafValues></_>
        <_>
          <internalNodes>
            0 -1 110 5.3876260062679648e-004</internalNodes>
          <leafValues>
            4.7768190503120422e-001 -1.2650111317634583e-001</leafValues></_>
        <_>
          <internalNodes>
            0 -1 10 3.0048470944166183e-002</internalNodes>
          <leafValues>
            -2.0839984714984894e-001 2.3040421307086945e-001</leafValues></_>
        <_>
          <internalNodes>
            0 -1 99 4.1887219995260239e-003</internalNodes>
          <leafValues>
            3.3507663011550903e-001 -1.4019677042961121e-001</leafValues></_>
        <_>
          <internalNodes>
            0 -1 183 4.7012291848659515e-002</internalNodes>
          <leafValues>
            5.9821765869855881e-002 -8.6970531940460205e-001</leafValues></_>
        <_>
          <internalNodes>
            0 -1 183 4.3298849050188437e-005</internalNodes>
          <leafValues>
            -7.0933455228805542e-001 4.9649104475975037e-002</leafValues></_>
        <_>
          <internalNodes>
            0 -1 3 3.9096185937523842e-003</internalNodes>
          <leafValues>
            1.5818190574645996e-001 -3.0744987726211548e-001</leafValues></_>
        <_>
          <internalNodes>
            0 -1 74 5.5490750819444656e-002</internalNodes>
          <leafValues>
            -1.4921939373016357e-001 3.6295560002326965e-001</leafValues></_>
        <_>
          <internalNodes>
            0 -1 146 1.1288578808307648e-001</internalNodes>
          <leafValues>
            -1.1216422915458679e-001 5.0537455081939697e-001</leafValues></_>
        <_>
          <internalNodes>
            0 -1 25 2.0783413201570511e-002</internalNodes>
          <leafValues>
            -5.0385630130767822e-001 1.0620973259210587e-001</leafValues></_>
        <_>
          <internalNodes>
            0 -1 177 1.8265835940837860e-001</internalNodes>
          <leafValues>
            4.3516155332326889e-002 -8.8354480266571045e-001</leafValues></_>
        <_>
          <internalNodes>
            0 -1 44 3.3783246180973947e-004</internalNodes>
          <leafValues>
            3.1712961196899414e-001 -1.6291546821594238e-001</leafValues></_>
        <_>
          <internalNodes>
            0 -1 47 4.0250711143016815e-002</internalNodes>
          <leafValues>
            -1.4690418541431427e-001 3.3002865314483643e-001</leafValues></_>
        <_>
          <internalNodes>
            0 -1 139 7.3867465835064650e-004</internalNodes>
          <leafValues>
            3.6614343523979187e-001 -1.4282996952533722e-001</leafValues></_>
        <_>
          <internalNodes>
            0 -1 160 1.1607045307755470e-003</internalNodes>
          <leafValues>
            -7.6693624258041382e-001 6.9079831242561340e-002</leafValues></_>
        <_>
          <internalNodes>
            0 -1 37 5.9537054039537907e-004</internalNodes>
          <leafValues>
            2.6208916306495667e-001 -1.5783631801605225e-001</leafValues></_>
        <_>
          <internalNodes>
            0 -1 79 7.9537294805049896e-003</internalNodes>
          <leafValues>
            -4.0503197908401489e-001 1.2267348170280457e-001</leafValues></_>
        <_>
          <internalNodes>
            0 -1 65 1.7299510538578033e-002</internalNodes>
          <leafValues>
            7.5400464236736298e-002 -5.3939819335937500e-001</leafValues></_>
        <_>
          <internalNodes>
            0 -1 161 1.6637341678142548e-001</internalNodes>
          <leafValues>
            5.6004006415605545e-002 -7.4998933076858521e-001</leafValues></_>
        <_>
          <internalNodes>
            0 -1 209 9.8584648221731186e-003</internalNodes>
          <leafValues>
            -2.4700959026813507e-001 1.5300464630126953e-001</leafValues></_>
        <_>
          <internalNodes>
            0 -1 145 1.6192428767681122e-002</internalNodes>
          <leafValues>
            9.4752557575702667e-002 -4.2346042394638062e-001</leafValues></_></weakClassifiers></_>
    <!-- stage 21 -->
    <_>
      <maxWeakCount>41</maxWeakCount>
      <stageThreshold>4.3252789974212646e-001</stageThreshold>
      <weakClassifiers>
        <_>
          <internalNodes>
            0 -1 128 3.8162212149472907e-005</internalNodes>
          <leafValues>
            -8.1250000000000000e-001 9.5919144153594971e-001</leafValues></_>
        <_>
          <internalNodes>
            0 -1 155 1.6016544774174690e-002</internalNodes>
          <leafValues>
            8.3931344747543335e-001 3.1525817513465881e-001</leafValues></_>
        <_>
          <internalNodes>
            0 -1 109 1.2735943892039359e-004</internalNodes>
          <leafValues>
            7.1346175670623779e-001 -2.4873491376638412e-002</leafValues></_>
        <_>
          <internalNodes>
            0 -1 115 5.3140590898692608e-004</internalNodes>
          <leafValues>
            4.5579639077186584e-001 -2.0170125365257263e-001</leafValues></_>
        <_>
          <internalNodes>
            0 -1 100 4.4388893991708755e-002</internalNodes>
          <leafValues>
            -1.8080602586269379e-001 4.3263420462608337e-001</leafValues></_>
        <_>
          <internalNodes>
            0 -1 3 1.4224575133994222e-003</internalNodes>
          <leafValues>
            2.0557282865047455e-001 -3.7209951877593994e-001</leafValues></_>
        <_>
          <internalNodes>
            0 -1 29 2.7917094528675079e-002</internalNodes>
          <leafValues>
            -3.4441640973091125e-001 2.3460742831230164e-001</leafValues></_>
        <_>
          <internalNodes>
            0 -1 200 3.8430713117122650e-002</internalNodes>
          <leafValues>
            -2.2454929351806641e-001 2.9589655995368958e-001</leafValues></_>
        <_>
          <internalNodes>
            0 -1 150 3.2449667342007160e-003</internalNodes>
          <leafValues>
            -4.0330228209495544e-001 1.4236372709274292e-001</leafValues></_>
        <_>
          <internalNodes>
            0 -1 143 7.0013672113418579e-002</internalNodes>
          <leafValues>
            -2.1888625621795654e-001 2.5378763675689697e-001</leafValues></_>
        <_>
          <internalNodes>
            0 -1 22 4.4121120125055313e-002</internalNodes>
          <leafValues>
            -1.6949321329593658e-001 3.1619495153427124e-001</leafValues></_>
        <_>
          <internalNodes>
            0 -1 6 2.6796065270900726e-002</internalNodes>
          <leafValues>
            2.0983028411865234e-001 -2.6441851258277893e-001</leafValues></_>
        <_>
          <internalNodes>
            0 -1 84 2.9625676572322845e-002</internalNodes>
          <leafValues>
            -1.3178515434265137e-001 4.0321338176727295e-001</leafValues></_>
        <_>
          <internalNodes>
            0 -1 202 2.8955531306564808e-003</internalNodes>
          <leafValues>
            -8.1148409843444824e-001 7.5646705925464630e-002</leafValues></_>
        <_>
          <internalNodes>
            0 -1 31 1.2902992311865091e-003</internalNodes>
          <leafValues>
            2.8573444485664368e-001 -2.0089387893676758e-001</leafValues></_>
        <_>
          <internalNodes>
            0 -1 187 1.0289737954735756e-002</internalNodes>
          <leafValues>
            -3.3910894393920898e-001 1.6859808564186096e-001</leafValues></_>
        <_>
          <internalNodes>
            0 -1 173 4.4961676001548767e-002</internalNodes>
          <leafValues>
            6.2470972537994385e-002 -8.9833861589431763e-001</leafValues></_>
        <_>
          <internalNodes>
            0 -1 71 1.4102717395871878e-003</internalNodes>
          <leafValues>
            2.5012749433517456e-001 -2.5571227073669434e-001</leafValues></_>
        <_>
          <internalNodes>
            0 -1 126 7.9928984632715583e-004</internalNodes>
          <leafValues>
            2.7513518929481506e-001 -2.0559012889862061e-001</leafValues></_>
        <_>
          <internalNodes>
            0 -1 210 5.0557326176203787e-005</internalNodes>
          <leafValues>
            -7.4843120574951172e-001 6.5740741789340973e-002</leafValues></_>
        <_>
          <internalNodes>
            0 -1 98 5.3668715991079807e-003</internalNodes>
          <leafValues>
            2.4469140172004700e-001 -2.2112327814102173e-001</leafValues></_>
        <_>
          <internalNodes>
            0 -1 102 1.0821296833455563e-002</internalNodes>
          <leafValues>
            -7.3503452539443970e-001 6.4810030162334442e-002</leafValues></_>
        <_>
          <internalNodes>
            0 -1 4 1.4815595932304859e-004</internalNodes>
          <leafValues>
            2.5365400314331055e-001 -2.2203791141510010e-001</leafValues></_>
        <_>
          <internalNodes>
            0 -1 186 7.3373056948184967e-003</internalNodes>
          <leafValues>
            -4.3592086434364319e-001 1.1607530713081360e-001</leafValues></_>
        <_>
          <internalNodes>
            0 -1 184 2.3768995888531208e-003</internalNodes>
          <leafValues>
            -5.2928614616394043e-001 8.7905630469322205e-002</leafValues></_>
        <_>
          <internalNodes>
            0 -1 69 7.7607199549674988e-002</internalNodes>
          <leafValues>
            -2.1224302053451538e-001 2.2943381965160370e-001</leafValues></_>
        <_>
          <internalNodes>
            0 -1 38 7.2270410601049662e-004</internalNodes>
          <leafValues>
            2.9016622900962830e-001 -1.6126182675361633e-001</leafValues></_>
        <_>
          <internalNodes>
            0 -1 33 5.5510044097900391e-002</internalNodes>
          <leafValues>
            2.0760037004947662e-001 -2.4978515505790710e-001</leafValues></_>
        <_>
          <internalNodes>
            0 -1 64 8.7747734505683184e-004</internalNodes>
          <leafValues>
            3.2706412672996521e-001 -1.2946668267250061e-001</leafValues></_>
        <_>
          <internalNodes>
            0 -1 160 2.4393024796154350e-004</internalNodes>
          <leafValues>
            -8.5905772447586060e-001 5.0322171300649643e-002</leafValues></_>
        <_>
          <internalNodes>
            0 -1 142 1.2872627377510071e-001</internalNodes>
          <leafValues>
            7.0289924740791321e-002 -5.0868970155715942e-001</leafValues></_>
        <_>
          <internalNodes>
            0 -1 108 2.0384011440910399e-004</internalNodes>
          <leafValues>
            4.7511565685272217e-001 -1.0830003768205643e-001</leafValues></_>
        <_>
          <internalNodes>
            0 -1 23 5.1131136715412140e-003</internalNodes>
          <leafValues>
            -7.1404623985290527e-001 7.2396233677864075e-002</leafValues></_>
        <_>
          <internalNodes>
            0 -1 2 2.7380455867387354e-004</internalNodes>
          <leafValues>
            3.5871142148971558e-001 -1.3338023424148560e-001</leafValues></_>
        <_>
          <internalNodes>
            0 -1 87 1.5493629034608603e-003</internalNodes>
          <leafValues>
            3.9736935496330261e-001 -1.3110017776489258e-001</leafValues></_>
        <_>
          <internalNodes>
            0 -1 182 2.9533274471759796e-002</internalNodes>
          <leafValues>
            -3.4472039341926575e-001 1.5928414463996887e-001</leafValues></_>
        <_>
          <internalNodes>
            0 -1 175 9.3019166961312294e-003</internalNodes>
          <leafValues>
            -5.4905325174331665e-001 9.1437868773937225e-002</leafValues></_>
        <_>
          <internalNodes>
            0 -1 6 8.0704316496849060e-002</internalNodes>
          <leafValues>
            6.5493859350681305e-002 -5.8865374326705933e-001</leafValues></_>
        <_>
          <internalNodes>
            0 -1 124 2.2902367636561394e-003</internalNodes>
          <leafValues>
            2.4782609939575195e-001 -1.7139782011508942e-001</leafValues></_>
        <_>
          <internalNodes>
            0 -1 64 2.8772141784429550e-002</internalNodes>
          <leafValues>
            5.6968249380588531e-002 -6.8202388286590576e-001</leafValues></_>
        <_>
          <internalNodes>
            0 -1 156 3.1484201550483704e-002</internalNodes>
          <leafValues>
            -1.1350619047880173e-001 3.3515015244483948e-001</leafValues></_></weakClassifiers></_>
    <!-- stage 22 -->
    <_>
      <maxWeakCount>33</maxWeakCount>
      <stageThreshold>8.5703974962234497e-001</stageThreshold>
      <weakClassifiers>
        <_>
          <internalNodes>
            0 -1 77 1.9846728444099426e-001</internalNodes>
          <leafValues>
            9.8082906007766724e-001 -5.6521737575531006e-001</leafValues></_>
        <_>
          <internalNodes>
            0 -1 173 6.0590207576751709e-002</internalNodes>
          <leafValues>
            8.7856918573379517e-001 -7.5342458486557007e-001</leafValues></_>
        <_>
          <internalNodes>
            0 -1 42 3.4302935819141567e-004</internalNodes>
          <leafValues>
            8.1697630882263184e-001 1.5664903819561005e-001</leafValues></_>
        <_>
          <internalNodes>
            0 -1 31 1.5053749084472656e-003</internalNodes>
          <leafValues>
            4.5914492011070251e-001 -1.8323156237602234e-001</leafValues></_>
        <_>
          <internalNodes>
            0 -1 185 4.6807718463242054e-003</internalNodes>
          <leafValues>
            -7.5225001573562622e-001 1.1954034864902496e-001</leafValues></_>
        <_>
          <internalNodes>
            0 -1 109 7.2243460454046726e-004</internalNodes>
          <leafValues>
            4.0918096899986267e-001 -2.5487440824508667e-001</leafValues></_>
        <_>
          <internalNodes>
            0 -1 100 3.2784990966320038e-002</internalNodes>
          <leafValues>
            -2.7893272042274475e-001 2.9166647791862488e-001</leafValues></_>
        <_>
          <internalNodes>
            0 -1 153 5.7964421808719635e-002</internalNodes>
          <leafValues>
            1.1558344960212708e-001 -5.9948217868804932e-001</leafValues></_>
        <_>
          <internalNodes>
            0 -1 4 1.8713211175054312e-003</internalNodes>
          <leafValues>
            2.0984572172164917e-001 -3.2944640517234802e-001</leafValues></_>
        <_>
          <internalNodes>
            0 -1 25 7.5443089008331299e-003</internalNodes>
          <leafValues>
            -8.0567294359207153e-001 7.4620433151721954e-002</leafValues></_>
        <_>
          <internalNodes>
            0 -1 22 8.8583566248416901e-003</internalNodes>
          <leafValues>
            -5.0163137912750244e-001 1.1343229562044144e-001</leafValues></_>
        <_>
          <internalNodes>
            0 -1 127 3.0185378273017704e-004</internalNodes>
          <leafValues>
            3.8628825545310974e-001 -1.8228155374526978e-001</leafValues></_>
        <_>
          <internalNodes>
            0 -1 49 8.6993922013789415e-004</internalNodes>
          <leafValues>
            3.9199268817901611e-001 -1.4173056185245514e-001</leafValues></_>
        <_>
          <internalNodes>
            0 -1 133 1.5496635437011719e-001</internalNodes>
          <leafValues>
            9.0329073369503021e-002 -6.4170360565185547e-001</leafValues></_>
        <_>
          <internalNodes>
            0 -1 81 2.9732014983892441e-002</internalNodes>
          <leafValues>
            -2.0359703898429871e-001 2.8474912047386169e-001</leafValues></_>
        <_>
          <internalNodes>
            0 -1 18 9.5059303566813469e-004</internalNodes>
          <leafValues>
            3.1440812349319458e-001 -1.6612096130847931e-001</leafValues></_>
        <_>
          <internalNodes>
            0 -1 164 3.9818529039621353e-002</internalNodes>
          <leafValues>
            8.3592817187309265e-002 -7.2191733121871948e-001</leafValues></_>
        <_>
          <internalNodes>
            0 -1 103 4.2418941855430603e-002</internalNodes>
          <leafValues>
            -1.0187766700983047e-001 7.7832776308059692e-001</leafValues></_>
        <_>
          <internalNodes>
            0 -1 67 3.7405649200081825e-003</internalNodes>
          <leafValues>
            -2.4280028045177460e-001 2.0225091278553009e-001</leafValues></_>
        <_>
          <internalNodes>
            0 -1 144 9.2814257368445396e-004</internalNodes>
          <leafValues>
            4.2489373683929443e-001 -1.2419510632753372e-001</leafValues></_>
        <_>
          <internalNodes>
            0 -1 182 4.6417500823736191e-002</internalNodes>
          <leafValues>
            -2.6152572035789490e-001 2.6297435164451599e-001</leafValues></_>
        <_>
          <internalNodes>
            0 -1 57 9.9844828248023987e-002</internalNodes>
          <leafValues>
            -8.6971402168273926e-002 7.2896867990493774e-001</leafValues></_>
        <_>
          <internalNodes>
            0 -1 161 3.9763823151588440e-002</internalNodes>
          <leafValues>
            -4.5055308938026428e-001 1.6125966608524323e-001</leafValues></_>
        <_>
          <internalNodes>
            0 -1 176 1.3829884119331837e-002</internalNodes>
          <leafValues>
            -2.4076379835605621e-001 2.1695736050605774e-001</leafValues></_>
        <_>
          <internalNodes>
            0 -1 52 6.0127547476440668e-004</internalNodes>
          <leafValues>
            4.3257331848144531e-001 -1.3262133300304413e-001</leafValues></_>
        <_>
          <internalNodes>
            0 -1 197 1.2100335210561752e-002</internalNodes>
          <leafValues>
            -5.6610769033432007e-001 1.1263377964496613e-001</leafValues></_>
        <_>
          <internalNodes>
            0 -1 149 3.7266267463564873e-003</internalNodes>
          <leafValues>
            -3.9847990870475769e-001 1.3077515363693237e-001</leafValues></_>
        <_>
          <internalNodes>
            0 -1 12 4.2968600988388062e-002</internalNodes>
          <leafValues>
            -1.4066186547279358e-001 3.9498677849769592e-001</leafValues></_>
        <_>
          <internalNodes>
            0 -1 5 3.2118535600602627e-003</internalNodes>
          <leafValues>
            2.7352058887481689e-001 -2.4438793957233429e-001</leafValues></_>
        <_>
          <internalNodes>
            0 -1 55 7.0516234263777733e-003</internalNodes>
          <leafValues>
            1.5000976622104645e-001 -3.3996838331222534e-001</leafValues></_>
        <_>
          <internalNodes>
            0 -1 174 4.4777251780033112e-002</internalNodes>
          <leafValues>
            -4.2429330945014954e-001 1.1786629259586334e-001</leafValues></_>
        <_>
          <internalNodes>
            0 -1 171 4.0815189480781555e-002</internalNodes>
          <leafValues>
            -1.2884877622127533e-001 4.0223473310470581e-001</leafValues></_>
        <_>
          <internalNodes>
            0 -1 95 4.0756151080131531e-002</internalNodes>
          <leafValues>
            -1.1396407335996628e-001 4.8725023865699768e-001</leafValues></_></weakClassifiers></_>
    <!-- stage 23 -->
    <_>
      <maxWeakCount>25</maxWeakCount>
      <stageThreshold>1.3382459878921509e+000</stageThreshold>
      <weakClassifiers>
        <_>
          <internalNodes>
            0 -1 61 1.1604844033718109e-001</internalNodes>
          <leafValues>
            9.9081045389175415e-001 -1.</leafValues></_>
        <_>
          <internalNodes>
            0 -1 116 8.2886533346027136e-004</internalNodes>
          <leafValues>
            -4.9330368638038635e-001 9.4006806612014771e-001</leafValues></_>
        <_>
          <internalNodes>
            0 -1 28 1.8036526162177324e-003</internalNodes>
          <leafValues>
            8.6434698104858398e-001 4.2204856872558594e-001</leafValues></_>
        <_>
          <internalNodes>
            0 -1 106 3.4489293466322124e-004</internalNodes>
          <leafValues>
            6.0898035764694214e-001 -7.1134082973003387e-002</leafValues></_>
        <_>
          <internalNodes>
            0 -1 122 6.1812229454517365e-002</internalNodes>
          <leafValues>
            -2.1671585738658905e-001 4.8781621456146240e-001</leafValues></_>
        <_>
          <internalNodes>
            0 -1 169 3.1073279678821564e-002</internalNodes>
          <leafValues>
            -2.7860748767852783e-001 4.5613774657249451e-001</leafValues></_>
        <_>
          <internalNodes>
            0 -1 20 1.3674163492396474e-003</internalNodes>
          <leafValues>
            3.2881104946136475e-001 -3.0675715208053589e-001</leafValues></_>
        <_>
          <internalNodes>
            0 -1 143 7.8695237636566162e-002</internalNodes>
          <leafValues>
            -2.3519891500473022e-001 4.1330739855766296e-001</leafValues></_>
        <_>
          <internalNodes>
            0 -1 10 2.7777396098827012e-005</internalNodes>
          <leafValues>
            -8.4546905755996704e-001 1.1661687493324280e-001</leafValues></_>
        <_>
          <internalNodes>
            0 -1 195 2.1070132032036781e-002</internalNodes>
          <leafValues>
            1.0346667468547821e-001 -7.5269639492034912e-001</leafValues></_>
        <_>
          <internalNodes>
            0 -1 49 3.0350050656124949e-004</internalNodes>
          <leafValues>
            4.6843403577804565e-001 -1.9471503794193268e-001</leafValues></_>
        <_>
          <internalNodes>
            0 -1 191 1.1045829951763153e-001</internalNodes>
          <leafValues>
            1.0605906695127487e-001 -7.5968140363693237e-001</leafValues></_>
        <_>
          <internalNodes>
            0 -1 161 3.9763823151588440e-002</internalNodes>
          <leafValues>
            -4.8108610510826111e-001 1.4217597246170044e-001</leafValues></_>
        <_>
          <internalNodes>
            0 -1 88 8.3702907431870699e-004</internalNodes>
          <leafValues>
            4.1192758083343506e-001 -2.0887003839015961e-001</leafValues></_>
        <_>
          <internalNodes>
            0 -1 7 7.5287722051143646e-002</internalNodes>
          <leafValues>
            -1.0811648517847061e-001 9.0667808055877686e-001</leafValues></_>
        <_>
          <internalNodes>
            0 -1 9 1.5054694376885891e-002</internalNodes>
          <leafValues>
            -3.4181562066078186e-001 2.3310311138629913e-001</leafValues></_>
        <_>
          <internalNodes>
            0 -1 98 1.4960700646042824e-002</internalNodes>
          <leafValues>
            1.9456337392330170e-001 -3.6923456192016602e-001</leafValues></_>
        <_>
          <internalNodes>
            0 -1 119 3.2177641987800598e-002</internalNodes>
          <leafValues>
            -1.5906903147697449e-001 4.5211741328239441e-001</leafValues></_>
        <_>
          <internalNodes>
            0 -1 69 9.9487438797950745e-002</internalNodes>
          <leafValues>
            -1.9981747865676880e-001 4.2891961336135864e-001</leafValues></_>
        <_>
          <internalNodes>
            0 -1 151 1.3270998001098633e-001</internalNodes>
          <leafValues>
            1.4698578417301178e-001 -5.4806429147720337e-001</leafValues></_>
        <_>
          <internalNodes>
            0 -1 85 3.6619558930397034e-002</internalNodes>
          <leafValues>
            -1.3850502669811249e-001 5.3799504041671753e-001</leafValues></_>
        <_>
          <internalNodes>
            0 -1 146 1.1384066939353943e-001</internalNodes>
          <leafValues>
            -1.0072387754917145e-001 6.4203006029129028e-001</leafValues></_>
        <_>
          <internalNodes>
            0 -1 94 5.2252881228923798e-002</internalNodes>
          <leafValues>
            -8.7545990943908691e-002 6.7242324352264404e-001</leafValues></_>
        <_>
          <internalNodes>
            0 -1 68 7.8417919576168060e-003</internalNodes>
          <leafValues>
            -5.6922990083694458e-001 1.3880541920661926e-001</leafValues></_>
        <_>
          <internalNodes>
            0 -1 141 1.2574573978781700e-002</internalNodes>
          <leafValues>
            2.0616790652275085e-001 -3.5500070452690125e-001</leafValues></_></weakClassifiers></_>
    <!-- stage 24 -->
    <_>
      <maxWeakCount>14</maxWeakCount>
      <stageThreshold>1.8095229864120483e+000</stageThreshold>
      <weakClassifiers>
        <_>
          <internalNodes>
            0 -1 210 8.8428422808647156e-002</internalNodes>
          <leafValues>
            9.9578201770782471e-001 -5.5555558204650879e-001</leafValues></_>
        <_>
          <internalNodes>
            0 -1 155 5.4348848760128021e-002</internalNodes>
          <leafValues>
            9.7285383939743042e-001 -3.5346722602844238e-001</leafValues></_>
        <_>
          <internalNodes>
            0 -1 62 2.1754129230976105e-001</internalNodes>
          <leafValues>
            8.4167635440826416e-001 -4.5013517141342163e-001</leafValues></_>
        <_>
          <internalNodes>
            0 -1 106 3.4489293466322124e-004</internalNodes>
          <leafValues>
            8.2313883304595947e-001 3.1047780066728592e-002</leafValues></_>
        <_>
          <internalNodes>
            0 -1 64 1.6175357159227133e-003</internalNodes>
          <leafValues>
            6.6207993030548096e-001 -1.2156711518764496e-001</leafValues></_>
        <_>
          <internalNodes>
            0 -1 162 4.9671091139316559e-002</internalNodes>
          <leafValues>
            -4.0096831321716309e-001 4.1106489300727844e-001</leafValues></_>
        <_>
          <internalNodes>
            0 -1 50 2.9664910398423672e-003</internalNodes>
          <leafValues>
            4.4043815135955811e-001 -3.6139711737632751e-001</leafValues></_>
        <_>
          <internalNodes>
            0 -1 59 3.4653186798095703e-002</internalNodes>
          <leafValues>
            -2.4575218558311462e-001 5.0191169977188110e-001</leafValues></_>
        <_>
          <internalNodes>
            0 -1 3 1.5187796670943499e-003</internalNodes>
          <leafValues>
            3.5884025692939758e-001 -4.8333299160003662e-001</leafValues></_>
        <_>
          <internalNodes>
            0 -1 199 3.5676513798534870e-003</internalNodes>
          <leafValues>
            -6.6566181182861328e-001 2.0084701478481293e-001</leafValues></_>
        <_>
          <internalNodes>
            0 -1 156 2.2764813154935837e-002</internalNodes>
          <leafValues>
            -2.7449530363082886e-001 5.1597231626510620e-001</leafValues></_>
        <_>
          <internalNodes>
            0 -1 132 4.2901590466499329e-002</internalNodes>
          <leafValues>
            1.7607431113719940e-001 -8.0906009674072266e-001</leafValues></_>
        <_>
          <internalNodes>
            0 -1 102 1.3182750903069973e-002</internalNodes>
          <leafValues>
            -8.2766056060791016e-001 1.4163027703762054e-001</leafValues></_>
        <_>
          <internalNodes>
            0 -1 31 1.7166081815958023e-003</internalNodes>
          <leafValues>
            3.8219460844993591e-001 -3.2174962759017944e-001</leafValues></_></weakClassifiers></_>
    <!-- stage 25 -->
    <_>
      <maxWeakCount>11</maxWeakCount>
      <stageThreshold>2.3491952419281006e+000</stageThreshold>
      <weakClassifiers>
        <_>
          <internalNodes>
            0 -1 0 1.8968349695205688e-001</internalNodes>
          <leafValues>
            9.9799990653991699e-001 -1.</leafValues></_>
        <_>
          <internalNodes>
            0 -1 1 1.8181514739990234e-001</internalNodes>
          <leafValues>
            9.8618006706237793e-001 -1.</leafValues></_>
        <_>
          <internalNodes>
            0 -1 111 8.2327038049697876e-002</internalNodes>
          <leafValues>
            9.1369259357452393e-001 -2.2098340094089508e-001</leafValues></_>
        <_>
          <internalNodes>
            0 -1 138 1.0516978800296783e-002</internalNodes>
          <leafValues>
            7.4904608726501465e-001 -1.3187478482723236e-001</leafValues></_>
        <_>
          <internalNodes>
            0 -1 131 5.6510081049054861e-004</internalNodes>
          <leafValues>
            7.4180930852890015e-001 -3.0619725584983826e-001</leafValues></_>
        <_>
          <internalNodes>
            0 -1 122 5.9933155775070190e-002</internalNodes>
          <leafValues>
            -2.6466155052185059e-001 8.1240296363830566e-001</leafValues></_>
        <_>
          <internalNodes>
            0 -1 150 1.0003186762332916e-002</internalNodes>
          <leafValues>
            -3.5165262222290039e-001 6.5757304430007935e-001</leafValues></_>
        <_>
          <internalNodes>
            0 -1 5 4.1053323075175285e-003</internalNodes>
          <leafValues>
            6.6981214284896851e-001 -4.0956470370292664e-001</leafValues></_>
        <_>
          <internalNodes>
            0 -1 66 1.1180568253621459e-003</internalNodes>
          <leafValues>
            9.2711395025253296e-001 -2.5258409976959229e-001</leafValues></_>
        <_>
          <internalNodes>
            0 -1 83 1.7538536339998245e-002</internalNodes>
          <leafValues>
            -3.4472343325614929e-001 5.8193933963775635e-001</leafValues></_>
        <_>
          <internalNodes>
            0 -1 50 1.4796627510804683e-004</internalNodes>
          <leafValues>
            6.9720119237899780e-001 -2.9500243067741394e-001</leafValues></_></weakClassifiers></_>
    <!-- stage 26 -->
    <_>
      <maxWeakCount>9</maxWeakCount>
      <stageThreshold>2.9714252948760986e+000</stageThreshold>
      <weakClassifiers>
        <_>
          <internalNodes>
            0 -1 34 1.6988798975944519e-001</internalNodes>
          <leafValues>
            9.9911057949066162e-001 -1.</leafValues></_>
        <_>
          <internalNodes>
            0 -1 86 3.3642354607582092e-001</internalNodes>
          <leafValues>
            9.9427354335784912e-001 -1.</leafValues></_>
        <_>
          <internalNodes>
            0 -1 128 3.5776743292808533e-001</internalNodes>
          <leafValues>
            9.6310049295425415e-001 -8.7800729274749756e-001</leafValues></_>
        <_>
          <internalNodes>
            0 -1 54 1.2913901358842850e-002</internalNodes>
          <leafValues>
            9.3803519010543823e-001 2.6630261540412903e-001</leafValues></_>
        <_>
          <internalNodes>
            0 -1 46 4.7523893415927887e-002</internalNodes>
          <leafValues>
            -1.2269692867994308e-001 9.5426422357559204e-001</leafValues></_>
        <_>
          <internalNodes>
            0 -1 131 5.6510081049054861e-004</internalNodes>
          <leafValues>
            9.3416702747344971e-001 -2.7016773819923401e-001</leafValues></_>
        <_>
          <internalNodes>
            0 -1 147 8.4440689533948898e-003</internalNodes>
          <leafValues>
            1. -2.6568701863288879e-001</leafValues></_>
        <_>
          <internalNodes>
            0 -1 163 9.2101395130157471e-003</internalNodes>
          <leafValues>
            -2.3699134588241577e-001 1.</leafValues></_>
        <_>
          <internalNodes>
            0 -1 48 4.4740036129951477e-002</internalNodes>
          <leafValues>
            6.4418119192123413e-001 -3.9707031846046448e-001</leafValues></_></weakClassifiers></_></stages>
  <features>
    <_>
      <rect>
        0 0 8 8 0</rect></_>
    <_>
      <rect>
        0 0 8 8 2</rect></_>
    <_>
      <rect>
        0 0 8 8 4</rect></_>
    <_>
      <rect>
        0 0 8 8 5</rect></_>
    <_>
      <rect>
        0 0 8 8 6</rect></_>
    <_>
      <rect>
        0 0 8 8 7</rect></_>
    <_>
      <rect>
        0 0 8 8 8</rect></_>
    <_>
      <rect>
        0 0 8 8 9</rect></_>
    <_>
      <rect>
        0 0 8 8 10</rect></_>
    <_>
      <rect>
        0 0 8 8 12</rect></_>
    <_>
      <rect>
        0 0 8 8 13</rect></_>
    <_>
      <rect>
        0 0 8 8 14</rect></_>
    <_>
      <rect>
        0 0 8 8 15</rect></_>
    <_>
      <rect>
        0 0 8 8 16</rect></_>
    <_>
      <rect>
        0 0 8 8 17</rect></_>
    <_>
      <rect>
        0 0 8 8 18</rect></_>
    <_>
      <rect>
        0 0 8 8 22</rect></_>
    <_>
      <rect>
        0 0 8 8 23</rect></_>
    <_>
      <rect>
        0 4 8 8 4</rect></_>
    <_>
      <rect>
        0 4 8 8 5</rect></_>
    <_>
      <rect>
        0 4 8 8 6</rect></_>
    <_>
      <rect>
        0 4 8 8 9</rect></_>
    <_>
      <rect>
        0 4 8 8 16</rect></_>
    <_>
      <rect>
        0 4 8 8 17</rect></_>
    <_>
      <rect>
        0 4 8 8 22</rect></_>
    <_>
      <rect>
        0 4 8 8 26</rect></_>
    <_>
      <rect>
        0 4 8 8 28</rect></_>
    <_>
      <rect>
        0 4 8 8 32</rect></_>
    <_>
      <rect>
        0 4 8 8 33</rect></_>
    <_>
      <rect>
        0 8 8 8 0</rect></_>
    <_>
      <rect>
        0 8 8 8 4</rect></_>
    <_>
      <rect>
        0 8 8 8 6</rect></_>
    <_>
      <rect>
        0 8 8 8 8</rect></_>
    <_>
      <rect>
        0 8 8 8 17</rect></_>
    <_>
      <rect>
        0 8 8 8 22</rect></_>
    <_>
      <rect>
        0 8 8 8 25</rect></_>
    <_>
      <rect>
        0 8 8 8 26</rect></_>
    <_>
      <rect>
        0 12 8 8 2</rect></_>
    <_>
      <rect>
        0 12 8 8 4</rect></_>
    <_>
      <rect>
        0 12 8 8 8</rect></_>
    <_>
      <rect>
        0 12 8 8 13</rect></_>
    <_>
      <rect>
        0 12 8 8 14</rect></_>
    <_>
      <rect>
        0 12 8 8 15</rect></_>
    <_>
      <rect>
        0 12 8 8 19</rect></_>
    <_>
      <rect>
        0 12 8 8 20</rect></_>
    <_>
      <rect>
        0 12 8 8 25</rect></_>
    <_>
      <rect>
        0 12 8 8 27</rect></_>
    <_>
      <rect>
        0 12 8 8 28</rect></_>
    <_>
      <rect>
        0 16 8 8 0</rect></_>
    <_>
      <rect>
        0 16 8 8 1</rect></_>
    <_>
      <rect>
        0 16 8 8 2</rect></_>
    <_>
      <rect>
        0 16 8 8 4</rect></_>
    <_>
      <rect>
        0 16 8 8 13</rect></_>
    <_>
      <rect>
        0 16 8 8 14</rect></_>
    <_>
      <rect>
        0 16 8 8 15</rect></_>
    <_>
      <rect>
        0 16 8 8 22</rect></_>
    <_>
      <rect>
        0 16 8 8 23</rect></_>
    <_>
      <rect>
        0 16 8 8 34</rect></_>
    <_>
      <rect>
        0 20 8 8 4</rect></_>
    <_>
      <rect>
        0 20 8 8 7</rect></_>
    <_>
      <rect>
        0 20 8 8 8</rect></_>
    <_>
      <rect>
        0 20 8 8 13</rect></_>
    <_>
      <rect>
        0 20 8 8 17</rect></_>
    <_>
      <rect>
        0 20 8 8 18</rect></_>
    <_>
      <rect>
        0 20 8 8 22</rect></_>
    <_>
      <rect>
        0 20 8 8 23</rect></_>
    <_>
      <rect>
        0 20 8 8 24</rect></_>
    <_>
      <rect>
        0 20 8 8 32</rect></_>
    <_>
      <rect>
        0 20 8 8 34</rect></_>
    <_>
      <rect>
        0 20 8 8 35</rect></_>
    <_>
      <rect>
        0 24 8 8 4</rect></_>
    <_>
      <rect>
        0 24 8 8 5</rect></_>
    <_>
      <rect>
        0 24 8 8 6</rect></_>
    <_>
      <rect>
        0 24 8 8 15</rect></_>
    <_>
      <rect>
        0 24 8 8 16</rect></_>
    <_>
      <rect>
        0 24 8 8 26</rect></_>
    <_>
      <rect>
        0 24 8 8 32</rect></_>
    <_>
      <rect>
        0 24 8 8 33</rect></_>
    <_>
      <rect>
        0 24 8 8 34</rect></_>
    <_>
      <rect>
        4 0 8 8 0</rect></_>
    <_>
      <rect>
        4 0 8 8 1</rect></_>
    <_>
      <rect>
        4 0 8 8 2</rect></_>
    <_>
      <rect>
        4 0 8 8 3</rect></_>
    <_>
      <rect>
        4 0 8 8 4</rect></_>
    <_>
      <rect>
        4 0 8 8 6</rect></_>
    <_>
      <rect>
        4 0 8 8 7</rect></_>
    <_>
      <rect>
        4 0 8 8 8</rect></_>
    <_>
      <rect>
        4 0 8 8 9</rect></_>
    <_>
      <rect>
        4 0 8 8 10</rect></_>
    <_>
      <rect>
        4 0 8 8 11</rect></_>
    <_>
      <rect>
        4 0 8 8 17</rect></_>
    <_>
      <rect>
        4 0 8 8 34</rect></_>
    <_>
      <rect>
        4 4 8 8 0</rect></_>
    <_>
      <rect>
        4 4 8 8 1</rect></_>
    <_>
      <rect>
        4 4 8 8 2</rect></_>
    <_>
      <rect>
        4 4 8 8 6</rect></_>
    <_>
      <rect>
        4 4 8 8 10</rect></_>
    <_>
      <rect>
        4 4 8 8 11</rect></_>
    <_>
      <rect>
        4 4 8 8 12</rect></_>
    <_>
      <rect>
        4 4 8 8 13</rect></_>
    <_>
      <rect>
        4 4 8 8 15</rect></_>
    <_>
      <rect>
        4 4 8 8 22</rect></_>
    <_>
      <rect>
        4 4 8 8 35</rect></_>
    <_>
      <rect>
        4 8 8 8 3</rect></_>
    <_>
      <rect>
        4 8 8 8 6</rect></_>
    <_>
      <rect>
        4 8 8 8 10</rect></_>
    <_>
      <rect>
        4 8 8 8 11</rect></_>
    <_>
      <rect>
        4 8 8 8 13</rect></_>
    <_>
      <rect>
        4 8 8 8 19</rect></_>
    <_>
      <rect>
        4 8 8 8 20</rect></_>
    <_>
      <rect>
        4 8 8 8 22</rect></_>
    <_>
      <rect>
        4 8 8 8 23</rect></_>
    <_>
      <rect>
        4 8 8 8 27</rect></_>
    <_>
      <rect>
        4 8 8 8 28</rect></_>
    <_>
      <rect>
        4 8 8 8 32</rect></_>
    <_>
      <rect>
        4 8 8 8 33</rect></_>
    <_>
      <rect>
        4 8 8 8 35</rect></_>
    <_>
      <rect>
        4 12 8 8 2</rect></_>
    <_>
      <rect>
        4 12 8 8 6</rect></_>
    <_>
      <rect>
        4 12 8 8 10</rect></_>
    <_>
      <rect>
        4 12 8 8 17</rect></_>
    <_>
      <rect>
        4 12 8 8 25</rect></_>
    <_>
      <rect>
        4 12 8 8 27</rect></_>
    <_>
      <rect>
        4 12 8 8 28</rect></_>
    <_>
      <rect>
        4 12 8 8 29</rect></_>
    <_>
      <rect>
        4 12 8 8 31</rect></_>
    <_>
      <rect>
        4 12 8 8 32</rect></_>
    <_>
      <rect>
        4 12 8 8 33</rect></_>
    <_>
      <rect>
        4 12 8 8 35</rect></_>
    <_>
      <rect>
        4 16 8 8 8</rect></_>
    <_>
      <rect>
        4 16 8 8 13</rect></_>
    <_>
      <rect>
        4 16 8 8 14</rect></_>
    <_>
      <rect>
        4 16 8 8 15</rect></_>
    <_>
      <rect>
        4 16 8 8 17</rect></_>
    <_>
      <rect>
        4 16 8 8 22</rect></_>
    <_>
      <rect>
        4 16 8 8 25</rect></_>
    <_>
      <rect>
        4 16 8 8 26</rect></_>
    <_>
      <rect>
        4 16 8 8 29</rect></_>
    <_>
      <rect>
        4 16 8 8 30</rect></_>
    <_>
      <rect>
        4 16 8 8 31</rect></_>
    <_>
      <rect>
        4 20 8 8 13</rect></_>
    <_>
      <rect>
        4 20 8 8 15</rect></_>
    <_>
      <rect>
        4 20 8 8 17</rect></_>
    <_>
      <rect>
        4 20 8 8 18</rect></_>
    <_>
      <rect>
        4 20 8 8 28</rect></_>
    <_>
      <rect>
        4 20 8 8 29</rect></_>
    <_>
      <rect>
        4 24 8 8 0</rect></_>
    <_>
      <rect>
        4 24 8 8 4</rect></_>
    <_>
      <rect>
        4 24 8 8 19</rect></_>
    <_>
      <rect>
        4 24 8 8 21</rect></_>
    <_>
      <rect>
        4 24 8 8 22</rect></_>
    <_>
      <rect>
        4 24 8 8 26</rect></_>
    <_>
      <rect>
        0 0 8 16 0</rect></_>
    <_>
      <rect>
        0 0 8 16 1</rect></_>
    <_>
      <rect>
        0 0 8 16 3</rect></_>
    <_>
      <rect>
        0 0 8 16 4</rect></_>
    <_>
      <rect>
        0 0 8 16 14</rect></_>
    <_>
      <rect>
        0 0 8 16 15</rect></_>
    <_>
      <rect>
        0 0 8 16 17</rect></_>
    <_>
      <rect>
        0 0 8 16 22</rect></_>
    <_>
      <rect>
        0 0 8 16 25</rect></_>
    <_>
      <rect>
        0 0 8 16 26</rect></_>
    <_>
      <rect>
        0 0 8 16 27</rect></_>
    <_>
      <rect>
        0 0 8 16 30</rect></_>
    <_>
      <rect>
        0 0 8 16 31</rect></_>
    <_>
      <rect>
        0 0 8 16 35</rect></_>
    <_>
      <rect>
        0 4 8 16 0</rect></_>
    <_>
      <rect>
        0 4 8 16 4</rect></_>
    <_>
      <rect>
        0 4 8 16 22</rect></_>
    <_>
      <rect>
        0 4 8 16 25</rect></_>
    <_>
      <rect>
        0 4 8 16 27</rect></_>
    <_>
      <rect>
        0 4 8 16 28</rect></_>
    <_>
      <rect>
        0 4 8 16 30</rect></_>
    <_>
      <rect>
        0 4 8 16 31</rect></_>
    <_>
      <rect>
        0 4 8 16 35</rect></_>
    <_>
      <rect>
        0 8 8 16 0</rect></_>
    <_>
      <rect>
        0 8 8 16 1</rect></_>
    <_>
      <rect>
        0 8 8 16 8</rect></_>
    <_>
      <rect>
        0 8 8 16 17</rect></_>
    <_>
      <rect>
        0 8 8 16 21</rect></_>
    <_>
      <rect>
        0 8 8 16 22</rect></_>
    <_>
      <rect>
        0 8 8 16 25</rect></_>
    <_>
      <rect>
        0 8 8 16 27</rect></_>
    <_>
      <rect>
        0 8 8 16 30</rect></_>
    <_>
      <rect>
        0 8 8 16 32</rect></_>
    <_>
      <rect>
        4 0 8 16 1</rect></_>
    <_>
      <rect>
        4 0 8 16 2</rect></_>
    <_>
      <rect>
        4 0 8 16 3</rect></_>
    <_>
      <rect>
        4 0 8 16 8</rect></_>
    <_>
      <rect>
        4 0 8 16 15</rect></_>
    <_>
      <rect>
        4 0 8 16 16</rect></_>
    <_>
      <rect>
        4 0 8 16 17</rect></_>
    <_>
      <rect>
        4 0 8 16 26</rect></_>
    <_>
      <rect>
        4 0 8 16 27</rect></_>
    <_>
      <rect>
        4 0 8 16 30</rect></_>
    <_>
      <rect>
        4 0 8 16 31</rect></_>
    <_>
      <rect>
        4 4 8 16 13</rect></_>
    <_>
      <rect>
        4 4 8 16 16</rect></_>
    <_>
      <rect>
        4 4 8 16 22</rect></_>
    <_>
      <rect>
        4 4 8 16 24</rect></_>
    <_>
      <rect>
        4 4 8 16 25</rect></_>
    <_>
      <rect>
        4 4 8 16 26</rect></_>
    <_>
      <rect>
        4 4 8 16 27</rect></_>
    <_>
      <rect>
        4 4 8 16 30</rect></_>
    <_>
      <rect>
        4 4 8 16 31</rect></_>
    <_>
      <rect>
        4 8 8 16 8</rect></_>
    <_>
      <rect>
        4 8 8 16 10</rect></_>
    <_>
      <rect>
        4 8 8 16 17</rect></_>
    <_>
      <rect>
        4 8 8 16 19</rect></_>
    <_>
      <rect>
        4 8 8 16 20</rect></_>
    <_>
      <rect>
        4 8 8 16 21</rect></_>
    <_>
      <rect>
        4 8 8 16 22</rect></_>
    <_>
      <rect>
        4 8 8 16 26</rect></_>
    <_>
      <rect>
        4 8 8 16 27</rect></_></features></cascade>
</opencv_storage>
