<?xml version="1.0"?>
<opencv_storage>
<cascade>
  <stageType>BOOST</stageType>
  <featureType>HOG</featureType>
  <height>40</height>
  <width>20</width>
  <stageParams>
    <boostType>GAB</boostType>
    <minHitRate>9.9500000476837158e-001</minHitRate>
    <maxFalseAlarm>5.0000000000000000e-001</maxFalseAlarm>
    <weightTrimRate>9.4999998807907104e-001</weightTrimRate>
    <maxDepth>1</maxDepth>
    <maxWeakCount>100</maxWeakCount></stageParams>
  <featureParams>
    <maxCatCount>0</maxCatCount>
    <featSize>36</featSize></featureParams>
  <stageNum>27</stageNum>
  <stages>
    <!-- stage 0 -->
    <_>
      <maxWeakCount>1</maxWeakCount>
      <stageThreshold>1.</stageThreshold>
      <weakClassifiers>
        <_>
          <internalNodes>
            0 -1 320 1.8373906641500071e-005</internalNodes>
          <leafValues>
            -9.9401795864105225e-001 1.</leafValues></_></weakClassifiers></_>
    <!-- stage 1 -->
    <_>
      <maxWeakCount>3</maxWeakCount>
      <stageThreshold>1.1002233028411865e+000</stageThreshold>
      <weakClassifiers>
        <_>
          <internalNodes>
            0 -1 246 5.7864669710397720e-002</internalNodes>
          <leafValues>
            9.7178071737289429e-001 -6.5112262964248657e-001</leafValues></_>
        <_>
          <internalNodes>
            0 -1 241 4.3355576694011688e-002</internalNodes>
          <leafValues>
            8.9687186479568481e-001 -6.1198109388351440e-001</leafValues></_>
        <_>
          <internalNodes>
            0 -1 300 2.6088930666446686e-002</internalNodes>
          <leafValues>
            7.4042361974716187e-001 -6.5644782781600952e-001</leafValues></_></weakClassifiers></_>
    <!-- stage 2 -->
    <_>
      <maxWeakCount>8</maxWeakCount>
      <stageThreshold>4.2754381895065308e-001</stageThreshold>
      <weakClassifiers>
        <_>
          <internalNodes>
            0 -1 286 4.9099922180175781e-002</internalNodes>
          <leafValues>
            9.5762395858764648e-001 -2.5222551822662354e-001</leafValues></_>
        <_>
          <internalNodes>
            0 -1 241 2.5391746312379837e-002</internalNodes>
          <leafValues>
            8.6599069833755493e-001 -1.1289604753255844e-001</leafValues></_>
        <_>
          <internalNodes>
            0 -1 5 1.2243152596056461e-003</internalNodes>
          <leafValues>
            8.5290771722793579e-001 -1.7902185022830963e-001</leafValues></_>
        <_>
          <internalNodes>
            0 -1 200 8.9600952342152596e-003</internalNodes>
          <leafValues>
            6.3863193988800049e-001 -4.2140287160873413e-001</leafValues></_>
        <_>
          <internalNodes>
            0 -1 87 5.4764086380600929e-003</internalNodes>
          <leafValues>
            5.6618613004684448e-001 -3.5069891810417175e-001</leafValues></_>
        <_>
          <internalNodes>
            0 -1 279 2.6112314313650131e-002</internalNodes>
          <leafValues>
            -3.6733287572860718e-001 5.3921008110046387e-001</leafValues></_>
        <_>
          <internalNodes>
            0 -1 234 2.6466418057680130e-002</internalNodes>
          <leafValues>
            -3.7878543138504028e-001 4.8412743210792542e-001</leafValues></_>
        <_>
          <internalNodes>
            0 -1 113 1.8515989184379578e-002</internalNodes>
          <leafValues>
            -3.9946761727333069e-001 4.1714504361152649e-001</leafValues></_></weakClassifiers></_>
    <!-- stage 3 -->
    <_>
      <maxWeakCount>8</maxWeakCount>
      <stageThreshold>1.5159556269645691e-001</stageThreshold>
      <weakClassifiers>
        <_>
          <internalNodes>
            0 -1 64 4.0884151530917734e-005</internalNodes>
          <leafValues>
            -7.9908674955368042e-001 9.5700824260711670e-001</leafValues></_>
        <_>
          <internalNodes>
            0 -1 246 2.5859380140900612e-002</internalNodes>
          <leafValues>
            8.4011417627334595e-001 -1.6793337464332581e-001</leafValues></_>
        <_>
          <internalNodes>
            0 -1 235 5.3795754909515381e-002</internalNodes>
          <leafValues>
            -3.3123815059661865e-001 6.8612247705459595e-001</leafValues></_>
        <_>
          <internalNodes>
            0 -1 190 3.6958458367735147e-003</internalNodes>
          <leafValues>
            6.0925954580307007e-001 -3.1934258341789246e-001</leafValues></_>
        <_>
          <internalNodes>
            0 -1 279 1.1902076192200184e-002</internalNodes>
          <leafValues>
            -6.6603350639343262e-001 3.2260629534721375e-001</leafValues></_>
        <_>
          <internalNodes>
            0 -1 284 3.2750867307186127e-002</internalNodes>
          <leafValues>
            -4.4327974319458008e-001 4.5316076278686523e-001</leafValues></_>
        <_>
          <internalNodes>
            0 -1 23 2.5399415753781796e-003</internalNodes>
          <leafValues>
            5.0954526662826538e-001 -3.5663878917694092e-001</leafValues></_>
        <_>
          <internalNodes>
            0 -1 115 7.9979235306382179e-003</internalNodes>
          <leafValues>
            -4.4471803307533264e-001 3.5282948613166809e-001</leafValues></_></weakClassifiers></_>
    <!-- stage 4 -->
    <_>
      <maxWeakCount>4</maxWeakCount>
      <stageThreshold>6.3189750909805298e-001</stageThreshold>
      <weakClassifiers>
        <_>
          <internalNodes>
            0 -1 287 2.1774243563413620e-002</internalNodes>
          <leafValues>
            9.8318934440612793e-001 5.6991845369338989e-001</leafValues></_>
        <_>
          <internalNodes>
            0 -1 299 2.0532678812742233e-002</internalNodes>
          <leafValues>
            8.9913517236709595e-001 -1.1483111232519150e-001</leafValues></_>
        <_>
          <internalNodes>
            0 -1 233 1.6853211447596550e-002</internalNodes>
          <leafValues>
            7.2699803113937378e-001 -4.6913439035415649e-001</leafValues></_>
        <_>
          <internalNodes>
            0 -1 5 8.7186536984518170e-004</internalNodes>
          <leafValues>
            7.2382283210754395e-001 -3.6802175641059875e-001</leafValues></_></weakClassifiers></_>
    <!-- stage 5 -->
    <_>
      <maxWeakCount>4</maxWeakCount>
      <stageThreshold>8.9675086736679077e-001</stageThreshold>
      <weakClassifiers>
        <_>
          <internalNodes>
            0 -1 4 7.7828555367887020e-003</internalNodes>
          <leafValues>
            9.8968911170959473e-001 7.1903324127197266e-001</leafValues></_>
        <_>
          <internalNodes>
            0 -1 287 1.4492847025394440e-002</internalNodes>
          <leafValues>
            9.2803102731704712e-001 1.0756144672632217e-001</leafValues></_>
        <_>
          <internalNodes>
            0 -1 4 4.3335068039596081e-003</internalNodes>
          <leafValues>
            8.8617354631423950e-001 -2.8459754586219788e-001</leafValues></_>
        <_>
          <internalNodes>
            0 -1 257 4.9069151282310486e-002</internalNodes>
          <leafValues>
            -4.6571588516235352e-001 6.9659912586212158e-001</leafValues></_></weakClassifiers></_>
    <!-- stage 6 -->
    <_>
      <maxWeakCount>8</maxWeakCount>
      <stageThreshold>1.3584864139556885e-001</stageThreshold>
      <weakClassifiers>
        <_>
          <internalNodes>
            0 -1 5 5.5079367011785507e-003</internalNodes>
          <leafValues>
            9.8531502485275269e-001 8.0476248264312744e-001</leafValues></_>
        <_>
          <internalNodes>
            0 -1 235 4.6845156699419022e-002</internalNodes>
          <leafValues>
            1.4140996336936951e-001 8.6704909801483154e-001</leafValues></_>
        <_>
          <internalNodes>
            0 -1 5 1.6553041059523821e-003</internalNodes>
          <leafValues>
            7.8764355182647705e-001 -2.1906329691410065e-001</leafValues></_>
        <_>
          <internalNodes>
            0 -1 190 2.6544779539108276e-003</internalNodes>
          <leafValues>
            7.4493044614791870e-001 -3.1540393829345703e-001</leafValues></_>
        <_>
          <internalNodes>
            0 -1 311 4.1678503155708313e-002</internalNodes>
          <leafValues>
            -4.4370815157890320e-001 4.4131973385810852e-001</leafValues></_>
        <_>
          <internalNodes>
            0 -1 246 1.1025878600776196e-002</internalNodes>
          <leafValues>
            3.3389672636985779e-001 -4.4218513369560242e-001</leafValues></_>
        <_>
          <internalNodes>
            0 -1 115 2.3511549457907677e-002</internalNodes>
          <leafValues>
            -2.8326058387756348e-001 5.3266656398773193e-001</leafValues></_>
        <_>
          <internalNodes>
            0 -1 121 8.0731668276712298e-004</internalNodes>
          <leafValues>
            6.1816298961639404e-001 -1.7228315770626068e-001</leafValues></_></weakClassifiers></_>
    <!-- stage 7 -->
    <_>
      <maxWeakCount>16</maxWeakCount>
      <stageThreshold>2.2482404112815857e-001</stageThreshold>
      <weakClassifiers>
        <_>
          <internalNodes>
            0 -1 252 6.8028345704078674e-002</internalNodes>
          <leafValues>
            9.5737046003341675e-001 -7.7391302585601807e-001</leafValues></_>
        <_>
          <internalNodes>
            0 -1 4 3.0794576741755009e-003</internalNodes>
          <leafValues>
            8.7106096744537354e-001 3.4454199671745300e-001</leafValues></_>
        <_>
          <internalNodes>
            0 -1 263 4.7475978732109070e-002</internalNodes>
          <leafValues>
            -2.3918676376342773e-001 5.3462761640548706e-001</leafValues></_>
        <_>
          <internalNodes>
            0 -1 58 3.7130378768779337e-004</internalNodes>
          <leafValues>
            5.3527307510375977e-001 -2.7468571066856384e-001</leafValues></_>
        <_>
          <internalNodes>
            0 -1 181 4.3798066675662994e-002</internalNodes>
          <leafValues>
            -2.8053802251815796e-001 5.1063996553421021e-001</leafValues></_>
        <_>
          <internalNodes>
            0 -1 115 8.8406968861818314e-003</internalNodes>
          <leafValues>
            -4.2458271980285645e-001 2.6690694689750671e-001</leafValues></_>
        <_>
          <internalNodes>
            0 -1 5 1.0838864836841822e-003</internalNodes>
          <leafValues>
            3.5809734463691711e-001 -2.8363886475563049e-001</leafValues></_>
        <_>
          <internalNodes>
            0 -1 223 1.3642824487760663e-003</internalNodes>
          <leafValues>
            -8.2850748300552368e-001 1.6536630690097809e-001</leafValues></_>
        <_>
          <internalNodes>
            0 -1 53 4.9911905080080032e-004</internalNodes>
          <leafValues>
            4.7500044107437134e-001 -2.6322072744369507e-001</leafValues></_>
        <_>
          <internalNodes>
            0 -1 247 7.7529856935143471e-004</internalNodes>
          <leafValues>
            -9.1114205121994019e-001 1.0864046961069107e-001</leafValues></_>
        <_>
          <internalNodes>
            0 -1 121 1.8349286401644349e-003</internalNodes>
          <leafValues>
            4.2494797706604004e-001 -2.4740479886531830e-001</leafValues></_>
        <_>
          <internalNodes>
            0 -1 12 1.6322664916515350e-002</internalNodes>
          <leafValues>
            -3.5033226013183594e-001 3.1952756643295288e-001</leafValues></_>
        <_>
          <internalNodes>
            0 -1 212 8.4210991859436035e-002</internalNodes>
          <leafValues>
            -1.3019621372222900e-001 6.6971242427825928e-001</leafValues></_>
        <_>
          <internalNodes>
            0 -1 87 9.6421758644282818e-004</internalNodes>
          <leafValues>
            4.2587554454803467e-001 -1.7623132467269897e-001</leafValues></_>
        <_>
          <internalNodes>
            0 -1 193 3.7906067445874214e-003</internalNodes>
          <leafValues>
            -8.1686967611312866e-001 1.1390810459852219e-001</leafValues></_>
        <_>
          <internalNodes>
            0 -1 231 2.9297268018126488e-002</internalNodes>
          <leafValues>
            -2.2469671070575714e-001 3.5510176420211792e-001</leafValues></_></weakClassifiers></_>
    <!-- stage 8 -->
    <_>
      <maxWeakCount>8</maxWeakCount>
      <stageThreshold>2.2610653936862946e-001</stageThreshold>
      <weakClassifiers>
        <_>
          <internalNodes>
            0 -1 244 1.0148938000202179e-001</internalNodes>
          <leafValues>
            9.5761328935623169e-001 -6.5873014926910400e-001</leafValues></_>
        <_>
          <internalNodes>
            0 -1 298 4.1978666558861732e-003</internalNodes>
          <leafValues>
            -4.7793152928352356e-001 8.2464200258255005e-001</leafValues></_>
        <_>
          <internalNodes>
            0 -1 240 1.8731057643890381e-002</internalNodes>
          <leafValues>
            -3.9157480001449585e-001 6.2895667552947998e-001</leafValues></_>
        <_>
          <internalNodes>
            0 -1 264 3.6154918372631073e-002</internalNodes>
          <leafValues>
            -3.7912207841873169e-001 6.6009044647216797e-001</leafValues></_>
        <_>
          <internalNodes>
            0 -1 69 4.7468359116464853e-004</internalNodes>
          <leafValues>
            6.3728570938110352e-001 -2.8408685326576233e-001</leafValues></_>
        <_>
          <internalNodes>
            0 -1 259 2.6687290519475937e-002</internalNodes>
          <leafValues>
            -3.6552277207374573e-001 4.6415868401527405e-001</leafValues></_>
        <_>
          <internalNodes>
            0 -1 278 1.6708841547369957e-002</internalNodes>
          <leafValues>
            -4.1187602281570435e-001 3.9037650823593140e-001</leafValues></_>
        <_>
          <internalNodes>
            0 -1 292 4.2835786938667297e-002</internalNodes>
          <leafValues>
            1.9901801645755768e-001 -7.4449765682220459e-001</leafValues></_></weakClassifiers></_>
    <!-- stage 9 -->
    <_>
      <maxWeakCount>24</maxWeakCount>
      <stageThreshold>1.2614104151725769e-001</stageThreshold>
      <weakClassifiers>
        <_>
          <internalNodes>
            0 -1 300 2.8074219822883606e-002</internalNodes>
          <leafValues>
            9.5987141132354736e-001 6.2977868318557739e-001</leafValues></_>
        <_>
          <internalNodes>
            0 -1 5 2.0391293801367283e-003</internalNodes>
          <leafValues>
            8.7452650070190430e-001 3.5069569945335388e-001</leafValues></_>
        <_>
          <internalNodes>
            0 -1 190 1.4639962464570999e-003</internalNodes>
          <leafValues>
            7.3097366094589233e-001 -9.6357062458992004e-002</leafValues></_>
        <_>
          <internalNodes>
            0 -1 33 1.7462412361055613e-003</internalNodes>
          <leafValues>
            5.0438195466995239e-001 -2.1506664156913757e-001</leafValues></_>
        <_>
          <internalNodes>
            0 -1 113 1.6098419204354286e-002</internalNodes>
          <leafValues>
            -3.9793133735656738e-001 3.1941840052604675e-001</leafValues></_>
        <_>
          <internalNodes>
            0 -1 264 5.7488143444061279e-002</internalNodes>
          <leafValues>
            -2.6249119639396667e-001 4.6776157617568970e-001</leafValues></_>
        <_>
          <internalNodes>
            0 -1 121 2.5961073115468025e-003</internalNodes>
          <leafValues>
            4.8280566930770874e-001 -2.4978648126125336e-001</leafValues></_>
        <_>
          <internalNodes>
            0 -1 279 1.5368700958788395e-002</internalNodes>
          <leafValues>
            -5.1318776607513428e-001 2.1492575109004974e-001</leafValues></_>
        <_>
          <internalNodes>
            0 -1 49 1.4441570267081261e-002</internalNodes>
          <leafValues>
            -7.6677054166793823e-001 1.1226344108581543e-001</leafValues></_>
        <_>
          <internalNodes>
            0 -1 202 6.3262198818847537e-004</internalNodes>
          <leafValues>
            5.1627737283706665e-001 -1.7640131711959839e-001</leafValues></_>
        <_>
          <internalNodes>
            0 -1 274 9.9239960312843323e-002</internalNodes>
          <leafValues>
            1.2301446497440338e-001 -6.7863219976425171e-001</leafValues></_>
        <_>
          <internalNodes>
            0 -1 23 5.5354055948555470e-003</internalNodes>
          <leafValues>
            2.9052555561065674e-001 -2.8132280707359314e-001</leafValues></_>
        <_>
          <internalNodes>
            0 -1 242 2.9930961318314075e-005</internalNodes>
          <leafValues>
            -8.2385045289993286e-001 9.3611888587474823e-002</leafValues></_>
        <_>
          <internalNodes>
            0 -1 84 5.2583448588848114e-002</internalNodes>
          <leafValues>
            -1.6444383561611176e-001 5.4514652490615845e-001</leafValues></_>
        <_>
          <internalNodes>
            0 -1 12 3.6333959549665451e-002</internalNodes>
          <leafValues>
            -1.8621650338172913e-001 3.8870209455490112e-001</leafValues></_>
        <_>
          <internalNodes>
            0 -1 90 8.3182482048869133e-003</internalNodes>
          <leafValues>
            2.8629577159881592e-001 -2.6295563578605652e-001</leafValues></_>
        <_>
          <internalNodes>
            0 -1 272 1.9112739711999893e-002</internalNodes>
          <leafValues>
            -2.4020090699195862e-001 2.8448551893234253e-001</leafValues></_>
        <_>
          <internalNodes>
            0 -1 142 2.9099707026034594e-003</internalNodes>
          <leafValues>
            4.4959074258804321e-001 -1.5128940343856812e-001</leafValues></_>
        <_>
          <internalNodes>
            0 -1 284 2.9683636501431465e-002</internalNodes>
          <leafValues>
            -2.5365611910820007e-001 2.1735544502735138e-001</leafValues></_>
        <_>
          <internalNodes>
            0 -1 103 8.6492426693439484e-002</internalNodes>
          <leafValues>
            -8.3949901163578033e-002 7.8592783212661743e-001</leafValues></_>
        <_>
          <internalNodes>
            0 -1 278 2.9514396563172340e-002</internalNodes>
          <leafValues>
            -1.4972248673439026e-001 3.6370953917503357e-001</leafValues></_>
        <_>
          <internalNodes>
            0 -1 194 7.5384452939033508e-002</internalNodes>
          <leafValues>
            -1.2985023856163025e-001 5.1057404279708862e-001</leafValues></_>
        <_>
          <internalNodes>
            0 -1 314 5.1955468952655792e-003</internalNodes>
          <leafValues>
            -3.3507430553436279e-001 1.5950775146484375e-001</leafValues></_>
        <_>
          <internalNodes>
            0 -1 122 1.0662798304110765e-003</internalNodes>
          <leafValues>
            4.0559700131416321e-001 -1.4546968042850494e-001</leafValues></_></weakClassifiers></_>
    <!-- stage 10 -->
    <_>
      <maxWeakCount>26</maxWeakCount>
      <stageThreshold>1.8962474167346954e-001</stageThreshold>
      <weakClassifiers>
        <_>
          <internalNodes>
            0 -1 37 4.2575378756737337e-005</internalNodes>
          <leafValues>
            -5.9124088287353516e-001 9.5240128040313721e-001</leafValues></_>
        <_>
          <internalNodes>
            0 -1 4 2.5897575542330742e-003</internalNodes>
          <leafValues>
            8.6297076940536499e-001 3.2045030593872070e-001</leafValues></_>
        <_>
          <internalNodes>
            0 -1 75 2.9424659442156553e-004</internalNodes>
          <leafValues>
            7.6525986194610596e-001 -2.5905478745698929e-002</leafValues></_>
        <_>
          <internalNodes>
            0 -1 5 3.7570955464616418e-004</internalNodes>
          <leafValues>
            4.4763836264610291e-001 -2.1862699091434479e-001</leafValues></_>
        <_>
          <internalNodes>
            0 -1 63 5.1042921841144562e-002</internalNodes>
          <leafValues>
            -1.6370095312595367e-001 5.4183816909790039e-001</leafValues></_>
        <_>
          <internalNodes>
            0 -1 87 1.3620865065604448e-003</internalNodes>
          <leafValues>
            3.7660554051399231e-001 -2.5439903140068054e-001</leafValues></_>
        <_>
          <internalNodes>
            0 -1 13 1.7973439767956734e-002</internalNodes>
          <leafValues>
            -2.9792064428329468e-001 3.3731985092163086e-001</leafValues></_>
        <_>
          <internalNodes>
            0 -1 264 2.4868041276931763e-002</internalNodes>
          <leafValues>
            -4.1647747159004211e-001 2.1762639284133911e-001</leafValues></_>
        <_>
          <internalNodes>
            0 -1 257 3.1521461904048920e-002</internalNodes>
          <leafValues>
            -5.7129651308059692e-001 1.7486296594142914e-001</leafValues></_>
        <_>
          <internalNodes>
            0 -1 300 1.5550538897514343e-002</internalNodes>
          <leafValues>
            1.6094546020030975e-001 -4.4461122155189514e-001</leafValues></_>
        <_>
          <internalNodes>
            0 -1 23 1.2081279419362545e-003</internalNodes>
          <leafValues>
            3.5786256194114685e-001 -2.0490150153636932e-001</leafValues></_>
        <_>
          <internalNodes>
            0 -1 119 1.1257754266262054e-001</internalNodes>
          <leafValues>
            1.1831772327423096e-001 -7.0589542388916016e-001</leafValues></_>
        <_>
          <internalNodes>
            0 -1 121 5.7278817985206842e-004</internalNodes>
          <leafValues>
            4.0296778082847595e-001 -1.9433943927288055e-001</leafValues></_>
        <_>
          <internalNodes>
            0 -1 262 2.8316671960055828e-003</internalNodes>
          <leafValues>
            -7.8623002767562866e-001 9.9220134317874908e-002</leafValues></_>
        <_>
          <internalNodes>
            0 -1 99 6.1540674418210983e-002</internalNodes>
          <leafValues>
            -1.5945319831371307e-001 3.7904074788093567e-001</leafValues></_>
        <_>
          <internalNodes>
            0 -1 199 8.6436912417411804e-002</internalNodes>
          <leafValues>
            -6.8653240799903870e-002 7.1542960405349731e-001</leafValues></_>
        <_>
          <internalNodes>
            0 -1 249 6.8299271166324615e-002</internalNodes>
          <leafValues>
            -1.2083793431520462e-001 4.1485989093780518e-001</leafValues></_>
        <_>
          <internalNodes>
            0 -1 278 1.8066879361867905e-002</internalNodes>
          <leafValues>
            -2.6322355866432190e-001 2.2145004570484161e-001</leafValues></_>
        <_>
          <internalNodes>
            0 -1 33 3.0570052331313491e-004</internalNodes>
          <leafValues>
            4.2098888754844666e-001 -1.3907848298549652e-001</leafValues></_>
        <_>
          <internalNodes>
            0 -1 273 2.6395670138299465e-003</internalNodes>
          <leafValues>
            -5.3934085369110107e-001 1.3284920156002045e-001</leafValues></_>
        <_>
          <internalNodes>
            0 -1 175 1.8633732106536627e-003</internalNodes>
          <leafValues>
            3.4049522876739502e-001 -1.6149783134460449e-001</leafValues></_>
        <_>
          <internalNodes>
            0 -1 234 4.5729691919405013e-005</internalNodes>
          <leafValues>
            -9.5919597148895264e-001 5.7177808135747910e-002</leafValues></_>
        <_>
          <internalNodes>
            0 -1 311 1.8477259576320648e-001</internalNodes>
          <leafValues>
            3.4860819578170776e-002 -8.4593623876571655e-001</leafValues></_>
        <_>
          <internalNodes>
            0 -1 294 2.6000080630183220e-002</internalNodes>
          <leafValues>
            -4.2490479350090027e-001 1.0301499068737030e-001</leafValues></_>
        <_>
          <internalNodes>
            0 -1 122 7.2584522422403097e-004</internalNodes>
          <leafValues>
            3.9188063144683838e-001 -1.5058748424053192e-001</leafValues></_>
        <_>
          <internalNodes>
            0 -1 11 1.0311895981431007e-002</internalNodes>
          <leafValues>
            -2.9560828208923340e-001 1.6958814859390259e-001</leafValues></_></weakClassifiers></_>
    <!-- stage 11 -->
    <_>
      <maxWeakCount>32</maxWeakCount>
      <stageThreshold>2.3519898951053619e-001</stageThreshold>
      <weakClassifiers>
        <_>
          <internalNodes>
            0 -1 241 7.1612343192100525e-002</internalNodes>
          <leafValues>
            9.4970935583114624e-001 -5.6164383888244629e-001</leafValues></_>
        <_>
          <internalNodes>
            0 -1 5 1.1131385108456016e-003</internalNodes>
          <leafValues>
            8.7196087837219238e-001 3.8414144515991211e-001</leafValues></_>
        <_>
          <internalNodes>
            0 -1 74 2.5362809537909925e-004</internalNodes>
          <leafValues>
            7.0766013860702515e-001 -1.0102248936891556e-001</leafValues></_>
        <_>
          <internalNodes>
            0 -1 16 6.2697753310203552e-002</internalNodes>
          <leafValues>
            -1.1729393154382706e-001 6.0459822416305542e-001</leafValues></_>
        <_>
          <internalNodes>
            0 -1 299 1.3681605458259583e-002</internalNodes>
          <leafValues>
            1.7433056235313416e-001 -4.9966219067573547e-001</leafValues></_>
        <_>
          <internalNodes>
            0 -1 68 5.6361779570579529e-004</internalNodes>
          <leafValues>
            3.4864968061447144e-001 -2.3116138577461243e-001</leafValues></_>
        <_>
          <internalNodes>
            0 -1 193 4.0459334850311279e-003</internalNodes>
          <leafValues>
            -8.4627902507781982e-001 1.0028440505266190e-001</leafValues></_>
        <_>
          <internalNodes>
            0 -1 12 3.1493544578552246e-002</internalNodes>
          <leafValues>
            -2.6180681586265564e-001 3.1941270828247070e-001</leafValues></_>
        <_>
          <internalNodes>
            0 -1 4 6.4109324011951685e-004</internalNodes>
          <leafValues>
            2.7631390094757080e-001 -2.5042122602462769e-001</leafValues></_>
        <_>
          <internalNodes>
            0 -1 223 3.7676913052564487e-005</internalNodes>
          <leafValues>
            -8.3189135789871216e-001 7.9529687762260437e-002</leafValues></_>
        <_>
          <internalNodes>
            0 -1 122 3.4014196135103703e-003</internalNodes>
          <leafValues>
            2.6332950592041016e-001 -2.5664281845092773e-001</leafValues></_>
        <_>
          <internalNodes>
            0 -1 274 1.1959893256425858e-001</internalNodes>
          <leafValues>
            1.0054486244916916e-001 -7.9212349653244019e-001</leafValues></_>
        <_>
          <internalNodes>
            0 -1 23 2.8773906524293125e-004</internalNodes>
          <leafValues>
            4.2094320058822632e-001 -1.6596870124340057e-001</leafValues></_>
        <_>
          <internalNodes>
            0 -1 113 5.3000813350081444e-003</internalNodes>
          <leafValues>
            -4.2294338345527649e-001 1.4081589877605438e-001</leafValues></_>
        <_>
          <internalNodes>
            0 -1 249 5.2631299942731857e-002</internalNodes>
          <leafValues>
            -1.9631141424179077e-001 3.1099572777748108e-001</leafValues></_>
        <_>
          <internalNodes>
            0 -1 121 5.1537994295358658e-004</internalNodes>
          <leafValues>
            3.7919241189956665e-001 -1.5204025804996490e-001</leafValues></_>
        <_>
          <internalNodes>
            0 -1 72 1.6918156296014786e-002</internalNodes>
          <leafValues>
            -5.7749933004379272e-001 9.9968686699867249e-002</leafValues></_>
        <_>
          <internalNodes>
            0 -1 278 2.7959384024143219e-002</internalNodes>
          <leafValues>
            -1.9320096075534821e-001 2.9110541939735413e-001</leafValues></_>
        <_>
          <internalNodes>
            0 -1 87 5.2521837642416358e-004</internalNodes>
          <leafValues>
            3.9776349067687988e-001 -1.5153735876083374e-001</leafValues></_>
        <_>
          <internalNodes>
            0 -1 257 1.8320673704147339e-001</internalNodes>
          <leafValues>
            7.6866328716278076e-002 -7.4709171056747437e-001</leafValues></_>
        <_>
          <internalNodes>
            0 -1 111 1.4342758059501648e-001</internalNodes>
          <leafValues>
            6.2448192387819290e-002 -6.3153713941574097e-001</leafValues></_>
        <_>
          <internalNodes>
            0 -1 202 6.9281912874430418e-004</internalNodes>
          <leafValues>
            3.9725044369697571e-001 -1.4111571013927460e-001</leafValues></_>
        <_>
          <internalNodes>
            0 -1 301 6.2966957688331604e-002</internalNodes>
          <leafValues>
            -8.8091634213924408e-002 6.0048305988311768e-001</leafValues></_>
        <_>
          <internalNodes>
            0 -1 138 3.1261399271897972e-005</internalNodes>
          <leafValues>
            -9.0599179267883301e-001 6.2292523682117462e-002</leafValues></_>
        <_>
          <internalNodes>
            0 -1 11 2.1958148106932640e-002</internalNodes>
          <leafValues>
            -2.0140738785266876e-001 2.1791245043277740e-001</leafValues></_>
        <_>
          <internalNodes>
            0 -1 27 5.5313610937446356e-004</internalNodes>
          <leafValues>
            5.5975925922393799e-001 -9.3666277825832367e-002</leafValues></_>
        <_>
          <internalNodes>
            0 -1 284 6.0137221589684486e-004</internalNodes>
          <leafValues>
            -8.6426746845245361e-001 6.0191653668880463e-002</leafValues></_>
        <_>
          <internalNodes>
            0 -1 248 5.9024643152952194e-002</internalNodes>
          <leafValues>
            -2.6123744249343872e-001 1.6381211578845978e-001</leafValues></_>
        <_>
          <internalNodes>
            0 -1 60 4.4518258073367178e-004</internalNodes>
          <leafValues>
            4.8393622040748596e-001 -1.0043149441480637e-001</leafValues></_>
        <_>
          <internalNodes>
            0 -1 314 3.1869439408183098e-003</internalNodes>
          <leafValues>
            -4.2958125472068787e-001 1.2067446112632751e-001</leafValues></_>
        <_>
          <internalNodes>
            0 -1 260 3.1785100698471069e-002</internalNodes>
          <leafValues>
            6.3328616321086884e-002 -6.4286720752716064e-001</leafValues></_>
        <_>
          <internalNodes>
            0 -1 280 1.2939476966857910e-001</internalNodes>
          <leafValues>
            5.4091900587081909e-002 -5.9479874372482300e-001</leafValues></_></weakClassifiers></_>
    <!-- stage 12 -->
    <_>
      <maxWeakCount>40</maxWeakCount>
      <stageThreshold>1.7852284014225006e-001</stageThreshold>
      <weakClassifiers>
        <_>
          <internalNodes>
            0 -1 2 1.1445632576942444e-001</internalNodes>
          <leafValues>
            9.4878488779067993e-001 -6.5957444906234741e-001</leafValues></_>
        <_>
          <internalNodes>
            0 -1 5 2.6114541105926037e-003</internalNodes>
          <leafValues>
            8.4450912475585938e-001 3.4815731644630432e-001</leafValues></_>
        <_>
          <internalNodes>
            0 -1 40 2.7904295711778104e-004</internalNodes>
          <leafValues>
            7.6746970415115356e-001 -5.3829327225685120e-002</leafValues></_>
        <_>
          <internalNodes>
            0 -1 200 3.5202247090637684e-003</internalNodes>
          <leafValues>
            4.1494199633598328e-001 -2.6624271273612976e-001</leafValues></_>
        <_>
          <internalNodes>
            0 -1 113 2.4022884666919708e-002</internalNodes>
          <leafValues>
            -2.7019658684730530e-001 3.3103474974632263e-001</leafValues></_>
        <_>
          <internalNodes>
            0 -1 33 1.1433120816946030e-003</internalNodes>
          <leafValues>
            3.6998096108436584e-001 -2.5764444470405579e-001</leafValues></_>
        <_>
          <internalNodes>
            0 -1 293 1.0903031565248966e-002</internalNodes>
          <leafValues>
            -6.0075002908706665e-001 1.4558000862598419e-001</leafValues></_>
        <_>
          <internalNodes>
            0 -1 79 2.2665350697934628e-003</internalNodes>
          <leafValues>
            2.9985371232032776e-001 -1.9682845473289490e-001</leafValues></_>
        <_>
          <internalNodes>
            0 -1 284 3.6120381206274033e-002</internalNodes>
          <leafValues>
            -2.6784414052963257e-001 2.4882644414901733e-001</leafValues></_>
        <_>
          <internalNodes>
            0 -1 224 6.1575882136821747e-003</internalNodes>
          <leafValues>
            -4.5959430932998657e-001 1.2798245251178741e-001</leafValues></_>
        <_>
          <internalNodes>
            0 -1 121 1.4104594010859728e-003</internalNodes>
          <leafValues>
            3.7943857908248901e-001 -1.9460672140121460e-001</leafValues></_>
        <_>
          <internalNodes>
            0 -1 3 1.5458313282579184e-003</internalNodes>
          <leafValues>
            3.6518666148185730e-001 -1.8342180550098419e-001</leafValues></_>
        <_>
          <internalNodes>
            0 -1 204 8.0807477235794067e-002</internalNodes>
          <leafValues>
            -1.2079477310180664e-001 4.7991132736206055e-001</leafValues></_>
        <_>
          <internalNodes>
            0 -1 273 3.8440520875155926e-003</internalNodes>
          <leafValues>
            -4.7991886734962463e-001 1.3107889890670776e-001</leafValues></_>
        <_>
          <internalNodes>
            0 -1 151 7.3066130280494690e-002</internalNodes>
          <leafValues>
            -8.6889684200286865e-002 5.7935631275177002e-001</leafValues></_>
        <_>
          <internalNodes>
            0 -1 234 3.7611298466799781e-005</internalNodes>
          <leafValues>
            -9.3742734193801880e-001 5.8244481682777405e-002</leafValues></_>
        <_>
          <internalNodes>
            0 -1 24 3.6352261668071151e-004</internalNodes>
          <leafValues>
            2.9831638932228088e-001 -1.9904185831546783e-001</leafValues></_>
        <_>
          <internalNodes>
            0 -1 195 5.7202912867069244e-002</internalNodes>
          <leafValues>
            -1.0873457789421082e-001 4.2842358350753784e-001</leafValues></_>
        <_>
          <internalNodes>
            0 -1 291 4.2588103562593460e-002</internalNodes>
          <leafValues>
            -1.4081786572933197e-001 2.7767202258110046e-001</leafValues></_>
        <_>
          <internalNodes>
            0 -1 118 3.7834219634532928e-002</internalNodes>
          <leafValues>
            -8.8982604444026947e-002 5.1673257350921631e-001</leafValues></_>
        <_>
          <internalNodes>
            0 -1 159 5.6485354900360107e-002</internalNodes>
          <leafValues>
            -6.3877359032630920e-002 5.2028280496597290e-001</leafValues></_>
        <_>
          <internalNodes>
            0 -1 248 5.4219119250774384e-002</internalNodes>
          <leafValues>
            -2.5691309571266174e-001 1.4750203490257263e-001</leafValues></_>
        <_>
          <internalNodes>
            0 -1 284 5.9618894010782242e-003</internalNodes>
          <leafValues>
            -6.3026529550552368e-001 6.0415882617235184e-002</leafValues></_>
        <_>
          <internalNodes>
            0 -1 5 2.8266047593206167e-004</internalNodes>
          <leafValues>
            2.9248374700546265e-001 -1.6377049684524536e-001</leafValues></_>
        <_>
          <internalNodes>
            0 -1 116 2.7285018935799599e-002</internalNodes>
          <leafValues>
            -1.7992408573627472e-001 2.7644494175910950e-001</leafValues></_>
        <_>
          <internalNodes>
            0 -1 158 9.6082140225917101e-004</internalNodes>
          <leafValues>
            4.0465646982192993e-001 -1.0055352002382278e-001</leafValues></_>
        <_>
          <internalNodes>
            0 -1 112 4.6535432338714600e-003</internalNodes>
          <leafValues>
            -4.3347054719924927e-001 1.0678075999021530e-001</leafValues></_>
        <_>
          <internalNodes>
            0 -1 314 1.2617440661415458e-003</internalNodes>
          <leafValues>
            -5.2337312698364258e-001 7.3640085756778717e-002</leafValues></_>
        <_>
          <internalNodes>
            0 -1 50 7.5315794674679637e-004</internalNodes>
          <leafValues>
            4.3109557032585144e-001 -9.0275764465332031e-002</leafValues></_>
        <_>
          <internalNodes>
            0 -1 258 1.3733655214309692e-001</internalNodes>
          <leafValues>
            6.4314909279346466e-002 -6.5496122837066650e-001</leafValues></_>
        <_>
          <internalNodes>
            0 -1 210 6.4373323693871498e-003</internalNodes>
          <leafValues>
            2.2200322151184082e-001 -1.7920427024364471e-001</leafValues></_>
        <_>
          <internalNodes>
            0 -1 178 4.4910591095685959e-003</internalNodes>
          <leafValues>
            -6.8823426961898804e-001 5.4059952497482300e-002</leafValues></_>
        <_>
          <internalNodes>
            0 -1 212 1.2206391990184784e-001</internalNodes>
          <leafValues>
            -7.2845846414566040e-002 5.5012410879135132e-001</leafValues></_>
        <_>
          <internalNodes>
            0 -1 84 7.5636990368366241e-002</internalNodes>
          <leafValues>
            -6.1267461627721786e-002 5.9594297409057617e-001</leafValues></_>
        <_>
          <internalNodes>
            0 -1 304 2.2713828831911087e-002</internalNodes>
          <leafValues>
            -1.1320187896490097e-001 3.3142945170402527e-001</leafValues></_>
        <_>
          <internalNodes>
            0 -1 42 4.0663694380782545e-004</internalNodes>
          <leafValues>
            3.9779075980186462e-001 -9.7235448658466339e-002</leafValues></_>
        <_>
          <internalNodes>
            0 -1 277 2.0272882655262947e-002</internalNodes>
          <leafValues>
            -1.7113578319549561e-001 2.1896888315677643e-001</leafValues></_>
        <_>
          <internalNodes>
            0 -1 177 1.0573167819529772e-003</internalNodes>
          <leafValues>
            3.8516399264335632e-001 -8.3207555115222931e-002</leafValues></_>
        <_>
          <internalNodes>
            0 -1 55 2.0202915184199810e-003</internalNodes>
          <leafValues>
            -7.9639792442321777e-001 5.2334029227495193e-002</leafValues></_>
        <_>
          <internalNodes>
            0 -1 274 1.5471029281616211e-001</internalNodes>
          <leafValues>
            2.4207673966884613e-002 -8.7698662281036377e-001</leafValues></_></weakClassifiers></_>
    <!-- stage 13 -->
    <_>
      <maxWeakCount>46</maxWeakCount>
      <stageThreshold>1.9457319378852844e-001</stageThreshold>
      <weakClassifiers>
        <_>
          <internalNodes>
            0 -1 49 3.3901167626027018e-005</internalNodes>
          <leafValues>
            -1. 9.4910740852355957e-001</leafValues></_>
        <_>
          <internalNodes>
            0 -1 39 2.1788917365483940e-004</internalNodes>
          <leafValues>
            9.0512681007385254e-001 4.7183844447135925e-001</leafValues></_>
        <_>
          <internalNodes>
            0 -1 163 2.7922017034143209e-004</internalNodes>
          <leafValues>
            6.9631081819534302e-001 -2.7186617255210876e-002</leafValues></_>
        <_>
          <internalNodes>
            0 -1 24 6.2977313064038754e-004</internalNodes>
          <leafValues>
            3.7907838821411133e-001 -2.6964753866195679e-001</leafValues></_>
        <_>
          <internalNodes>
            0 -1 240 7.2555830702185631e-003</internalNodes>
          <leafValues>
            -6.8913793563842773e-001 1.2268320471048355e-001</leafValues></_>
        <_>
          <internalNodes>
            0 -1 184 6.0976244276389480e-004</internalNodes>
          <leafValues>
            3.9132124185562134e-001 -2.0559018850326538e-001</leafValues></_>
        <_>
          <internalNodes>
            0 -1 124 1.4516303315758705e-002</internalNodes>
          <leafValues>
            -3.3187168836593628e-001 1.9541744887828827e-001</leafValues></_>
        <_>
          <internalNodes>
            0 -1 246 2.0017974078655243e-002</internalNodes>
          <leafValues>
            1.0051512718200684e-001 -5.3790825605392456e-001</leafValues></_>
        <_>
          <internalNodes>
            0 -1 139 7.4084027437493205e-004</internalNodes>
          <leafValues>
            4.6601080894470215e-001 -1.4542500674724579e-001</leafValues></_>
        <_>
          <internalNodes>
            0 -1 187 1.7575627565383911e-001</internalNodes>
          <leafValues>
            9.2042483389377594e-002 -7.4866920709609985e-001</leafValues></_>
        <_>
          <internalNodes>
            0 -1 152 2.7003923896700144e-003</internalNodes>
          <leafValues>
            -8.4764170646667480e-001 4.6458873897790909e-002</leafValues></_>
        <_>
          <internalNodes>
            0 -1 5 5.4454192286357284e-004</internalNodes>
          <leafValues>
            2.5910463929176331e-001 -2.5579366087913513e-001</leafValues></_>
        <_>
          <internalNodes>
            0 -1 300 1.8721748143434525e-002</internalNodes>
          <leafValues>
            1.0708785802125931e-001 -4.5769470930099487e-001</leafValues></_>
        <_>
          <internalNodes>
            0 -1 12 2.0570669323205948e-002</internalNodes>
          <leafValues>
            -2.6515412330627441e-001 1.8887212872505188e-001</leafValues></_>
        <_>
          <internalNodes>
            0 -1 69 6.3226744532585144e-004</internalNodes>
          <leafValues>
            3.9499557018280029e-001 -1.6254262626171112e-001</leafValues></_>
        <_>
          <internalNodes>
            0 -1 227 1.6421358287334442e-001</internalNodes>
          <leafValues>
            6.4941212534904480e-002 -8.4723317623138428e-001</leafValues></_>
        <_>
          <internalNodes>
            0 -1 122 2.0878608338534832e-003</internalNodes>
          <leafValues>
            2.8532642126083374e-001 -2.0212073624134064e-001</leafValues></_>
        <_>
          <internalNodes>
            0 -1 272 1.8852964043617249e-002</internalNodes>
          <leafValues>
            -2.1412093937397003e-001 2.0963183045387268e-001</leafValues></_>
        <_>
          <internalNodes>
            0 -1 264 4.8019461333751678e-002</internalNodes>
          <leafValues>
            -1.7877729237079620e-001 2.4187594652175903e-001</leafValues></_>
        <_>
          <internalNodes>
            0 -1 97 6.3783213496208191e-002</internalNodes>
          <leafValues>
            -8.7772741913795471e-002 4.8162946105003357e-001</leafValues></_>
        <_>
          <internalNodes>
            0 -1 234 1.1279707774519920e-002</internalNodes>
          <leafValues>
            -3.6910232901573181e-001 1.1418884992599487e-001</leafValues></_>
        <_>
          <internalNodes>
            0 -1 23 1.0427627712488174e-003</internalNodes>
          <leafValues>
            3.0552178621292114e-001 -1.4332674443721771e-001</leafValues></_>
        <_>
          <internalNodes>
            0 -1 138 5.0029689446091652e-003</internalNodes>
          <leafValues>
            -6.0127443075180054e-001 6.9526605308055878e-002</leafValues></_>
        <_>
          <internalNodes>
            0 -1 311 1.6477590799331665e-001</internalNodes>
          <leafValues>
            4.9281749874353409e-002 -7.3672693967819214e-001</leafValues></_>
        <_>
          <internalNodes>
            0 -1 79 3.4970091655850410e-004</internalNodes>
          <leafValues>
            3.8588425517082214e-001 -1.1028140783309937e-001</leafValues></_>
        <_>
          <internalNodes>
            0 -1 314 2.4476863909512758e-003</internalNodes>
          <leafValues>
            -4.1710156202316284e-001 9.0532928705215454e-002</leafValues></_>
        <_>
          <internalNodes>
            0 -1 314 5.1437441259622574e-002</internalNodes>
          <leafValues>
            4.6159610152244568e-002 -8.1010514497756958e-001</leafValues></_>
        <_>
          <internalNodes>
            0 -1 76 1.9250784069299698e-002</internalNodes>
          <leafValues>
            2.2041434049606323e-001 -2.2120629251003265e-001</leafValues></_>
        <_>
          <internalNodes>
            0 -1 190 8.5491559002548456e-004</internalNodes>
          <leafValues>
            3.1063565611839294e-001 -1.1898279190063477e-001</leafValues></_>
        <_>
          <internalNodes>
            0 -1 230 2.1282576024532318e-002</internalNodes>
          <leafValues>
            -1.8415798246860504e-001 2.3982146382331848e-001</leafValues></_>
        <_>
          <internalNodes>
            0 -1 284 4.2810714803636074e-003</internalNodes>
          <leafValues>
            -6.7120534181594849e-001 5.7980179786682129e-002</leafValues></_>
        <_>
          <internalNodes>
            0 -1 9 7.8954383730888367e-002</internalNodes>
          <leafValues>
            -6.1900325119495392e-002 6.4032489061355591e-001</leafValues></_>
        <_>
          <internalNodes>
            0 -1 121 4.6356744132936001e-004</internalNodes>
          <leafValues>
            3.4623113274574280e-001 -1.0726372897624969e-001</leafValues></_>
        <_>
          <internalNodes>
            0 -1 235 5.4879799485206604e-002</internalNodes>
          <leafValues>
            -2.6295208930969238e-001 1.2849625945091248e-001</leafValues></_>
        <_>
          <internalNodes>
            0 -1 274 8.3952724933624268e-002</internalNodes>
          <leafValues>
            7.2833769023418427e-002 -4.3210038542747498e-001</leafValues></_>
        <_>
          <internalNodes>
            0 -1 299 2.9793009161949158e-002</internalNodes>
          <leafValues>
            5.4122049361467361e-002 -6.0729461908340454e-001</leafValues></_>
        <_>
          <internalNodes>
            0 -1 60 5.1941699348390102e-004</internalNodes>
          <leafValues>
            3.8835433125495911e-001 -8.9723326265811920e-002</leafValues></_>
        <_>
          <internalNodes>
            0 -1 316 1.5424928069114685e-001</internalNodes>
          <leafValues>
            6.5175749361515045e-002 -5.4482674598693848e-001</leafValues></_>
        <_>
          <internalNodes>
            0 -1 5 7.4270172044634819e-003</internalNodes>
          <leafValues>
            1.2839168310165405e-001 -2.2508379817008972e-001</leafValues></_>
        <_>
          <internalNodes>
            0 -1 118 5.4673194885253906e-002</internalNodes>
          <leafValues>
            -6.3008509576320648e-002 6.0600960254669189e-001</leafValues></_>
        <_>
          <internalNodes>
            0 -1 188 6.7463055253028870e-002</internalNodes>
          <leafValues>
            -9.2431679368019104e-002 3.3600524067878723e-001</leafValues></_>
        <_>
          <internalNodes>
            0 -1 108 2.1126717329025269e-002</internalNodes>
          <leafValues>
            -3.3719763159751892e-001 8.6505815386772156e-002</leafValues></_>
        <_>
          <internalNodes>
            0 -1 130 3.5833142697811127e-002</internalNodes>
          <leafValues>
            -9.9294595420360565e-002 2.8641149401664734e-001</leafValues></_>
        <_>
          <internalNodes>
            0 -1 243 3.1583480536937714e-002</internalNodes>
          <leafValues>
            -2.7058595418930054e-001 9.2636577785015106e-002</leafValues></_>
        <_>
          <internalNodes>
            0 -1 43 4.5961214345879853e-004</internalNodes>
          <leafValues>
            3.1460148096084595e-001 -8.2251451909542084e-002</leafValues></_>
        <_>
          <internalNodes>
            0 -1 11 2.0422064699232578e-003</internalNodes>
          <leafValues>
            -4.0954455733299255e-001 7.6845921576023102e-002</leafValues></_></weakClassifiers></_>
    <!-- stage 14 -->
    <_>
      <maxWeakCount>54</maxWeakCount>
      <stageThreshold>1.8829706311225891e-001</stageThreshold>
      <weakClassifiers>
        <_>
          <internalNodes>
            0 -1 49 3.3901167626027018e-005</internalNodes>
          <leafValues>
            -1. 9.4791358709335327e-001</leafValues></_>
        <_>
          <internalNodes>
            0 -1 39 7.3903228621929884e-004</internalNodes>
          <leafValues>
            8.9095181226730347e-001 4.5630371570587158e-001</leafValues></_>
        <_>
          <internalNodes>
            0 -1 53 1.0044635273516178e-003</internalNodes>
          <leafValues>
            6.3404482603073120e-001 -6.4985051751136780e-002</leafValues></_>
        <_>
          <internalNodes>
            0 -1 201 6.7211454734206200e-004</internalNodes>
          <leafValues>
            4.3296599388122559e-001 -2.3081299662590027e-001</leafValues></_>
        <_>
          <internalNodes>
            0 -1 140 6.2621769029647112e-004</internalNodes>
          <leafValues>
            4.0415042638778687e-001 -1.8231444060802460e-001</leafValues></_>
        <_>
          <internalNodes>
            0 -1 278 1.3637447729706764e-002</internalNodes>
          <leafValues>
            -4.1941875219345093e-001 1.4305350184440613e-001</leafValues></_>
        <_>
          <internalNodes>
            0 -1 5 7.3387147858738899e-004</internalNodes>
          <leafValues>
            2.4620173871517181e-001 -2.9333892464637756e-001</leafValues></_>
        <_>
          <internalNodes>
            0 -1 223 5.4773897863924503e-003</internalNodes>
          <leafValues>
            -6.9800043106079102e-001 8.7103448808193207e-002</leafValues></_>
        <_>
          <internalNodes>
            0 -1 264 3.4671515226364136e-002</internalNodes>
          <leafValues>
            -3.2191672921180725e-001 2.2091647982597351e-001</leafValues></_>
        <_>
          <internalNodes>
            0 -1 87 3.6471744533628225e-004</internalNodes>
          <leafValues>
            3.4969738125801086e-001 -1.4291068911552429e-001</leafValues></_>
        <_>
          <internalNodes>
            0 -1 97 8.5351943969726563e-002</internalNodes>
          <leafValues>
            -6.7534014582633972e-002 6.1150664091110229e-001</leafValues></_>
        <_>
          <internalNodes>
            0 -1 251 3.9220672100782394e-002</internalNodes>
          <leafValues>
            6.4869306981563568e-002 -7.6470226049423218e-001</leafValues></_>
        <_>
          <internalNodes>
            0 -1 11 2.3777928203344345e-002</internalNodes>
          <leafValues>
            -2.2035568952560425e-001 2.2035317122936249e-001</leafValues></_>
        <_>
          <internalNodes>
            0 -1 276 4.3609883636236191e-002</internalNodes>
          <leafValues>
            7.1798823773860931e-002 -6.0890680551528931e-001</leafValues></_>
        <_>
          <internalNodes>
            0 -1 162 1.9081433129031211e-004</internalNodes>
          <leafValues>
            4.3948796391487122e-001 -1.0538499802350998e-001</leafValues></_>
        <_>
          <internalNodes>
            0 -1 227 1.2695300579071045e-001</internalNodes>
          <leafValues>
            7.0761553943157196e-002 -6.1952126026153564e-001</leafValues></_>
        <_>
          <internalNodes>
            0 -1 23 1.7654791008681059e-003</internalNodes>
          <leafValues>
            2.6901572942733765e-001 -1.7464937269687653e-001</leafValues></_>
        <_>
          <internalNodes>
            0 -1 256 3.2083709811558947e-005</internalNodes>
          <leafValues>
            -8.6954361200332642e-001 4.6922471374273300e-002</leafValues></_>
        <_>
          <internalNodes>
            0 -1 304 1.4099474065005779e-002</internalNodes>
          <leafValues>
            -1.6679950058460236e-001 2.0941336452960968e-001</leafValues></_>
        <_>
          <internalNodes>
            0 -1 248 5.1938973367214203e-002</internalNodes>
          <leafValues>
            -2.7815982699394226e-001 1.3747005164623260e-001</leafValues></_>
        <_>
          <internalNodes>
            0 -1 164 5.9545218944549561e-002</internalNodes>
          <leafValues>
            -1.3471907377243042e-001 2.7587905526161194e-001</leafValues></_>
        <_>
          <internalNodes>
            0 -1 121 8.7457837071269751e-004</internalNodes>
          <leafValues>
            3.0933320522308350e-001 -1.4884114265441895e-001</leafValues></_>
        <_>
          <internalNodes>
            0 -1 145 1.7198442947119474e-003</internalNodes>
          <leafValues>
            -7.0232117176055908e-001 5.5750537663698196e-002</leafValues></_>
        <_>
          <internalNodes>
            0 -1 218 9.4458078965544701e-003</internalNodes>
          <leafValues>
            -2.0258116722106934e-001 1.6748277842998505e-001</leafValues></_>
        <_>
          <internalNodes>
            0 -1 125 1.6634064912796021e-001</internalNodes>
          <leafValues>
            4.7905728220939636e-002 -7.3790979385375977e-001</leafValues></_>
        <_>
          <internalNodes>
            0 -1 90 2.6287185028195381e-003</internalNodes>
          <leafValues>
            2.7111998200416565e-001 -1.3789205253124237e-001</leafValues></_>
        <_>
          <internalNodes>
            0 -1 4 3.4989111009053886e-004</internalNodes>
          <leafValues>
            2.0492871105670929e-001 -1.6374701261520386e-001</leafValues></_>
        <_>
          <internalNodes>
            0 -1 298 1.9672503694891930e-003</internalNodes>
          <leafValues>
            -7.9952585697174072e-001 4.4247627258300781e-002</leafValues></_>
        <_>
          <internalNodes>
            0 -1 122 7.1206605061888695e-003</internalNodes>
          <leafValues>
            1.8968504667282104e-001 -2.1153616905212402e-001</leafValues></_>
        <_>
          <internalNodes>
            0 -1 114 1.6056735068559647e-002</internalNodes>
          <leafValues>
            -1.9786301255226135e-001 1.7175738513469696e-001</leafValues></_>
        <_>
          <internalNodes>
            0 -1 312 3.6333493888378143e-002</internalNodes>
          <leafValues>
            -1.0274109244346619e-001 3.0618923902511597e-001</leafValues></_>
        <_>
          <internalNodes>
            0 -1 252 5.2607323974370956e-002</internalNodes>
          <leafValues>
            4.3240372091531754e-002 -7.7010113000869751e-001</leafValues></_>
        <_>
          <internalNodes>
            0 -1 230 2.4929804727435112e-002</internalNodes>
          <leafValues>
            -1.4032222330570221e-001 2.3079639673233032e-001</leafValues></_>
        <_>
          <internalNodes>
            0 -1 158 5.3346820641309023e-004</internalNodes>
          <leafValues>
            4.3226286768913269e-001 -8.7143495678901672e-002</leafValues></_>
        <_>
          <internalNodes>
            0 -1 290 1.2730678915977478e-001</internalNodes>
          <leafValues>
            4.3692301958799362e-002 -6.2321448326110840e-001</leafValues></_>
        <_>
          <internalNodes>
            0 -1 163 2.7614668942987919e-004</internalNodes>
          <leafValues>
            3.2647854089736938e-001 -1.0124797374010086e-001</leafValues></_>
        <_>
          <internalNodes>
            0 -1 281 3.6540026776492596e-003</internalNodes>
          <leafValues>
            -2.6553559303283691e-001 1.1064822971820831e-001</leafValues></_>
        <_>
          <internalNodes>
            0 -1 88 8.8685855735093355e-004</internalNodes>
          <leafValues>
            2.6802796125411987e-001 -1.2053455412387848e-001</leafValues></_>
        <_>
          <internalNodes>
            0 -1 15 1.7732656560838223e-003</internalNodes>
          <leafValues>
            -5.6585162878036499e-001 5.6665778160095215e-002</leafValues></_>
        <_>
          <internalNodes>
            0 -1 152 2.2266507148742676e-003</internalNodes>
          <leafValues>
            -7.6083558797836304e-001 3.4598708152770996e-002</leafValues></_>
        <_>
          <internalNodes>
            0 -1 168 7.6656637247651815e-004</internalNodes>
          <leafValues>
            3.4129974246025085e-001 -1.1153829097747803e-001</leafValues></_>
        <_>
          <internalNodes>
            0 -1 229 9.5854997634887695e-003</internalNodes>
          <leafValues>
            -3.5295599699020386e-001 9.3953564763069153e-002</leafValues></_>
        <_>
          <internalNodes>
            0 -1 27 2.3860628716647625e-003</internalNodes>
          <leafValues>
            3.6514684557914734e-001 -8.8459946215152740e-002</leafValues></_>
        <_>
          <internalNodes>
            0 -1 77 1.4499273896217346e-001</internalNodes>
          <leafValues>
            5.1535103470087051e-002 -5.2837455272674561e-001</leafValues></_>
        <_>
          <internalNodes>
            0 -1 210 7.9577253200113773e-004</internalNodes>
          <leafValues>
            3.9203980565071106e-001 -8.3853155374526978e-002</leafValues></_>
        <_>
          <internalNodes>
            0 -1 318 4.1039445932256058e-005</internalNodes>
          <leafValues>
            -5.2980542182922363e-001 6.8360976874828339e-002</leafValues></_>
        <_>
          <internalNodes>
            0 -1 71 4.2439103126525879e-002</internalNodes>
          <leafValues>
            -6.0307908803224564e-002 4.7367739677429199e-001</leafValues></_>
        <_>
          <internalNodes>
            0 -1 319 3.1102560460567474e-002</internalNodes>
          <leafValues>
            6.6033937036991119e-002 -4.1872042417526245e-001</leafValues></_>
        <_>
          <internalNodes>
            0 -1 3 7.6189963147044182e-004</internalNodes>
          <leafValues>
            2.9093679785728455e-001 -1.0281765460968018e-001</leafValues></_>
        <_>
          <internalNodes>
            0 -1 136 4.5009478926658630e-002</internalNodes>
          <leafValues>
            -7.4589788913726807e-002 4.5280098915100098e-001</leafValues></_>
        <_>
          <internalNodes>
            0 -1 257 3.6118052899837494e-002</internalNodes>
          <leafValues>
            -3.1873804330825806e-001 9.5027446746826172e-002</leafValues></_>
        <_>
          <internalNodes>
            0 -1 193 9.1539025306701660e-003</internalNodes>
          <leafValues>
            -5.2746355533599854e-001 4.9396298825740814e-002</leafValues></_>
        <_>
          <internalNodes>
            0 -1 212 1.2329180538654327e-001</internalNodes>
          <leafValues>
            -6.4227156341075897e-002 4.9814805388450623e-001</leafValues></_>
        <_>
          <internalNodes>
            0 -1 161 8.9322607964277267e-003</internalNodes>
          <leafValues>
            3.1590273976325989e-001 -8.4620103240013123e-002</leafValues></_></weakClassifiers></_>
    <!-- stage 15 -->
    <_>
      <maxWeakCount>48</maxWeakCount>
      <stageThreshold>2.3240298032760620e-001</stageThreshold>
      <weakClassifiers>
        <_>
          <internalNodes>
            0 -1 280 2.9145509004592896e-001</internalNodes>
          <leafValues>
            9.4817161560058594e-001 -9.2857140302658081e-001</leafValues></_>
        <_>
          <internalNodes>
            0 -1 59 3.7798553239554167e-004</internalNodes>
          <leafValues>
            9.2647498846054077e-001 5.0317782163619995e-001</leafValues></_>
        <_>
          <internalNodes>
            0 -1 57 2.2755592362955213e-004</internalNodes>
          <leafValues>
            6.7210334539413452e-001 -2.2444961592555046e-002</leafValues></_>
        <_>
          <internalNodes>
            0 -1 142 1.5678274212405086e-003</internalNodes>
          <leafValues>
            5.1832669973373413e-001 -1.1732850968837738e-001</leafValues></_>
        <_>
          <internalNodes>
            0 -1 271 1.7307382076978683e-002</internalNodes>
          <leafValues>
            -4.1187655925750732e-001 1.6585485637187958e-001</leafValues></_>
        <_>
          <internalNodes>
            0 -1 164 3.9302695542573929e-002</internalNodes>
          <leafValues>
            -2.8344118595123291e-001 2.8336116671562195e-001</leafValues></_>
        <_>
          <internalNodes>
            0 -1 278 2.2733973339200020e-002</internalNodes>
          <leafValues>
            -2.8369918465614319e-001 2.3212131857872009e-001</leafValues></_>
        <_>
          <internalNodes>
            0 -1 69 7.5360923074185848e-004</internalNodes>
          <leafValues>
            3.6769044399261475e-001 -2.1587991714477539e-001</leafValues></_>
        <_>
          <internalNodes>
            0 -1 5 4.3118066969327629e-004</internalNodes>
          <leafValues>
            2.4364046752452850e-001 -2.2191229462623596e-001</leafValues></_>
        <_>
          <internalNodes>
            0 -1 49 1.5766859054565430e-002</internalNodes>
          <leafValues>
            -6.8590027093887329e-001 8.8451847434043884e-002</leafValues></_>
        <_>
          <internalNodes>
            0 -1 215 2.4142051115632057e-003</internalNodes>
          <leafValues>
            2.7840957045555115e-001 -1.9947779178619385e-001</leafValues></_>
        <_>
          <internalNodes>
            0 -1 229 2.4611836299300194e-002</internalNodes>
          <leafValues>
            -2.1845625340938568e-001 2.3445177078247070e-001</leafValues></_>
        <_>
          <internalNodes>
            0 -1 141 9.8950620740652084e-003</internalNodes>
          <leafValues>
            2.1335799992084503e-001 -2.4196609854698181e-001</leafValues></_>
        <_>
          <internalNodes>
            0 -1 222 1.4224494225345552e-004</internalNodes>
          <leafValues>
            -6.5038037300109863e-001 7.9214572906494141e-002</leafValues></_>
        <_>
          <internalNodes>
            0 -1 121 6.5304175950586796e-004</internalNodes>
          <leafValues>
            3.4212961792945862e-001 -1.4412966370582581e-001</leafValues></_>
        <_>
          <internalNodes>
            0 -1 274 1.0504688322544098e-001</internalNodes>
          <leafValues>
            7.9331807792186737e-002 -6.6891258955001831e-001</leafValues></_>
        <_>
          <internalNodes>
            0 -1 184 6.9880677619948983e-004</internalNodes>
          <leafValues>
            3.0423325300216675e-001 -1.3555389642715454e-001</leafValues></_>
        <_>
          <internalNodes>
            0 -1 310 3.0750664882361889e-003</internalNodes>
          <leafValues>
            -6.6276592016220093e-001 6.5802037715911865e-002</leafValues></_>
        <_>
          <internalNodes>
            0 -1 3 4.0022487519308925e-004</internalNodes>
          <leafValues>
            3.4401780366897583e-001 -1.2552930414676666e-001</leafValues></_>
        <_>
          <internalNodes>
            0 -1 280 1.0698438435792923e-001</internalNodes>
          <leafValues>
            8.1910900771617889e-002 -5.1381963491439819e-001</leafValues></_>
        <_>
          <internalNodes>
            0 -1 86 3.1555927125737071e-004</internalNodes>
          <leafValues>
            3.0455091595649719e-001 -1.3692028820514679e-001</leafValues></_>
        <_>
          <internalNodes>
            0 -1 264 5.0087749958038330e-002</internalNodes>
          <leafValues>
            -1.7287346720695496e-001 2.3929521441459656e-001</leafValues></_>
        <_>
          <internalNodes>
            0 -1 254 1.1195449042133987e-004</internalNodes>
          <leafValues>
            -8.7912201881408691e-001 5.3524851799011230e-002</leafValues></_>
        <_>
          <internalNodes>
            0 -1 170 6.3081935513764620e-004</internalNodes>
          <leafValues>
            4.3073922395706177e-001 -1.1319951713085175e-001</leafValues></_>
        <_>
          <internalNodes>
            0 -1 273 9.7212735563516617e-003</internalNodes>
          <leafValues>
            -2.8637421131134033e-001 1.3342024385929108e-001</leafValues></_>
        <_>
          <internalNodes>
            0 -1 226 2.9322424903512001e-002</internalNodes>
          <leafValues>
            1.0261159390211105e-001 -4.7951078414916992e-001</leafValues></_>
        <_>
          <internalNodes>
            0 -1 218 6.9841807999182492e-005</internalNodes>
          <leafValues>
            -3.8412448763847351e-001 7.1769960224628448e-002</leafValues></_>
        <_>
          <internalNodes>
            0 -1 95 1.6112938523292542e-002</internalNodes>
          <leafValues>
            1.2205944210290909e-001 -2.8360894322395325e-001</leafValues></_>
        <_>
          <internalNodes>
            0 -1 23 1.2440900318324566e-003</internalNodes>
          <leafValues>
            2.3374074697494507e-001 -1.3026925921440125e-001</leafValues></_>
        <_>
          <internalNodes>
            0 -1 116 3.5785667598247528e-002</internalNodes>
          <leafValues>
            -1.2166816741228104e-001 3.0712890625000000e-001</leafValues></_>
        <_>
          <internalNodes>
            0 -1 303 1.1110715568065643e-002</internalNodes>
          <leafValues>
            -1.9694897532463074e-001 1.8596421182155609e-001</leafValues></_>
        <_>
          <internalNodes>
            0 -1 252 4.7095801681280136e-002</internalNodes>
          <leafValues>
            5.1628667861223221e-002 -7.2222495079040527e-001</leafValues></_>
        <_>
          <internalNodes>
            0 -1 122 1.3575811171904206e-003</internalNodes>
          <leafValues>
            2.6966401934623718e-001 -1.3887065649032593e-001</leafValues></_>
        <_>
          <internalNodes>
            0 -1 261 4.2099758982658386e-002</internalNodes>
          <leafValues>
            4.3455943465232849e-002 -7.1547842025756836e-001</leafValues></_>
        <_>
          <internalNodes>
            0 -1 4 3.5779343452304602e-003</internalNodes>
          <leafValues>
            1.3947911560535431e-001 -2.3284186422824860e-001</leafValues></_>
        <_>
          <internalNodes>
            0 -1 279 7.0875976234674454e-003</internalNodes>
          <leafValues>
            -4.7114858031272888e-001 6.1304539442062378e-002</leafValues></_>
        <_>
          <internalNodes>
            0 -1 180 5.4576352238655090e-002</internalNodes>
          <leafValues>
            -8.3557300269603729e-002 3.4795922040939331e-001</leafValues></_>
        <_>
          <internalNodes>
            0 -1 29 6.1256170272827148e-002</internalNodes>
          <leafValues>
            -9.6173614263534546e-002 3.0720382928848267e-001</leafValues></_>
        <_>
          <internalNodes>
            0 -1 225 7.2135761380195618e-002</internalNodes>
          <leafValues>
            3.1179830431938171e-002 -9.2284673452377319e-001</leafValues></_>
        <_>
          <internalNodes>
            0 -1 308 3.4551143646240234e-002</internalNodes>
          <leafValues>
            -1.1423174291849136e-001 2.8811421990394592e-001</leafValues></_>
        <_>
          <internalNodes>
            0 -1 288 5.2228264510631561e-002</internalNodes>
          <leafValues>
            -8.3782821893692017e-002 3.3964827656745911e-001</leafValues></_>
        <_>
          <internalNodes>
            0 -1 102 1.5746699646115303e-003</internalNodes>
          <leafValues>
            2.8808596730232239e-001 -1.0721091926097870e-001</leafValues></_>
        <_>
          <internalNodes>
            0 -1 262 1.2759757228195667e-003</internalNodes>
          <leafValues>
            -8.3795022964477539e-001 3.8960605859756470e-002</leafValues></_>
        <_>
          <internalNodes>
            0 -1 154 3.9691559970378876e-002</internalNodes>
          <leafValues>
            -8.0421216785907745e-002 3.9781823754310608e-001</leafValues></_>
        <_>
          <internalNodes>
            0 -1 192 3.5329855745658278e-004</internalNodes>
          <leafValues>
            3.1912127137184143e-001 -7.9533666372299194e-002</leafValues></_>
        <_>
          <internalNodes>
            0 -1 234 2.4320575175806880e-004</internalNodes>
          <leafValues>
            -8.5934668779373169e-001 3.3514957875013351e-002</leafValues></_>
        <_>
          <internalNodes>
            0 -1 142 5.3669061511754990e-002</internalNodes>
          <leafValues>
            5.1847700029611588e-002 -4.8674514889717102e-001</leafValues></_>
        <_>
          <internalNodes>
            0 -1 11 3.5389997065067291e-002</internalNodes>
          <leafValues>
            -1.2046045809984207e-001 2.4532420933246613e-001</leafValues></_></weakClassifiers></_>
    <!-- stage 16 -->
    <_>
      <maxWeakCount>56</maxWeakCount>
      <stageThreshold>2.5167462229728699e-001</stageThreshold>
      <weakClassifiers>
        <_>
          <internalNodes>
            0 -1 179 1.2631025910377502e-001</internalNodes>
          <leafValues>
            9.4795715808868408e-001 -5.8620691299438477e-001</leafValues></_>
        <_>
          <internalNodes>
            0 -1 59 2.2802944295108318e-004</internalNodes>
          <leafValues>
            9.2797726392745972e-001 5.0591397285461426e-001</leafValues></_>
        <_>
          <internalNodes>
            0 -1 148 4.3515529250726104e-004</internalNodes>
          <leafValues>
            6.9207686185836792e-001 5.1653515547513962e-003</leafValues></_>
        <_>
          <internalNodes>
            0 -1 4 2.1491779480129480e-003</internalNodes>
          <leafValues>
            2.6174113154411316e-001 -3.2386019825935364e-001</leafValues></_>
        <_>
          <internalNodes>
            0 -1 113 9.5924977213144302e-003</internalNodes>
          <leafValues>
            -4.1528105735778809e-001 1.6043855249881744e-001</leafValues></_>
        <_>
          <internalNodes>
            0 -1 67 3.0923850135877728e-004</internalNodes>
          <leafValues>
            4.5388707518577576e-001 -2.0284375548362732e-001</leafValues></_>
        <_>
          <internalNodes>
            0 -1 279 1.9579440355300903e-002</internalNodes>
          <leafValues>
            -3.0841034650802612e-001 1.7352531850337982e-001</leafValues></_>
        <_>
          <internalNodes>
            0 -1 200 1.6299831913784146e-003</internalNodes>
          <leafValues>
            2.4201074242591858e-001 -2.1617697179317474e-001</leafValues></_>
        <_>
          <internalNodes>
            0 -1 249 4.8447191715240479e-002</internalNodes>
          <leafValues>
            -2.0049621164798737e-001 2.1739847958087921e-001</leafValues></_>
        <_>
          <internalNodes>
            0 -1 235 2.0406857132911682e-002</internalNodes>
          <leafValues>
            -6.4478766918182373e-001 7.5097076594829559e-002</leafValues></_>
        <_>
          <internalNodes>
            0 -1 121 1.7101258272305131e-003</internalNodes>
          <leafValues>
            2.9439428448677063e-001 -1.9792307913303375e-001</leafValues></_>
        <_>
          <internalNodes>
            0 -1 10 3.6303978413343430e-002</internalNodes>
          <leafValues>
            -1.2455099076032639e-001 4.2787837982177734e-001</leafValues></_>
        <_>
          <internalNodes>
            0 -1 280 1.4864486455917358e-001</internalNodes>
          <leafValues>
            6.1665203422307968e-002 -7.2036772966384888e-001</leafValues></_>
        <_>
          <internalNodes>
            0 -1 140 1.1077071540057659e-003</internalNodes>
          <leafValues>
            2.7090623974800110e-001 -1.5640451014041901e-001</leafValues></_>
        <_>
          <internalNodes>
            0 -1 246 1.5544945374131203e-002</internalNodes>
          <leafValues>
            1.1671604961156845e-001 -3.7689170241355896e-001</leafValues></_>
        <_>
          <internalNodes>
            0 -1 279 3.1224708072841167e-003</internalNodes>
          <leafValues>
            -6.3587749004364014e-001 5.7100798934698105e-002</leafValues></_>
        <_>
          <internalNodes>
            0 -1 229 2.8960894793272018e-002</internalNodes>
          <leafValues>
            -1.7532047629356384e-001 2.4244125187397003e-001</leafValues></_>
        <_>
          <internalNodes>
            0 -1 42 1.1600687867030501e-003</internalNodes>
          <leafValues>
            2.9735076427459717e-001 -1.4481963217258453e-001</leafValues></_>
        <_>
          <internalNodes>
            0 -1 256 2.8760258574038744e-003</internalNodes>
          <leafValues>
            -5.2646428346633911e-001 6.7322619259357452e-002</leafValues></_>
        <_>
          <internalNodes>
            0 -1 26 5.5814057588577271e-002</internalNodes>
          <leafValues>
            -1.0808277130126953e-001 3.6927518248558044e-001</leafValues></_>
        <_>
          <internalNodes>
            0 -1 218 4.5797526836395264e-003</internalNodes>
          <leafValues>
            -2.8423440456390381e-001 1.4402924478054047e-001</leafValues></_>
        <_>
          <internalNodes>
            0 -1 122 3.1505646184086800e-003</internalNodes>
          <leafValues>
            2.2005298733711243e-001 -1.7024891078472137e-001</leafValues></_>
        <_>
          <internalNodes>
            0 -1 119 1.0418063402175903e-001</internalNodes>
          <leafValues>
            6.7246809601783752e-002 -5.8199280500411987e-001</leafValues></_>
        <_>
          <internalNodes>
            0 -1 209 9.4096371904015541e-003</internalNodes>
          <leafValues>
            1.3750733435153961e-001 -2.4205887317657471e-001</leafValues></_>
        <_>
          <internalNodes>
            0 -1 25 3.0375699861906469e-004</internalNodes>
          <leafValues>
            2.6044714450836182e-001 -1.2475527822971344e-001</leafValues></_>
        <_>
          <internalNodes>
            0 -1 247 3.8101963698863983e-002</internalNodes>
          <leafValues>
            -1.3129141926765442e-001 2.6471686363220215e-001</leafValues></_>
        <_>
          <internalNodes>
            0 -1 212 6.3541606068611145e-002</internalNodes>
          <leafValues>
            -1.1699242889881134e-001 2.6204121112823486e-001</leafValues></_>
        <_>
          <internalNodes>
            0 -1 84 5.7411946356296539e-002</internalNodes>
          <leafValues>
            -9.5405578613281250e-002 3.6209252476692200e-001</leafValues></_>
        <_>
          <internalNodes>
            0 -1 273 1.6255892813205719e-002</internalNodes>
          <leafValues>
            -2.0817434787750244e-001 1.6960975527763367e-001</leafValues></_>
        <_>
          <internalNodes>
            0 -1 298 2.1674238145351410e-002</internalNodes>
          <leafValues>
            -2.9386410117149353e-001 1.2186837941408157e-001</leafValues></_>
        <_>
          <internalNodes>
            0 -1 165 6.5287249162793159e-004</internalNodes>
          <leafValues>
            3.0379983782768250e-001 -1.2584191560745239e-001</leafValues></_>
        <_>
          <internalNodes>
            0 -1 193 1.3446097727864981e-003</internalNodes>
          <leafValues>
            -8.7694764137268066e-001 3.7936870008707047e-002</leafValues></_>
        <_>
          <internalNodes>
            0 -1 211 4.8508410691283643e-004</internalNodes>
          <leafValues>
            4.7257548570632935e-001 -7.6468273997306824e-002</leafValues></_>
        <_>
          <internalNodes>
            0 -1 269 4.8192553222179413e-003</internalNodes>
          <leafValues>
            -2.6308533549308777e-001 1.2912166118621826e-001</leafValues></_>
        <_>
          <internalNodes>
            0 -1 240 2.1321490406990051e-002</internalNodes>
          <leafValues>
            -2.8564777970314026e-001 1.1650538444519043e-001</leafValues></_>
        <_>
          <internalNodes>
            0 -1 87 1.2941828463226557e-003</internalNodes>
          <leafValues>
            2.5226685404777527e-001 -1.4253559708595276e-001</leafValues></_>
        <_>
          <internalNodes>
            0 -1 5 5.9737451374530792e-004</internalNodes>
          <leafValues>
            2.0566511154174805e-001 -1.7694671452045441e-001</leafValues></_>
        <_>
          <internalNodes>
            0 -1 136 3.8056194782257080e-002</internalNodes>
          <leafValues>
            -9.4839125871658325e-002 4.3626499176025391e-001</leafValues></_>
        <_>
          <internalNodes>
            0 -1 306 1.4434307813644409e-001</internalNodes>
          <leafValues>
            5.1919255405664444e-002 -6.2675863504409790e-001</leafValues></_>
        <_>
          <internalNodes>
            0 -1 184 1.4109930954873562e-002</internalNodes>
          <leafValues>
            1.3394634425640106e-001 -2.3169144988059998e-001</leafValues></_>
        <_>
          <internalNodes>
            0 -1 1 9.5671981573104858e-002</internalNodes>
          <leafValues>
            3.2281279563903809e-002 -8.7881147861480713e-001</leafValues></_>
        <_>
          <internalNodes>
            0 -1 169 2.5908419489860535e-001</internalNodes>
          <leafValues>
            2.8671771287918091e-002 -8.3413589000701904e-001</leafValues></_>
        <_>
          <internalNodes>
            0 -1 56 1.4091361081227660e-003</internalNodes>
          <leafValues>
            3.2813540101051331e-001 -9.7778409719467163e-002</leafValues></_>
        <_>
          <internalNodes>
            0 -1 37 1.0958446655422449e-003</internalNodes>
          <leafValues>
            -8.5949635505676270e-001 3.3574923872947693e-002</leafValues></_>
        <_>
          <internalNodes>
            0 -1 149 7.6152026653289795e-002</internalNodes>
          <leafValues>
            -8.5529513657093048e-002 3.3751642704010010e-001</leafValues></_>
        <_>
          <internalNodes>
            0 -1 74 4.0537178516387939e-002</internalNodes>
          <leafValues>
            -4.0992572903633118e-002 5.4709267616271973e-001</leafValues></_>
        <_>
          <internalNodes>
            0 -1 14 3.6509055644273758e-002</internalNodes>
          <leafValues>
            -9.1441906988620758e-002 2.2037376463413239e-001</leafValues></_>
        <_>
          <internalNodes>
            0 -1 248 6.6056802868843079e-002</internalNodes>
          <leafValues>
            -1.7144365608692169e-001 1.3548742234706879e-001</leafValues></_>
        <_>
          <internalNodes>
            0 -1 260 3.4774472005665302e-003</internalNodes>
          <leafValues>
            -2.3273231089115143e-001 1.0985118150711060e-001</leafValues></_>
        <_>
          <internalNodes>
            0 -1 84 9.7908809781074524e-002</internalNodes>
          <leafValues>
            -4.2835365980863571e-002 6.0393381118774414e-001</leafValues></_>
        <_>
          <internalNodes>
            0 -1 206 2.2688490571454167e-004</internalNodes>
          <leafValues>
            4.2890104651451111e-001 -4.9252364784479141e-002</leafValues></_>
        <_>
          <internalNodes>
            0 -1 193 1.5372169017791748e-001</internalNodes>
          <leafValues>
            5.7809587568044662e-002 -3.9575132727622986e-001</leafValues></_>
        <_>
          <internalNodes>
            0 -1 142 6.8062365055084229e-002</internalNodes>
          <leafValues>
            3.7740800529718399e-002 -6.0726320743560791e-001</leafValues></_>
        <_>
          <internalNodes>
            0 -1 168 4.2647440568543971e-004</internalNodes>
          <leafValues>
            2.8784441947937012e-001 -8.6128547787666321e-002</leafValues></_>
        <_>
          <internalNodes>
            0 -1 288 1.5508627984672785e-003</internalNodes>
          <leafValues>
            -6.3700628280639648e-001 4.5878715813159943e-002</leafValues></_>
        <_>
          <internalNodes>
            0 -1 161 1.1892883107066154e-002</internalNodes>
          <leafValues>
            2.5768166780471802e-001 -1.0180427879095078e-001</leafValues></_></weakClassifiers></_>
    <!-- stage 17 -->
    <_>
      <maxWeakCount>50</maxWeakCount>
      <stageThreshold>2.7159962058067322e-001</stageThreshold>
      <weakClassifiers>
        <_>
          <internalNodes>
            0 -1 214 1.0206505656242371e-001</internalNodes>
          <leafValues>
            9.4898450374603271e-001 -5.0877195596694946e-001</leafValues></_>
        <_>
          <internalNodes>
            0 -1 173 3.1923333881422877e-004</internalNodes>
          <leafValues>
            8.7023639678955078e-001 5.1204788684844971e-001</leafValues></_>
        <_>
          <internalNodes>
            0 -1 126 3.3554062247276306e-004</internalNodes>
          <leafValues>
            6.2231969833374023e-001 1.9218377768993378e-002</leafValues></_>
        <_>
          <internalNodes>
            0 -1 248 6.2471076846122742e-002</internalNodes>
          <leafValues>
            -2.9036363959312439e-001 2.1167330443859100e-001</leafValues></_>
        <_>
          <internalNodes>
            0 -1 306 1.8095164000988007e-001</internalNodes>
          <leafValues>
            6.8955235183238983e-002 -9.1318601369857788e-001</leafValues></_>
        <_>
          <internalNodes>
            0 -1 166 8.6202012607827783e-004</internalNodes>
          <leafValues>
            3.4714356064796448e-001 -2.3232658207416534e-001</leafValues></_>
        <_>
          <internalNodes>
            0 -1 278 2.6898317039012909e-002</internalNodes>
          <leafValues>
            -2.5774192810058594e-001 2.3488625884056091e-001</leafValues></_>
        <_>
          <internalNodes>
            0 -1 194 8.4026195108890533e-002</internalNodes>
          <leafValues>
            -1.3429667055606842e-001 4.4156321883201599e-001</leafValues></_>
        <_>
          <internalNodes>
            0 -1 37 1.0864687152206898e-002</internalNodes>
          <leafValues>
            -7.0277023315429688e-001 9.7350716590881348e-002</leafValues></_>
        <_>
          <internalNodes>
            0 -1 17 5.5655231699347496e-004</internalNodes>
          <leafValues>
            3.6294168233871460e-001 -1.7910060286521912e-001</leafValues></_>
        <_>
          <internalNodes>
            0 -1 272 1.3809068128466606e-002</internalNodes>
          <leafValues>
            -2.9922646284103394e-001 1.6713933646678925e-001</leafValues></_>
        <_>
          <internalNodes>
            0 -1 253 6.0112737119197845e-002</internalNodes>
          <leafValues>
            -2.4822318553924561e-001 2.0786835253238678e-001</leafValues></_>
        <_>
          <internalNodes>
            0 -1 232 1.2943813204765320e-001</internalNodes>
          <leafValues>
            6.6577710211277008e-002 -6.4109939336776733e-001</leafValues></_>
        <_>
          <internalNodes>
            0 -1 121 1.1331142159178853e-003</internalNodes>
          <leafValues>
            2.8718119859695435e-001 -1.7128467559814453e-001</leafValues></_>
        <_>
          <internalNodes>
            0 -1 5 8.7722530588507652e-004</internalNodes>
          <leafValues>
            1.9192360341548920e-001 -2.4957023561000824e-001</leafValues></_>
        <_>
          <internalNodes>
            0 -1 181 6.7464476160239428e-005</internalNodes>
          <leafValues>
            -7.0581334829330444e-001 7.1095407009124756e-002</leafValues></_>
        <_>
          <internalNodes>
            0 -1 300 2.3474268615245819e-002</internalNodes>
          <leafValues>
            8.3018273115158081e-002 -5.4645371437072754e-001</leafValues></_>
        <_>
          <internalNodes>
            0 -1 56 5.4556300165131688e-004</internalNodes>
          <leafValues>
            3.9428040385246277e-001 -1.3234202563762665e-001</leafValues></_>
        <_>
          <internalNodes>
            0 -1 234 2.2214077413082123e-002</internalNodes>
          <leafValues>
            -2.4412554502487183e-001 1.7983734607696533e-001</leafValues></_>
        <_>
          <internalNodes>
            0 -1 93 5.7433813810348511e-002</internalNodes>
          <leafValues>
            -1.5835440158843994e-001 3.0084833502769470e-001</leafValues></_>
        <_>
          <internalNodes>
            0 -1 84 1.1531093716621399e-001</internalNodes>
          <leafValues>
            -3.8486942648887634e-002 9.3410712480545044e-001</leafValues></_>
        <_>
          <internalNodes>
            0 -1 66 4.4503472745418549e-002</internalNodes>
          <leafValues>
            -8.4163576364517212e-002 4.0554144978523254e-001</leafValues></_>
        <_>
          <internalNodes>
            0 -1 112 1.2848187237977982e-002</internalNodes>
          <leafValues>
            -3.0754077434539795e-001 1.3743859529495239e-001</leafValues></_>
        <_>
          <internalNodes>
            0 -1 47 4.3474335689097643e-004</internalNodes>
          <leafValues>
            2.6206982135772705e-001 -1.4864714443683624e-001</leafValues></_>
        <_>
          <internalNodes>
            0 -1 277 1.5067456290125847e-002</internalNodes>
          <leafValues>
            -2.1690715849399567e-001 2.0022849738597870e-001</leafValues></_>
        <_>
          <internalNodes>
            0 -1 142 1.2448770925402641e-002</internalNodes>
          <leafValues>
            1.8004018068313599e-001 -1.9524854421615601e-001</leafValues></_>
        <_>
          <internalNodes>
            0 -1 218 4.1526211425662041e-003</internalNodes>
          <leafValues>
            -2.8624179959297180e-001 1.3410320878028870e-001</leafValues></_>
        <_>
          <internalNodes>
            0 -1 267 6.1451606452465057e-002</internalNodes>
          <leafValues>
            3.8911543786525726e-002 -9.3089675903320313e-001</leafValues></_>
        <_>
          <internalNodes>
            0 -1 12 4.7700706869363785e-002</internalNodes>
          <leafValues>
            -1.3605676591396332e-001 2.7786841988563538e-001</leafValues></_>
        <_>
          <internalNodes>
            0 -1 90 1.3789096847176552e-003</internalNodes>
          <leafValues>
            2.9295608401298523e-001 -1.0964101552963257e-001</leafValues></_>
        <_>
          <internalNodes>
            0 -1 3 5.9825665084645152e-004</internalNodes>
          <leafValues>
            2.8685694932937622e-001 -1.1856899410486221e-001</leafValues></_>
        <_>
          <internalNodes>
            0 -1 289 1.6984645277261734e-002</internalNodes>
          <leafValues>
            -1.9424822926521301e-001 2.5903499126434326e-001</leafValues></_>
        <_>
          <internalNodes>
            0 -1 193 4.2088923510164022e-004</internalNodes>
          <leafValues>
            -9.3686753511428833e-001 4.7731477767229080e-002</leafValues></_>
        <_>
          <internalNodes>
            0 -1 202 4.8494728980585933e-004</internalNodes>
          <leafValues>
            2.6989573240280151e-001 -1.1430788785219193e-001</leafValues></_>
        <_>
          <internalNodes>
            0 -1 83 3.7246443331241608e-002</internalNodes>
          <leafValues>
            -8.0318853259086609e-002 4.2884412407875061e-001</leafValues></_>
        <_>
          <internalNodes>
            0 -1 41 2.3819487541913986e-002</internalNodes>
          <leafValues>
            -1.3776373863220215e-001 2.5780284404754639e-001</leafValues></_>
        <_>
          <internalNodes>
            0 -1 317 1.7376313917338848e-003</internalNodes>
          <leafValues>
            -8.1196272373199463e-001 3.9982665330171585e-002</leafValues></_>
        <_>
          <internalNodes>
            0 -1 23 6.1984136700630188e-002</internalNodes>
          <leafValues>
            2.6560479775071144e-002 -7.9136288166046143e-001</leafValues></_>
        <_>
          <internalNodes>
            0 -1 12 2.7275671527604572e-005</internalNodes>
          <leafValues>
            -6.4486473798751831e-001 3.7070646882057190e-002</leafValues></_>
        <_>
          <internalNodes>
            0 -1 26 7.8356921672821045e-002</internalNodes>
          <leafValues>
            -6.5193563699722290e-002 4.9413973093032837e-001</leafValues></_>
        <_>
          <internalNodes>
            0 -1 120 1.8821381032466888e-002</internalNodes>
          <leafValues>
            1.8305112421512604e-001 -1.8167684972286224e-001</leafValues></_>
        <_>
          <internalNodes>
            0 -1 291 2.9631394892930984e-002</internalNodes>
          <leafValues>
            -2.0131541788578033e-001 1.7861011624336243e-001</leafValues></_>
        <_>
          <internalNodes>
            0 -1 19 1.8175041303038597e-002</internalNodes>
          <leafValues>
            -1.7695699632167816e-001 1.7461824417114258e-001</leafValues></_>
        <_>
          <internalNodes>
            0 -1 71 5.5429281201213598e-004</internalNodes>
          <leafValues>
            3.3549642562866211e-001 -9.7397379577159882e-002</leafValues></_>
        <_>
          <internalNodes>
            0 -1 131 1.0201521217823029e-001</internalNodes>
          <leafValues>
            -4.8330798745155334e-002 6.0519868135452271e-001</leafValues></_>
        <_>
          <internalNodes>
            0 -1 247 5.3588615264743567e-004</internalNodes>
          <leafValues>
            -8.4463036060333252e-001 3.8811594247817993e-002</leafValues></_>
        <_>
          <internalNodes>
            0 -1 4 4.0240591624751687e-004</internalNodes>
          <leafValues>
            1.8806959688663483e-001 -1.7310015857219696e-001</leafValues></_>
        <_>
          <internalNodes>
            0 -1 273 1.9971007481217384e-002</internalNodes>
          <leafValues>
            -1.9136954843997955e-001 1.8134960532188416e-001</leafValues></_>
        <_>
          <internalNodes>
            0 -1 142 1.0786461643874645e-003</internalNodes>
          <leafValues>
            3.2801535725593567e-001 -8.1278756260871887e-002</leafValues></_>
        <_>
          <internalNodes>
            0 -1 109 5.4381913505494595e-003</internalNodes>
          <leafValues>
            -2.0399324595928192e-001 1.4506046473979950e-001</leafValues></_></weakClassifiers></_>
    <!-- stage 18 -->
    <_>
      <maxWeakCount>52</maxWeakCount>
      <stageThreshold>2.8169989585876465e-001</stageThreshold>
      <weakClassifiers>
        <_>
          <internalNodes>
            0 -1 187 3.1777319312095642e-001</internalNodes>
          <leafValues>
            9.4950139522552490e-001 -5.3623187541961670e-001</leafValues></_>
        <_>
          <internalNodes>
            0 -1 147 8.7240192806348205e-004</internalNodes>
          <leafValues>
            8.8893878459930420e-001 5.2856945991516113e-001</leafValues></_>
        <_>
          <internalNodes>
            0 -1 58 3.2352574635297060e-004</internalNodes>
          <leafValues>
            4.8639756441116333e-001 -2.6356393471360207e-002</leafValues></_>
        <_>
          <internalNodes>
            0 -1 13 1.1542115360498428e-002</internalNodes>
          <leafValues>
            -2.7339395880699158e-001 2.4032722413539886e-001</leafValues></_>
        <_>
          <internalNodes>
            0 -1 5 9.0030056890100241e-004</internalNodes>
          <leafValues>
            2.3645113408565521e-001 -3.2835659384727478e-001</leafValues></_>
        <_>
          <internalNodes>
            0 -1 37 2.7027826756238937e-002</internalNodes>
          <leafValues>
            -5.4519593715667725e-001 7.7639453113079071e-002</leafValues></_>
        <_>
          <internalNodes>
            0 -1 184 3.2631307840347290e-004</internalNodes>
          <leafValues>
            3.3878254890441895e-001 -1.5604154765605927e-001</leafValues></_>
        <_>
          <internalNodes>
            0 -1 260 2.5030791759490967e-002</internalNodes>
          <leafValues>
            8.1664033234119415e-002 -5.4185289144515991e-001</leafValues></_>
        <_>
          <internalNodes>
            0 -1 69 2.8178954380564392e-004</internalNodes>
          <leafValues>
            3.0233761668205261e-001 -1.4627552032470703e-001</leafValues></_>
        <_>
          <internalNodes>
            0 -1 306 1.5013083815574646e-001</internalNodes>
          <leafValues>
            6.5267488360404968e-002 -7.7280855178833008e-001</leafValues></_>
        <_>
          <internalNodes>
            0 -1 314 1.4997560065239668e-003</internalNodes>
          <leafValues>
            -4.9412009119987488e-001 8.7964601814746857e-002</leafValues></_>
        <_>
          <internalNodes>
            0 -1 318 2.0158328115940094e-002</internalNodes>
          <leafValues>
            1.0337276756763458e-001 -4.5127317309379578e-001</leafValues></_>
        <_>
          <internalNodes>
            0 -1 278 4.3205328285694122e-002</internalNodes>
          <leafValues>
            -1.0844007879495621e-001 4.0691581368446350e-001</leafValues></_>
        <_>
          <internalNodes>
            0 -1 17 7.1897311136126518e-004</internalNodes>
          <leafValues>
            3.0050766468048096e-001 -1.5266762673854828e-001</leafValues></_>
        <_>
          <internalNodes>
            0 -1 114 3.2399343326687813e-003</internalNodes>
          <leafValues>
            -3.9790034294128418e-001 1.2510748207569122e-001</leafValues></_>
        <_>
          <internalNodes>
            0 -1 234 3.8150978070916608e-005</internalNodes>
          <leafValues>
            -9.2681318521499634e-001 3.7902720272541046e-002</leafValues></_>
        <_>
          <internalNodes>
            0 -1 265 1.6810547560453415e-002</internalNodes>
          <leafValues>
            -2.5838199257850647e-001 1.7706628143787384e-001</leafValues></_>
        <_>
          <internalNodes>
            0 -1 121 8.3620706573128700e-004</internalNodes>
          <leafValues>
            3.1080147624015808e-001 -1.5614077448844910e-001</leafValues></_>
        <_>
          <internalNodes>
            0 -1 245 4.9226492643356323e-002</internalNodes>
          <leafValues>
            -1.5691454708576202e-001 2.6210543513298035e-001</leafValues></_>
        <_>
          <internalNodes>
            0 -1 85 2.9140670085325837e-004</internalNodes>
          <leafValues>
            4.1330912709236145e-001 -1.1407279968261719e-001</leafValues></_>
        <_>
          <internalNodes>
            0 -1 11 3.0504999682307243e-002</internalNodes>
          <leafValues>
            -1.5621544420719147e-001 2.7026230096817017e-001</leafValues></_>
        <_>
          <internalNodes>
            0 -1 252 3.9677105844020844e-002</internalNodes>
          <leafValues>
            6.6226080060005188e-002 -6.5499252080917358e-001</leafValues></_>
        <_>
          <internalNodes>
            0 -1 84 8.7913021445274353e-002</internalNodes>
          <leafValues>
            -7.3398083448410034e-002 6.1955463886260986e-001</leafValues></_>
        <_>
          <internalNodes>
            0 -1 141 1.4362601563334465e-002</internalNodes>
          <leafValues>
            1.4837205410003662e-001 -2.7356925606727600e-001</leafValues></_>
        <_>
          <internalNodes>
            0 -1 219 4.7931619919836521e-003</internalNodes>
          <leafValues>
            -3.2004892826080322e-001 1.2781664729118347e-001</leafValues></_>
        <_>
          <internalNodes>
            0 -1 280 1.2182903289794922e-001</internalNodes>
          <leafValues>
            6.5585568547248840e-002 -5.4128211736679077e-001</leafValues></_>
        <_>
          <internalNodes>
            0 -1 90 6.0073263011872768e-004</internalNodes>
          <leafValues>
            3.6054211854934692e-001 -1.0665509104728699e-001</leafValues></_>
        <_>
          <internalNodes>
            0 -1 249 5.3753115236759186e-002</internalNodes>
          <leafValues>
            -1.6690319776535034e-001 2.2827096283435822e-001</leafValues></_>
        <_>
          <internalNodes>
            0 -1 94 1.8038917914964259e-004</internalNodes>
          <leafValues>
            5.5622816085815430e-001 -6.7147478461265564e-002</leafValues></_>
        <_>
          <internalNodes>
            0 -1 151 6.0012407629983500e-005</internalNodes>
          <leafValues>
            -5.1831275224685669e-001 7.9636283218860626e-002</leafValues></_>
        <_>
          <internalNodes>
            0 -1 3 1.1923073325306177e-003</internalNodes>
          <leafValues>
            2.7981436252593994e-001 -1.6465640068054199e-001</leafValues></_>
        <_>
          <internalNodes>
            0 -1 12 2.7275671527604572e-005</internalNodes>
          <leafValues>
            -6.4183199405670166e-001 5.3642846643924713e-002</leafValues></_>
        <_>
          <internalNodes>
            0 -1 142 7.8936881618574262e-004</internalNodes>
          <leafValues>
            3.5910764336585999e-001 -1.1103711277246475e-001</leafValues></_>
        <_>
          <internalNodes>
            0 -1 224 1.5017241239547729e-002</internalNodes>
          <leafValues>
            -2.4258340895175934e-001 1.6320025920867920e-001</leafValues></_>
        <_>
          <internalNodes>
            0 -1 238 5.1347566768527031e-003</internalNodes>
          <leafValues>
            -2.1042108535766602e-001 1.4568203687667847e-001</leafValues></_>
        <_>
          <internalNodes>
            0 -1 168 8.4702149033546448e-003</internalNodes>
          <leafValues>
            1.8575264513492584e-001 -1.9487437605857849e-001</leafValues></_>
        <_>
          <internalNodes>
            0 -1 28 4.1747178882360458e-002</internalNodes>
          <leafValues>
            -1.2016081809997559e-001 2.5895625352859497e-001</leafValues></_>
        <_>
          <internalNodes>
            0 -1 12 3.5869337618350983e-002</internalNodes>
          <leafValues>
            -1.4549857378005981e-001 2.2772589325904846e-001</leafValues></_>
        <_>
          <internalNodes>
            0 -1 135 2.0367102697491646e-003</internalNodes>
          <leafValues>
            3.2251152396202087e-001 -1.0194320976734161e-001</leafValues></_>
        <_>
          <internalNodes>
            0 -1 262 5.1434086635708809e-003</internalNodes>
          <leafValues>
            -5.9742063283920288e-001 5.6787498295307159e-002</leafValues></_>
        <_>
          <internalNodes>
            0 -1 155 2.0988594740629196e-002</internalNodes>
          <leafValues>
            -1.1164886504411697e-001 3.0543696880340576e-001</leafValues></_>
        <_>
          <internalNodes>
            0 -1 9 6.2733471393585205e-002</internalNodes>
          <leafValues>
            -6.5027415752410889e-002 4.4718691706657410e-001</leafValues></_>
        <_>
          <internalNodes>
            0 -1 54 4.6431399881839752e-002</internalNodes>
          <leafValues>
            -9.6716307103633881e-002 3.2360690832138062e-001</leafValues></_>
        <_>
          <internalNodes>
            0 -1 307 1.5896745026111603e-002</internalNodes>
          <leafValues>
            -3.0358418822288513e-001 8.9128121733665466e-002</leafValues></_>
        <_>
          <internalNodes>
            0 -1 122 2.1170699037611485e-003</internalNodes>
          <leafValues>
            2.2517405450344086e-001 -1.5445521473884583e-001</leafValues></_>
        <_>
          <internalNodes>
            0 -1 29 9.7740171477198601e-003</internalNodes>
          <leafValues>
            -3.2939931750297546e-001 8.7930023670196533e-002</leafValues></_>
        <_>
          <internalNodes>
            0 -1 50 3.4388684434816241e-004</internalNodes>
          <leafValues>
            3.7394255399703979e-001 -8.4338158369064331e-002</leafValues></_>
        <_>
          <internalNodes>
            0 -1 237 2.3300799075514078e-003</internalNodes>
          <leafValues>
            -2.8888934850692749e-001 1.2346144020557404e-001</leafValues></_>
        <_>
          <internalNodes>
            0 -1 197 7.4120203498750925e-004</internalNodes>
          <leafValues>
            3.0061817169189453e-001 -9.8000049591064453e-002</leafValues></_>
        <_>
          <internalNodes>
            0 -1 318 4.1039445932256058e-005</internalNodes>
          <leafValues>
            -4.8521390557289124e-001 6.6399879753589630e-002</leafValues></_>
        <_>
          <internalNodes>
            0 -1 70 2.0346668316051364e-004</internalNodes>
          <leafValues>
            2.7275484800338745e-001 -1.1886177957057953e-001</leafValues></_>
        <_>
          <internalNodes>
            0 -1 267 4.4566288590431213e-002</internalNodes>
          <leafValues>
            4.4229790568351746e-002 -7.1198749542236328e-001</leafValues></_></weakClassifiers></_>
    <!-- stage 19 -->
    <_>
      <maxWeakCount>44</maxWeakCount>
      <stageThreshold>3.0703121423721313e-001</stageThreshold>
      <weakClassifiers>
        <_>
          <internalNodes>
            0 -1 129 1.3544839620590210e-001</internalNodes>
          <leafValues>
            9.4827264547348022e-001 -8.1250000000000000e-001</leafValues></_>
        <_>
          <internalNodes>
            0 -1 173 1.9930672715418041e-004</internalNodes>
          <leafValues>
            9.0268701314926147e-001 4.8285451531410217e-001</leafValues></_>
        <_>
          <internalNodes>
            0 -1 75 2.4920748546719551e-004</internalNodes>
          <leafValues>
            6.7564374208450317e-001 -2.6302112266421318e-002</leafValues></_>
        <_>
          <internalNodes>
            0 -1 5 1.4399198116734624e-003</internalNodes>
          <leafValues>
            2.8456109762191772e-001 -3.1393072009086609e-001</leafValues></_>
        <_>
          <internalNodes>
            0 -1 240 1.4463379047811031e-003</internalNodes>
          <leafValues>
            -8.3814597129821777e-001 9.0949259698390961e-002</leafValues></_>
        <_>
          <internalNodes>
            0 -1 33 3.7034117849543691e-004</internalNodes>
          <leafValues>
            3.3983555436134338e-001 -1.9430023431777954e-001</leafValues></_>
        <_>
          <internalNodes>
            0 -1 115 1.3213127851486206e-002</internalNodes>
          <leafValues>
            -3.2483032345771790e-001 1.7972654104232788e-001</leafValues></_>
        <_>
          <internalNodes>
            0 -1 65 5.9231687337160110e-002</internalNodes>
          <leafValues>
            -1.9420218467712402e-001 3.3789640665054321e-001</leafValues></_>
        <_>
          <internalNodes>
            0 -1 299 1.9674280658364296e-002</internalNodes>
          <leafValues>
            1.0222928225994110e-001 -5.6661230325698853e-001</leafValues></_>
        <_>
          <internalNodes>
            0 -1 128 1.0398984886705875e-003</internalNodes>
          <leafValues>
            3.1351917982101440e-001 -1.6672316193580627e-001</leafValues></_>
        <_>
          <internalNodes>
            0 -1 125 1.2028933316469193e-001</internalNodes>
          <leafValues>
            8.3523765206336975e-002 -6.5109777450561523e-001</leafValues></_>
        <_>
          <internalNodes>
            0 -1 284 6.6481111571192741e-003</internalNodes>
          <leafValues>
            -6.8834972381591797e-001 7.3630802333354950e-002</leafValues></_>
        <_>
          <internalNodes>
            0 -1 4 2.5729667395353317e-003</internalNodes>
          <leafValues>
            1.7337149381637573e-001 -3.1011834740638733e-001</leafValues></_>
        <_>
          <internalNodes>
            0 -1 296 5.8710344135761261e-002</internalNodes>
          <leafValues>
            -1.0069788247346878e-001 5.6470280885696411e-001</leafValues></_>
        <_>
          <internalNodes>
            0 -1 81 1.1975220404565334e-003</internalNodes>
          <leafValues>
            3.6814591288566589e-001 -1.1953168362379074e-001</leafValues></_>
        <_>
          <internalNodes>
            0 -1 20 4.3963678763248026e-005</internalNodes>
          <leafValues>
            -9.1289573907852173e-001 5.3584571927785873e-002</leafValues></_>
        <_>
          <internalNodes>
            0 -1 309 5.3095571696758270e-002</internalNodes>
          <leafValues>
            -7.1607358753681183e-002 6.6088068485260010e-001</leafValues></_>
        <_>
          <internalNodes>
            0 -1 135 3.8970762398093939e-004</internalNodes>
          <leafValues>
            4.4060230255126953e-001 -8.5144273936748505e-002</leafValues></_>
        <_>
          <internalNodes>
            0 -1 310 3.3473013900220394e-003</internalNodes>
          <leafValues>
            -6.1658734083175659e-001 6.7592032253742218e-002</leafValues></_>
        <_>
          <internalNodes>
            0 -1 192 4.4274819083511829e-004</internalNodes>
          <leafValues>
            3.7361863255500793e-001 -1.2978845834732056e-001</leafValues></_>
        <_>
          <internalNodes>
            0 -1 311 1.4606435596942902e-001</internalNodes>
          <leafValues>
            8.0653287470340729e-002 -6.0067594051361084e-001</leafValues></_>
        <_>
          <internalNodes>
            0 -1 186 1.5292344614863396e-003</internalNodes>
          <leafValues>
            -8.4557658433914185e-001 4.4437855482101440e-002</leafValues></_>
        <_>
          <internalNodes>
            0 -1 73 2.0440845401026309e-004</internalNodes>
          <leafValues>
            3.7035644054412842e-001 -1.2951023876667023e-001</leafValues></_>
        <_>
          <internalNodes>
            0 -1 228 2.9614241793751717e-003</internalNodes>
          <leafValues>
            -5.1811212301254272e-001 1.0108854621648788e-001</leafValues></_>
        <_>
          <internalNodes>
            0 -1 98 2.5800846517086029e-002</internalNodes>
          <leafValues>
            -3.7112396955490112e-001 1.0523212701082230e-001</leafValues></_>
        <_>
          <internalNodes>
            0 -1 78 7.3525995016098022e-002</internalNodes>
          <leafValues>
            -1.1124227941036224e-001 4.1390743851661682e-001</leafValues></_>
        <_>
          <internalNodes>
            0 -1 122 8.3790638018399477e-004</internalNodes>
          <leafValues>
            3.0460789799690247e-001 -1.5561118721961975e-001</leafValues></_>
        <_>
          <internalNodes>
            0 -1 272 3.4434709697961807e-002</internalNodes>
          <leafValues>
            -1.0070157796144485e-001 3.5206151008605957e-001</leafValues></_>
        <_>
          <internalNodes>
            0 -1 119 5.1021605031564832e-005</internalNodes>
          <leafValues>
            -8.2496029138565063e-001 4.4364351779222488e-002</leafValues></_>
        <_>
          <internalNodes>
            0 -1 22 7.8010275959968567e-002</internalNodes>
          <leafValues>
            -6.0556679964065552e-002 6.2409245967864990e-001</leafValues></_>
        <_>
          <internalNodes>
            0 -1 264 7.2636678814888000e-002</internalNodes>
          <leafValues>
            -9.4863869249820709e-002 3.3735093474388123e-001</leafValues></_>
        <_>
          <internalNodes>
            0 -1 213 2.1362556435633451e-004</internalNodes>
          <leafValues>
            5.6758135557174683e-001 -5.9854801744222641e-002</leafValues></_>
        <_>
          <internalNodes>
            0 -1 238 4.1647776961326599e-003</internalNodes>
          <leafValues>
            -2.6666408777236938e-001 1.3845542073249817e-001</leafValues></_>
        <_>
          <internalNodes>
            0 -1 294 2.8226617723703384e-002</internalNodes>
          <leafValues>
            -3.8472807407379150e-001 1.0079292207956314e-001</leafValues></_>
        <_>
          <internalNodes>
            0 -1 297 7.4417188763618469e-002</internalNodes>
          <leafValues>
            -1.6410240530967712e-001 2.2664074599742889e-001</leafValues></_>
        <_>
          <internalNodes>
            0 -1 308 2.7609083801507950e-002</internalNodes>
          <leafValues>
            -1.4849366247653961e-001 2.6434186100959778e-001</leafValues></_>
        <_>
          <internalNodes>
            0 -1 62 2.4739423766732216e-002</internalNodes>
          <leafValues>
            -1.1243608593940735e-001 3.5380938649177551e-001</leafValues></_>
        <_>
          <internalNodes>
            0 -1 38 1.2542259355541319e-004</internalNodes>
          <leafValues>
            4.1837382316589355e-001 -7.5593404471874237e-002</leafValues></_>
        <_>
          <internalNodes>
            0 -1 213 4.1745621711015701e-002</internalNodes>
          <leafValues>
            -1.0279542952775955e-001 3.4663373231887817e-001</leafValues></_>
        <_>
          <internalNodes>
            0 -1 257 3.3932134509086609e-002</internalNodes>
          <leafValues>
            -3.7016874551773071e-001 1.0150347650051117e-001</leafValues></_>
        <_>
          <internalNodes>
            0 -1 317 4.1486467234790325e-003</internalNodes>
          <leafValues>
            -6.3536792993545532e-001 4.2525086551904678e-002</leafValues></_>
        <_>
          <internalNodes>
            0 -1 6 1.2329075252637267e-003</internalNodes>
          <leafValues>
            2.8485071659088135e-001 -1.3925014436244965e-001</leafValues></_>
        <_>
          <internalNodes>
            0 -1 137 3.6805681884288788e-002</internalNodes>
          <leafValues>
            -1.1032556742429733e-001 3.1112983822822571e-001</leafValues></_>
        <_>
          <internalNodes>
            0 -1 123 7.1456981822848320e-003</internalNodes>
          <leafValues>
            -2.4268837273120880e-001 1.2695857882499695e-001</leafValues></_></weakClassifiers></_>
    <!-- stage 20 -->
    <_>
      <maxWeakCount>54</maxWeakCount>
      <stageThreshold>1.9669969379901886e-001</stageThreshold>
      <weakClassifiers>
        <_>
          <internalNodes>
            0 -1 252 8.6290210485458374e-002</internalNodes>
          <leafValues>
            9.4837921857833862e-001 -9.3750000000000000e-001</leafValues></_>
        <_>
          <internalNodes>
            0 -1 167 4.5974552631378174e-004</internalNodes>
          <leafValues>
            8.7786424160003662e-001 4.7919580340385437e-001</leafValues></_>
        <_>
          <internalNodes>
            0 -1 147 3.9906040183268487e-004</internalNodes>
          <leafValues>
            6.9956368207931519e-001 -2.5889283046126366e-002</leafValues></_>
        <_>
          <internalNodes>
            0 -1 25 6.9279596209526062e-004</internalNodes>
          <leafValues>
            4.2380094528198242e-001 -2.3830763995647430e-001</leafValues></_>
        <_>
          <internalNodes>
            0 -1 114 2.5491543114185333e-002</internalNodes>
          <leafValues>
            -2.7994158864021301e-001 3.2582187652587891e-001</leafValues></_>
        <_>
          <internalNodes>
            0 -1 61 7.9884740989655256e-004</internalNodes>
          <leafValues>
            4.4806674122810364e-001 -1.6887298226356506e-001</leafValues></_>
        <_>
          <internalNodes>
            0 -1 202 1.9253517966717482e-003</internalNodes>
          <leafValues>
            3.4095320105552673e-001 -2.2336079180240631e-001</leafValues></_>
        <_>
          <internalNodes>
            0 -1 29 8.6744710803031921e-002</internalNodes>
          <leafValues>
            -1.0747450590133667e-001 6.3704001903533936e-001</leafValues></_>
        <_>
          <internalNodes>
            0 -1 144 3.8054578006267548e-002</internalNodes>
          <leafValues>
            -1.7737610638141632e-001 3.0492374300956726e-001</leafValues></_>
        <_>
          <internalNodes>
            0 -1 210 8.1101874820888042e-004</internalNodes>
          <leafValues>
            4.2401394248008728e-001 -1.0216928273439407e-001</leafValues></_>
        <_>
          <internalNodes>
            0 -1 216 1.6730895638465881e-001</internalNodes>
          <leafValues>
            8.5275545716285706e-002 -5.8330875635147095e-001</leafValues></_>
        <_>
          <internalNodes>
            0 -1 90 1.6965258866548538e-002</internalNodes>
          <leafValues>
            1.2071409076452255e-001 -3.9066803455352783e-001</leafValues></_>
        <_>
          <internalNodes>
            0 -1 223 9.8314357455819845e-004</internalNodes>
          <leafValues>
            -7.2858864068984985e-001 5.3230721503496170e-002</leafValues></_>
        <_>
          <internalNodes>
            0 -1 4 1.0720296995714307e-003</internalNodes>
          <leafValues>
            2.1720899641513824e-001 -2.5867220759391785e-001</leafValues></_>
        <_>
          <internalNodes>
            0 -1 139 7.8522978583350778e-004</internalNodes>
          <leafValues>
            3.5787335038185120e-001 -1.1899286508560181e-001</leafValues></_>
        <_>
          <internalNodes>
            0 -1 284 3.8278579711914063e-002</internalNodes>
          <leafValues>
            -2.2994855046272278e-001 2.1713346242904663e-001</leafValues></_>
        <_>
          <internalNodes>
            0 -1 72 2.0279670134186745e-003</internalNodes>
          <leafValues>
            -8.9838981628417969e-001 4.3909110128879547e-002</leafValues></_>
        <_>
          <internalNodes>
            0 -1 270 5.5868860334157944e-002</internalNodes>
          <leafValues>
            -1.0823634266853333e-001 4.5367950201034546e-001</leafValues></_>
        <_>
          <internalNodes>
            0 -1 273 9.1218631714582443e-003</internalNodes>
          <leafValues>
            -3.2517415285110474e-001 1.4639738202095032e-001</leafValues></_>
        <_>
          <internalNodes>
            0 -1 212 1.1339856684207916e-001</internalNodes>
          <leafValues>
            -8.7415881454944611e-002 5.8211022615432739e-001</leafValues></_>
        <_>
          <internalNodes>
            0 -1 35 4.0201548836193979e-004</internalNodes>
          <leafValues>
            4.4508215785026550e-001 -9.9666573107242584e-002</leafValues></_>
        <_>
          <internalNodes>
            0 -1 310 5.9809936210513115e-003</internalNodes>
          <leafValues>
            -4.9882495403289795e-001 7.7489815652370453e-002</leafValues></_>
        <_>
          <internalNodes>
            0 -1 27 7.5201195431873202e-004</internalNodes>
          <leafValues>
            4.5939815044403076e-001 -1.0074602067470551e-001</leafValues></_>
        <_>
          <internalNodes>
            0 -1 172 2.8090529143810272e-002</internalNodes>
          <leafValues>
            -1.1916150152683258e-001 4.1644585132598877e-001</leafValues></_>
        <_>
          <internalNodes>
            0 -1 119 1.3897165656089783e-001</internalNodes>
          <leafValues>
            6.3849017024040222e-002 -7.8457564115524292e-001</leafValues></_>
        <_>
          <internalNodes>
            0 -1 190 5.0830055261030793e-004</internalNodes>
          <leafValues>
            3.3409917354583740e-001 -1.2043346464633942e-001</leafValues></_>
        <_>
          <internalNodes>
            0 -1 221 2.6536416262388229e-003</internalNodes>
          <leafValues>
            -5.5561101436614990e-001 7.5067482888698578e-002</leafValues></_>
        <_>
          <internalNodes>
            0 -1 209 3.0978743452578783e-003</internalNodes>
          <leafValues>
            2.3613108694553375e-001 -1.4958707988262177e-001</leafValues></_>
        <_>
          <internalNodes>
            0 -1 23 2.1524190902709961e-002</internalNodes>
          <leafValues>
            9.9095560610294342e-002 -3.3246773481369019e-001</leafValues></_>
        <_>
          <internalNodes>
            0 -1 234 3.8813885301351547e-002</internalNodes>
          <leafValues>
            -1.5332573652267456e-001 2.4435022473335266e-001</leafValues></_>
        <_>
          <internalNodes>
            0 -1 11 3.1793460249900818e-002</internalNodes>
          <leafValues>
            -1.4041189849376678e-001 2.4868278205394745e-001</leafValues></_>
        <_>
          <internalNodes>
            0 -1 131 9.8269417881965637e-002</internalNodes>
          <leafValues>
            -4.5634675770998001e-002 6.6713535785675049e-001</leafValues></_>
        <_>
          <internalNodes>
            0 -1 183 2.1274922415614128e-002</internalNodes>
          <leafValues>
            9.0902760624885559e-002 -3.6497357487678528e-001</leafValues></_>
        <_>
          <internalNodes>
            0 -1 9 4.9042750149965286e-002</internalNodes>
          <leafValues>
            -8.8592521846294403e-002 3.9846402406692505e-001</leafValues></_>
        <_>
          <internalNodes>
            0 -1 122 1.8280936637893319e-004</internalNodes>
          <leafValues>
            3.4347254037857056e-001 -1.3168011605739594e-001</leafValues></_>
        <_>
          <internalNodes>
            0 -1 308 2.6269948109984398e-002</internalNodes>
          <leafValues>
            -1.4332744479179382e-001 2.4397817254066467e-001</leafValues></_>
        <_>
          <internalNodes>
            0 -1 136 2.8199639171361923e-002</internalNodes>
          <leafValues>
            -1.0681801289319992e-001 2.9978680610656738e-001</leafValues></_>
        <_>
          <internalNodes>
            0 -1 169 1.4964357251301408e-003</internalNodes>
          <leafValues>
            -8.7837117910385132e-001 4.4374205172061920e-002</leafValues></_>
        <_>
          <internalNodes>
            0 -1 176 4.8012528568506241e-002</internalNodes>
          <leafValues>
            -5.8551076799631119e-002 6.1572837829589844e-001</leafValues></_>
        <_>
          <internalNodes>
            0 -1 91 1.3046381063759327e-003</internalNodes>
          <leafValues>
            2.8031936287879944e-001 -1.0315121710300446e-001</leafValues></_>
        <_>
          <internalNodes>
            0 -1 313 4.1585965082049370e-003</internalNodes>
          <leafValues>
            -3.5165652632713318e-001 1.0806016623973846e-001</leafValues></_>
        <_>
          <internalNodes>
            0 -1 185 9.4081178307533264e-002</internalNodes>
          <leafValues>
            -4.0413904935121536e-002 7.4524551630020142e-001</leafValues></_>
        <_>
          <internalNodes>
            0 -1 12 3.6562234163284302e-002</internalNodes>
          <leafValues>
            -1.4415206015110016e-001 2.0794956386089325e-001</leafValues></_>
        <_>
          <internalNodes>
            0 -1 294 3.1869586557149887e-002</internalNodes>
          <leafValues>
            -3.0574426054954529e-001 9.8253175616264343e-002</leafValues></_>
        <_>
          <internalNodes>
            0 -1 153 1.4876154251396656e-002</internalNodes>
          <leafValues>
            -1.5250405669212341e-001 1.8323346972465515e-001</leafValues></_>
        <_>
          <internalNodes>
            0 -1 70 2.2668929887004197e-004</internalNodes>
          <leafValues>
            2.8169199824333191e-001 -1.1400419473648071e-001</leafValues></_>
        <_>
          <internalNodes>
            0 -1 268 5.2371535450220108e-002</internalNodes>
          <leafValues>
            4.5594584196805954e-002 -6.6700845956802368e-001</leafValues></_>
        <_>
          <internalNodes>
            0 -1 121 7.0151011459529400e-004</internalNodes>
          <leafValues>
            2.7517801523208618e-001 -1.2506857514381409e-001</leafValues></_>
        <_>
          <internalNodes>
            0 -1 113 2.8708940371870995e-003</internalNodes>
          <leafValues>
            -4.0935626626014709e-001 8.4776178002357483e-002</leafValues></_>
        <_>
          <internalNodes>
            0 -1 5 3.8730860687792301e-003</internalNodes>
          <leafValues>
            1.5421456098556519e-001 -2.3230537772178650e-001</leafValues></_>
        <_>
          <internalNodes>
            0 -1 36 8.5086688399314880e-002</internalNodes>
          <leafValues>
            -5.0507273524999619e-002 6.6782391071319580e-001</leafValues></_>
        <_>
          <internalNodes>
            0 -1 264 1.8812501803040504e-002</internalNodes>
          <leafValues>
            -3.1778684258460999e-001 9.1479040682315826e-002</leafValues></_>
        <_>
          <internalNodes>
            0 -1 125 1.4614585041999817e-001</internalNodes>
          <leafValues>
            4.0593173354864120e-002 -6.6900813579559326e-001</leafValues></_>
        <_>
          <internalNodes>
            0 -1 285 2.9819533228874207e-002</internalNodes>
          <leafValues>
            5.6269135326147079e-002 -4.5345792174339294e-001</leafValues></_></weakClassifiers></_>
    <!-- stage 21 -->
    <_>
      <maxWeakCount>32</maxWeakCount>
      <stageThreshold>1.7555667459964752e-001</stageThreshold>
      <weakClassifiers>
        <_>
          <internalNodes>
            0 -1 7 1.5056437253952026e-001</internalNodes>
          <leafValues>
            9.5068389177322388e-001 -7.6923079788684845e-002</leafValues></_>
        <_>
          <internalNodes>
            0 -1 297 4.7475323081016541e-002</internalNodes>
          <leafValues>
            1.8993048369884491e-001 8.0169248580932617e-001</leafValues></_>
        <_>
          <internalNodes>
            0 -1 74 1.7582677537575364e-004</internalNodes>
          <leafValues>
            6.8173599243164063e-001 -1.3251793384552002e-001</leafValues></_>
        <_>
          <internalNodes>
            0 -1 6 1.8165954388678074e-003</internalNodes>
          <leafValues>
            4.2543891072273254e-001 -2.3671981692314148e-001</leafValues></_>
        <_>
          <internalNodes>
            0 -1 143 5.7946037501096725e-002</internalNodes>
          <leafValues>
            -1.5371328592300415e-001 5.7376265525817871e-001</leafValues></_>
        <_>
          <internalNodes>
            0 -1 65 3.6725193262100220e-002</internalNodes>
          <leafValues>
            -3.5343182086944580e-001 2.3633693158626556e-001</leafValues></_>
        <_>
          <internalNodes>
            0 -1 53 5.7425460545346141e-004</internalNodes>
          <leafValues>
            4.0708768367767334e-001 -2.2598138451576233e-001</leafValues></_>
        <_>
          <internalNodes>
            0 -1 114 1.1263004504144192e-002</internalNodes>
          <leafValues>
            -5.1748609542846680e-001 2.2849544882774353e-001</leafValues></_>
        <_>
          <internalNodes>
            0 -1 100 2.0934771746397018e-003</internalNodes>
          <leafValues>
            3.0928769707679749e-001 -2.3292270302772522e-001</leafValues></_>
        <_>
          <internalNodes>
            0 -1 16 2.8616867959499359e-002</internalNodes>
          <leafValues>
            -3.1503260135650635e-001 2.1998618543148041e-001</leafValues></_>
        <_>
          <internalNodes>
            0 -1 253 5.1236078143119812e-002</internalNodes>
          <leafValues>
            -3.9993906021118164e-001 1.7310656607151031e-001</leafValues></_>
        <_>
          <internalNodes>
            0 -1 312 1.9504774361848831e-002</internalNodes>
          <leafValues>
            -3.2684352993965149e-001 2.5241950154304504e-001</leafValues></_>
        <_>
          <internalNodes>
            0 -1 21 2.0840968936681747e-002</internalNodes>
          <leafValues>
            3.1158354878425598e-001 -2.2527162730693817e-001</leafValues></_>
        <_>
          <internalNodes>
            0 -1 268 6.6654592752456665e-002</internalNodes>
          <leafValues>
            7.7017471194267273e-002 -9.6151471138000488e-001</leafValues></_>
        <_>
          <internalNodes>
            0 -1 269 7.4845729395747185e-003</internalNodes>
          <leafValues>
            -3.2519152760505676e-001 1.6518065333366394e-001</leafValues></_>
        <_>
          <internalNodes>
            0 -1 202 2.8979824855923653e-004</internalNodes>
          <leafValues>
            4.1248592734336853e-001 -1.4680747687816620e-001</leafValues></_>
        <_>
          <internalNodes>
            0 -1 91 1.7706062644720078e-002</internalNodes>
          <leafValues>
            1.0825087130069733e-001 -5.2255129814147949e-001</leafValues></_>
        <_>
          <internalNodes>
            0 -1 193 1.6889280080795288e-001</internalNodes>
          <leafValues>
            7.1787506341934204e-002 -6.8283230066299438e-001</leafValues></_>
        <_>
          <internalNodes>
            0 -1 14 2.2433418780565262e-002</internalNodes>
          <leafValues>
            -2.6027151942253113e-001 2.0009249448776245e-001</leafValues></_>
        <_>
          <internalNodes>
            0 -1 150 5.2121782209724188e-004</internalNodes>
          <leafValues>
            3.5319280624389648e-001 -1.3276411592960358e-001</leafValues></_>
        <_>
          <internalNodes>
            0 -1 178 4.4602276757359505e-003</internalNodes>
          <leafValues>
            -8.7183558940887451e-001 6.7545615136623383e-002</leafValues></_>
        <_>
          <internalNodes>
            0 -1 180 7.9951219260692596e-002</internalNodes>
          <leafValues>
            -9.7258493304252625e-002 6.0245794057846069e-001</leafValues></_>
        <_>
          <internalNodes>
            0 -1 7 7.0664443075656891e-002</internalNodes>
          <leafValues>
            1.0968685895204544e-001 -5.3285145759582520e-001</leafValues></_>
        <_>
          <internalNodes>
            0 -1 136 4.2226627469062805e-002</internalNodes>
          <leafValues>
            -1.0751640051603317e-001 4.6360859274864197e-001</leafValues></_>
        <_>
          <internalNodes>
            0 -1 4 9.2600932111963630e-004</internalNodes>
          <leafValues>
            2.6321992278099060e-001 -2.7352190017700195e-001</leafValues></_>
        <_>
          <internalNodes>
            0 -1 286 2.2396339103579521e-002</internalNodes>
          <leafValues>
            7.9886451363563538e-002 -5.9861689805984497e-001</leafValues></_>
        <_>
          <internalNodes>
            0 -1 182 3.6328546702861786e-002</internalNodes>
          <leafValues>
            -1.2632934749126434e-001 3.8935407996177673e-001</leafValues></_>
        <_>
          <internalNodes>
            0 -1 92 3.1111907446756959e-004</internalNodes>
          <leafValues>
            4.7510206699371338e-001 -9.8196610808372498e-002</leafValues></_>
        <_>
          <internalNodes>
            0 -1 125 1.0845569521188736e-001</internalNodes>
          <leafValues>
            7.4203699827194214e-002 -6.7183786630630493e-001</leafValues></_>
        <_>
          <internalNodes>
            0 -1 196 2.1614017896354198e-003</internalNodes>
          <leafValues>
            2.6677811145782471e-001 -1.9395750761032104e-001</leafValues></_>
        <_>
          <internalNodes>
            0 -1 284 5.7955412194132805e-004</internalNodes>
          <leafValues>
            -9.0979766845703125e-001 5.8014567941427231e-002</leafValues></_>
        <_>
          <internalNodes>
            0 -1 139 5.3243245929479599e-004</internalNodes>
          <leafValues>
            3.4531614184379578e-001 -1.4735938608646393e-001</leafValues></_></weakClassifiers></_>
    <!-- stage 22 -->
    <_>
      <maxWeakCount>31</maxWeakCount>
      <stageThreshold>3.4661018848419189e-001</stageThreshold>
      <weakClassifiers>
        <_>
          <internalNodes>
            0 -1 3 8.2979530096054077e-002</internalNodes>
          <leafValues>
            9.5071548223495483e-001 -2.9411765933036804e-001</leafValues></_>
        <_>
          <internalNodes>
            0 -1 18 6.7165232030674815e-004</internalNodes>
          <leafValues>
            8.6161673069000244e-001 4.5353233814239502e-001</leafValues></_>
        <_>
          <internalNodes>
            0 -1 59 9.0941810049116611e-004</internalNodes>
          <leafValues>
            6.1974900960922241e-001 -4.8804160207509995e-002</leafValues></_>
        <_>
          <internalNodes>
            0 -1 133 1.3360481709241867e-002</internalNodes>
          <leafValues>
            -4.1405034065246582e-001 2.0986187458038330e-001</leafValues></_>
        <_>
          <internalNodes>
            0 -1 46 3.7392927333712578e-004</internalNodes>
          <leafValues>
            4.6295362710952759e-001 -1.7563341557979584e-001</leafValues></_>
        <_>
          <internalNodes>
            0 -1 279 1.6619827598333359e-002</internalNodes>
          <leafValues>
            -5.7063621282577515e-001 1.2258239835500717e-001</leafValues></_>
        <_>
          <internalNodes>
            0 -1 204 6.7350313067436218e-002</internalNodes>
          <leafValues>
            -2.4306976795196533e-001 3.2257768511772156e-001</leafValues></_>
        <_>
          <internalNodes>
            0 -1 239 4.2073529213666916e-002</internalNodes>
          <leafValues>
            -4.8884913325309753e-001 1.6112487018108368e-001</leafValues></_>
        <_>
          <internalNodes>
            0 -1 115 1.8591213971376419e-002</internalNodes>
          <leafValues>
            -2.8606316447257996e-001 2.1361896395683289e-001</leafValues></_>
        <_>
          <internalNodes>
            0 -1 3 3.3763460814952850e-003</internalNodes>
          <leafValues>
            3.3423545956611633e-001 -2.8548091650009155e-001</leafValues></_>
        <_>
          <internalNodes>
            0 -1 312 7.6996888965368271e-003</internalNodes>
          <leafValues>
            -5.0954258441925049e-001 1.3498422503471375e-001</leafValues></_>
        <_>
          <internalNodes>
            0 -1 296 4.1956678032875061e-002</internalNodes>
          <leafValues>
            -2.3747964203357697e-001 3.4780049324035645e-001</leafValues></_>
        <_>
          <internalNodes>
            0 -1 287 2.1644264459609985e-002</internalNodes>
          <leafValues>
            1.0082937031984329e-001 -6.3035935163497925e-001</leafValues></_>
        <_>
          <internalNodes>
            0 -1 189 3.8158390671014786e-002</internalNodes>
          <leafValues>
            -1.5390445291996002e-001 4.6021088957786560e-001</leafValues></_>
        <_>
          <internalNodes>
            0 -1 156 7.0255401078611612e-004</internalNodes>
          <leafValues>
            4.0462541580200195e-001 -1.5346972644329071e-001</leafValues></_>
        <_>
          <internalNodes>
            0 -1 295 5.1451545208692551e-002</internalNodes>
          <leafValues>
            7.2982311248779297e-002 -9.3657940626144409e-001</leafValues></_>
        <_>
          <internalNodes>
            0 -1 232 1.0467507690191269e-001</internalNodes>
          <leafValues>
            6.2854222953319550e-002 -6.4132422208786011e-001</leafValues></_>
        <_>
          <internalNodes>
            0 -1 81 3.8276182021945715e-004</internalNodes>
          <leafValues>
            4.6139347553253174e-001 -1.3272675871849060e-001</leafValues></_>
        <_>
          <internalNodes>
            0 -1 140 1.2644264847040176e-002</internalNodes>
          <leafValues>
            1.6807748377323151e-001 -3.0874440073966980e-001</leafValues></_>
        <_>
          <internalNodes>
            0 -1 220 4.3265130370855331e-003</internalNodes>
          <leafValues>
            -3.2570165395736694e-001 1.8312308192253113e-001</leafValues></_>
        <_>
          <internalNodes>
            0 -1 5 2.4357534130103886e-004</internalNodes>
          <leafValues>
            2.6983496546745300e-001 -2.1111635863780975e-001</leafValues></_>
        <_>
          <internalNodes>
            0 -1 193 2.6466935873031616e-002</internalNodes>
          <leafValues>
            -5.2930599451065063e-001 1.3608787953853607e-001</leafValues></_>
        <_>
          <internalNodes>
            0 -1 242 3.2959043892333284e-005</internalNodes>
          <leafValues>
            -7.2588586807250977e-001 5.2563823759555817e-002</leafValues></_>
        <_>
          <internalNodes>
            0 -1 174 4.6823587035760283e-004</internalNodes>
          <leafValues>
            3.8002583384513855e-001 -1.3661955296993256e-001</leafValues></_>
        <_>
          <internalNodes>
            0 -1 203 1.6616070270538330e-001</internalNodes>
          <leafValues>
            6.8015843629837036e-002 -7.3211371898651123e-001</leafValues></_>
        <_>
          <internalNodes>
            0 -1 196 8.4265903569757938e-004</internalNodes>
          <leafValues>
            2.7555564045906067e-001 -1.7689797282218933e-001</leafValues></_>
        <_>
          <internalNodes>
            0 -1 222 1.8779539095703512e-004</internalNodes>
          <leafValues>
            -7.3978978395462036e-001 6.8458534777164459e-002</leafValues></_>
        <_>
          <internalNodes>
            0 -1 89 4.5892093330621719e-002</internalNodes>
          <leafValues>
            -8.8703863322734833e-002 5.5904191732406616e-001</leafValues></_>
        <_>
          <internalNodes>
            0 -1 265 2.1128432825207710e-002</internalNodes>
          <leafValues>
            -2.2778066992759705e-001 1.9985097646713257e-001</leafValues></_>
        <_>
          <internalNodes>
            0 -1 79 8.1624765880405903e-004</internalNodes>
          <leafValues>
            3.1674903631210327e-001 -1.3613040745258331e-001</leafValues></_>
        <_>
          <internalNodes>
            0 -1 55 5.6245864834636450e-004</internalNodes>
          <leafValues>
            -9.0895682573318481e-001 4.9719087779521942e-002</leafValues></_></weakClassifiers></_>
    <!-- stage 23 -->
    <_>
      <maxWeakCount>38</maxWeakCount>
      <stageThreshold>3.4510973095893860e-001</stageThreshold>
      <weakClassifiers>
        <_>
          <internalNodes>
            0 -1 275 8.1290557980537415e-002</internalNodes>
          <leafValues>
            9.4874256849288940e-001 -9.4871795177459717e-001</leafValues></_>
        <_>
          <internalNodes>
            0 -1 146 1.8212842405773699e-004</internalNodes>
          <leafValues>
            8.8734716176986694e-001 5.0051188468933105e-001</leafValues></_>
        <_>
          <internalNodes>
            0 -1 25 5.3790991660207510e-004</internalNodes>
          <leafValues>
            5.5097115039825439e-001 -1.0272006690502167e-001</leafValues></_>
        <_>
          <internalNodes>
            0 -1 168 5.9689010959118605e-004</internalNodes>
          <leafValues>
            4.1244587302207947e-001 -2.2535485029220581e-001</leafValues></_>
        <_>
          <internalNodes>
            0 -1 160 7.9182526096701622e-003</internalNodes>
          <leafValues>
            -5.9425485134124756e-001 1.3752056658267975e-001</leafValues></_>
        <_>
          <internalNodes>
            0 -1 140 5.1829614676535130e-004</internalNodes>
          <leafValues>
            2.9094713926315308e-001 -2.4817438423633575e-001</leafValues></_>
        <_>
          <internalNodes>
            0 -1 283 4.8314765095710754e-002</internalNodes>
          <leafValues>
            -4.6037155389785767e-001 1.6960808634757996e-001</leafValues></_>
        <_>
          <internalNodes>
            0 -1 134 1.8845938146114349e-002</internalNodes>
          <leafValues>
            -2.9505035281181335e-001 2.2261354327201843e-001</leafValues></_>
        <_>
          <internalNodes>
            0 -1 314 2.4707807460799813e-004</internalNodes>
          <leafValues>
            -7.2942858934402466e-001 7.3767095804214478e-002</leafValues></_>
        <_>
          <internalNodes>
            0 -1 4 1.6898183384910226e-003</internalNodes>
          <leafValues>
            1.8639352917671204e-001 -2.9204365611076355e-001</leafValues></_>
        <_>
          <internalNodes>
            0 -1 143 4.4798739254474640e-002</internalNodes>
          <leafValues>
            -1.7643912136554718e-001 4.0820604562759399e-001</leafValues></_>
        <_>
          <internalNodes>
            0 -1 193 1.6559466021135449e-003</internalNodes>
          <leafValues>
            -9.6671402454376221e-001 6.7013941705226898e-002</leafValues></_>
        <_>
          <internalNodes>
            0 -1 158 7.6667236862704158e-004</internalNodes>
          <leafValues>
            4.2215862870216370e-001 -1.6540761291980743e-001</leafValues></_>
        <_>
          <internalNodes>
            0 -1 257 1.5102805197238922e-001</internalNodes>
          <leafValues>
            8.6304977536201477e-002 -6.7179441452026367e-001</leafValues></_>
        <_>
          <internalNodes>
            0 -1 79 1.4029915910214186e-003</internalNodes>
          <leafValues>
            3.0174535512924194e-001 -1.9949340820312500e-001</leafValues></_>
        <_>
          <internalNodes>
            0 -1 162 7.8798423055559397e-004</internalNodes>
          <leafValues>
            3.9538010954856873e-001 -1.2997350096702576e-001</leafValues></_>
        <_>
          <internalNodes>
            0 -1 132 7.0045096799731255e-003</internalNodes>
          <leafValues>
            -5.5538505315780640e-001 1.0436249524354935e-001</leafValues></_>
        <_>
          <internalNodes>
            0 -1 66 2.6283651590347290e-002</internalNodes>
          <leafValues>
            -2.2354820370674133e-001 2.6184457540512085e-001</leafValues></_>
        <_>
          <internalNodes>
            0 -1 97 8.8828079402446747e-002</internalNodes>
          <leafValues>
            -9.0639851987361908e-002 5.8955901861190796e-001</leafValues></_>
        <_>
          <internalNodes>
            0 -1 204 9.0097680687904358e-002</internalNodes>
          <leafValues>
            -1.4153358340263367e-001 3.9549380540847778e-001</leafValues></_>
        <_>
          <internalNodes>
            0 -1 136 2.4622760713100433e-002</internalNodes>
          <leafValues>
            -1.3287195563316345e-001 3.4314396977424622e-001</leafValues></_>
        <_>
          <internalNodes>
            0 -1 11 1.4837400987744331e-002</internalNodes>
          <leafValues>
            -3.1429290771484375e-001 1.6806004941463470e-001</leafValues></_>
        <_>
          <internalNodes>
            0 -1 247 1.0012553539127111e-003</internalNodes>
          <leafValues>
            -8.6918669939041138e-001 5.4022338241338730e-002</leafValues></_>
        <_>
          <internalNodes>
            0 -1 106 6.7019537091255188e-002</internalNodes>
          <leafValues>
            -2.3762209713459015e-001 1.8197581171989441e-001</leafValues></_>
        <_>
          <internalNodes>
            0 -1 110 5.1251030527055264e-003</internalNodes>
          <leafValues>
            -3.0288302898406982e-001 1.5610845386981964e-001</leafValues></_>
        <_>
          <internalNodes>
            0 -1 42 3.6142536555416882e-004</internalNodes>
          <leafValues>
            3.2494059205055237e-001 -1.4559407532215118e-001</leafValues></_>
        <_>
          <internalNodes>
            0 -1 256 3.6727822589455172e-005</internalNodes>
          <leafValues>
            -8.6129921674728394e-001 5.2985090762376785e-002</leafValues></_>
        <_>
          <internalNodes>
            0 -1 198 1.1647301726043224e-003</internalNodes>
          <leafValues>
            3.5615965723991394e-001 -1.4046820998191833e-001</leafValues></_>
        <_>
          <internalNodes>
            0 -1 120 1.9405204802751541e-003</internalNodes>
          <leafValues>
            3.7199753522872925e-001 -1.1867310106754303e-001</leafValues></_>
        <_>
          <internalNodes>
            0 -1 181 4.0369845926761627e-002</internalNodes>
          <leafValues>
            -2.3709617555141449e-001 2.1617224812507629e-001</leafValues></_>
        <_>
          <internalNodes>
            0 -1 104 1.7547404766082764e-001</internalNodes>
          <leafValues>
            6.0025077313184738e-002 -5.8775281906127930e-001</leafValues></_>
        <_>
          <internalNodes>
            0 -1 235 5.8426178991794586e-002</internalNodes>
          <leafValues>
            -2.7407062053680420e-001 1.3967163860797882e-001</leafValues></_>
        <_>
          <internalNodes>
            0 -1 44 2.0491559058427811e-002</internalNodes>
          <leafValues>
            -1.3908112049102783e-001 2.9798638820648193e-001</leafValues></_>
        <_>
          <internalNodes>
            0 -1 205 7.0117786526679993e-002</internalNodes>
          <leafValues>
            4.7787323594093323e-002 -9.2305529117584229e-001</leafValues></_>
        <_>
          <internalNodes>
            0 -1 30 5.4560706485062838e-004</internalNodes>
          <leafValues>
            3.5614329576492310e-001 -1.1589010804891586e-001</leafValues></_>
        <_>
          <internalNodes>
            0 -1 302 2.1288886666297913e-002</internalNodes>
          <leafValues>
            -1.5726611018180847e-001 2.4057523906230927e-001</leafValues></_>
        <_>
          <internalNodes>
            0 -1 107 6.0004118829965591e-002</internalNodes>
          <leafValues>
            6.6309846937656403e-002 -6.0879927873611450e-001</leafValues></_>
        <_>
          <internalNodes>
            0 -1 180 6.6735878586769104e-002</internalNodes>
          <leafValues>
            -1.0423192381858826e-001 3.8849744200706482e-001</leafValues></_></weakClassifiers></_>
    <!-- stage 24 -->
    <_>
      <maxWeakCount>43</maxWeakCount>
      <stageThreshold>2.7755895256996155e-001</stageThreshold>
      <weakClassifiers>
        <_>
          <internalNodes>
            0 -1 49 7.0253183366730809e-005</internalNodes>
          <leafValues>
            -1. 9.4731110334396362e-001</leafValues></_>
        <_>
          <internalNodes>
            0 -1 52 1.0461867786943913e-003</internalNodes>
          <leafValues>
            8.8736331462860107e-001 4.9102136492729187e-001</leafValues></_>
        <_>
          <internalNodes>
            0 -1 32 5.5185181554406881e-004</internalNodes>
          <leafValues>
            5.1173418760299683e-001 -7.6400913298130035e-002</leafValues></_>
        <_>
          <internalNodes>
            0 -1 114 2.9420666396617889e-002</internalNodes>
          <leafValues>
            -1.9524833559989929e-001 3.5038247704505920e-001</leafValues></_>
        <_>
          <internalNodes>
            0 -1 4 1.0632700286805630e-003</internalNodes>
          <leafValues>
            1.6101084649562836e-001 -3.7920597195625305e-001</leafValues></_>
        <_>
          <internalNodes>
            0 -1 200 7.4627250432968140e-003</internalNodes>
          <leafValues>
            2.0172913372516632e-001 -3.6314347386360168e-001</leafValues></_>
        <_>
          <internalNodes>
            0 -1 143 3.3750079572200775e-002</internalNodes>
          <leafValues>
            -2.4781678617000580e-001 3.1100824475288391e-001</leafValues></_>
        <_>
          <internalNodes>
            0 -1 16 1.8812023103237152e-002</internalNodes>
          <leafValues>
            -3.7037906050682068e-001 1.4831008017063141e-001</leafValues></_>
        <_>
          <internalNodes>
            0 -1 156 9.4228715170174837e-004</internalNodes>
          <leafValues>
            3.6796057224273682e-001 -1.7190310359001160e-001</leafValues></_>
        <_>
          <internalNodes>
            0 -1 236 6.5192580223083496e-002</internalNodes>
          <leafValues>
            -1.9407762587070465e-001 3.5138100385665894e-001</leafValues></_>
        <_>
          <internalNodes>
            0 -1 152 1.2091793119907379e-002</internalNodes>
          <leafValues>
            -7.1877956390380859e-001 7.5527124106884003e-002</leafValues></_>
        <_>
          <internalNodes>
            0 -1 180 6.2245409935712814e-002</internalNodes>
          <leafValues>
            -1.4225377142429352e-001 4.6639758348464966e-001</leafValues></_>
        <_>
          <internalNodes>
            0 -1 7 6.1575829982757568e-002</internalNodes>
          <leafValues>
            1.3546738028526306e-001 -5.1665973663330078e-001</leafValues></_>
        <_>
          <internalNodes>
            0 -1 17 3.8473476888611913e-004</internalNodes>
          <leafValues>
            3.2547134160995483e-001 -1.7663984000682831e-001</leafValues></_>
        <_>
          <internalNodes>
            0 -1 267 1.7781142378225923e-004</internalNodes>
          <leafValues>
            -7.1504139900207520e-001 7.2450041770935059e-002</leafValues></_>
        <_>
          <internalNodes>
            0 -1 209 1.1105157900601625e-003</internalNodes>
          <leafValues>
            3.0656066536903381e-001 -1.7140677571296692e-001</leafValues></_>
        <_>
          <internalNodes>
            0 -1 132 7.8664328902959824e-003</internalNodes>
          <leafValues>
            -4.7959664463996887e-001 9.6988953649997711e-002</leafValues></_>
        <_>
          <internalNodes>
            0 -1 92 1.0901474161073565e-003</internalNodes>
          <leafValues>
            3.7549617886543274e-001 -1.3453729450702667e-001</leafValues></_>
        <_>
          <internalNodes>
            0 -1 288 3.1652278266847134e-005</internalNodes>
          <leafValues>
            -8.6833649873733521e-001 5.5177610367536545e-002</leafValues></_>
        <_>
          <internalNodes>
            0 -1 157 9.1500976122915745e-004</internalNodes>
          <leafValues>
            2.6796814799308777e-001 -1.6234630346298218e-001</leafValues></_>
        <_>
          <internalNodes>
            0 -1 207 6.3295856118202209e-002</internalNodes>
          <leafValues>
            -2.6515853404998779e-001 1.8447051942348480e-001</leafValues></_>
        <_>
          <internalNodes>
            0 -1 153 2.2885754704475403e-002</internalNodes>
          <leafValues>
            -1.3773347437381744e-001 3.7427273392677307e-001</leafValues></_>
        <_>
          <internalNodes>
            0 -1 260 1.8376377411186695e-003</internalNodes>
          <leafValues>
            -3.5295996069908142e-001 1.2822757661342621e-001</leafValues></_>
        <_>
          <internalNodes>
            0 -1 105 7.3732614517211914e-002</internalNodes>
          <leafValues>
            -1.0241302847862244e-001 4.4421327114105225e-001</leafValues></_>
        <_>
          <internalNodes>
            0 -1 182 3.9862096309661865e-002</internalNodes>
          <leafValues>
            -1.0010275244712830e-001 4.0152612328529358e-001</leafValues></_>
        <_>
          <internalNodes>
            0 -1 87 8.6218072101473808e-004</internalNodes>
          <leafValues>
            2.9310810565948486e-001 -1.6475901007652283e-001</leafValues></_>
        <_>
          <internalNodes>
            0 -1 125 9.5801725983619690e-002</internalNodes>
          <leafValues>
            7.0812456309795380e-002 -5.5582493543624878e-001</leafValues></_>
        <_>
          <internalNodes>
            0 -1 15 8.1676933914422989e-003</internalNodes>
          <leafValues>
            -4.5805057883262634e-001 8.4448955953121185e-002</leafValues></_>
        <_>
          <internalNodes>
            0 -1 6 1.8291503656655550e-003</internalNodes>
          <leafValues>
            2.3852479457855225e-001 -1.7355449497699738e-001</leafValues></_>
        <_>
          <internalNodes>
            0 -1 118 5.5001109838485718e-002</internalNodes>
          <leafValues>
            -1.0169892758131027e-001 5.9046155214309692e-001</leafValues></_>
        <_>
          <internalNodes>
            0 -1 268 4.8887182027101517e-002</internalNodes>
          <leafValues>
            6.9168664515018463e-002 -7.2464263439178467e-001</leafValues></_>
        <_>
          <internalNodes>
            0 -1 162 2.0945441792719066e-004</internalNodes>
          <leafValues>
            3.8400289416313171e-001 -1.0761855542659760e-001</leafValues></_>
        <_>
          <internalNodes>
            0 -1 279 1.5833660960197449e-002</internalNodes>
          <leafValues>
            -4.0661814808845520e-001 1.0082532465457916e-001</leafValues></_>
        <_>
          <internalNodes>
            0 -1 82 1.0485177487134933e-001</internalNodes>
          <leafValues>
            -8.4810644388198853e-002 4.5380413532257080e-001</leafValues></_>
        <_>
          <internalNodes>
            0 -1 305 1.9764922559261322e-002</internalNodes>
          <leafValues>
            -1.1696331948041916e-001 2.9078358411788940e-001</leafValues></_>
        <_>
          <internalNodes>
            0 -1 141 1.8900467082858086e-002</internalNodes>
          <leafValues>
            1.1266735196113586e-001 -3.2731056213378906e-001</leafValues></_>
        <_>
          <internalNodes>
            0 -1 11 4.6098407357931137e-002</internalNodes>
          <leafValues>
            -1.1068113148212433e-001 3.3873268961906433e-001</leafValues></_>
        <_>
          <internalNodes>
            0 -1 261 3.1686760485172272e-002</internalNodes>
          <leafValues>
            6.8150267004966736e-002 -6.0310411453247070e-001</leafValues></_>
        <_>
          <internalNodes>
            0 -1 239 3.2197427004575729e-002</internalNodes>
          <leafValues>
            -5.1069360971450806e-001 6.9895669817924500e-002</leafValues></_>
        <_>
          <internalNodes>
            0 -1 266 6.0062329284846783e-003</internalNodes>
          <leafValues>
            -3.1349292397499084e-001 1.2104034423828125e-001</leafValues></_>
        <_>
          <internalNodes>
            0 -1 299 1.9102569669485092e-002</internalNodes>
          <leafValues>
            6.9901354610919952e-002 -5.0223469734191895e-001</leafValues></_>
        <_>
          <internalNodes>
            0 -1 5 3.5980512620881200e-004</internalNodes>
          <leafValues>
            2.1499662101268768e-001 -1.8600383400917053e-001</leafValues></_>
        <_>
          <internalNodes>
            0 -1 120 6.5913507714867592e-003</internalNodes>
          <leafValues>
            2.7528938651084900e-001 -1.7657455801963806e-001</leafValues></_></weakClassifiers></_>
    <!-- stage 25 -->
    <_>
      <maxWeakCount>44</maxWeakCount>
      <stageThreshold>5.6304347515106201e-001</stageThreshold>
      <weakClassifiers>
        <_>
          <internalNodes>
            0 -1 282 6.2853753566741943e-002</internalNodes>
          <leafValues>
            9.6877151727676392e-001 -1.8918919563293457e-001</leafValues></_>
        <_>
          <internalNodes>
            0 -1 191 8.9798297267407179e-004</internalNodes>
          <leafValues>
            9.0859824419021606e-001 5.9766662120819092e-001</leafValues></_>
        <_>
          <internalNodes>
            0 -1 171 5.6483480148017406e-004</internalNodes>
          <leafValues>
            6.6842818260192871e-001 4.9301929771900177e-002</leafValues></_>
        <_>
          <internalNodes>
            0 -1 16 4.8273615539073944e-002</internalNodes>
          <leafValues>
            -2.0116741955280304e-001 3.9975002408027649e-001</leafValues></_>
        <_>
          <internalNodes>
            0 -1 168 7.1168690919876099e-004</internalNodes>
          <leafValues>
            3.6946550011634827e-001 -2.2060190141201019e-001</leafValues></_>
        <_>
          <internalNodes>
            0 -1 278 3.8695812691003084e-003</internalNodes>
          <leafValues>
            -7.0770794153213501e-001 6.5885201096534729e-002</leafValues></_>
        <_>
          <internalNodes>
            0 -1 204 6.0099832713603973e-002</internalNodes>
          <leafValues>
            -2.5597152113914490e-001 2.5841322541236877e-001</leafValues></_>
        <_>
          <internalNodes>
            0 -1 180 3.0423492193222046e-002</internalNodes>
          <leafValues>
            -2.3930951952934265e-001 2.6913991570472717e-001</leafValues></_>
        <_>
          <internalNodes>
            0 -1 5 3.2532145269215107e-004</internalNodes>
          <leafValues>
            2.3080894351005554e-001 -2.7527400851249695e-001</leafValues></_>
        <_>
          <internalNodes>
            0 -1 112 1.6319873975589871e-003</internalNodes>
          <leafValues>
            -5.9311658143997192e-001 8.3227530121803284e-002</leafValues></_>
        <_>
          <internalNodes>
            0 -1 101 6.8971078144386411e-004</internalNodes>
          <leafValues>
            2.7784749865531921e-001 -2.0187175273895264e-001</leafValues></_>
        <_>
          <internalNodes>
            0 -1 314 5.8944395277649164e-004</internalNodes>
          <leafValues>
            -7.4859851598739624e-001 8.7185278534889221e-002</leafValues></_>
        <_>
          <internalNodes>
            0 -1 182 2.8960000723600388e-002</internalNodes>
          <leafValues>
            -1.8779188394546509e-001 3.5746398568153381e-001</leafValues></_>
        <_>
          <internalNodes>
            0 -1 97 5.1324687898159027e-002</internalNodes>
          <leafValues>
            -1.6179110109806061e-001 3.1159380078315735e-001</leafValues></_>
        <_>
          <internalNodes>
            0 -1 193 2.0050751045346260e-003</internalNodes>
          <leafValues>
            -9.7155344486236572e-001 5.2173361182212830e-002</leafValues></_>
        <_>
          <internalNodes>
            0 -1 127 8.7124656420201063e-004</internalNodes>
          <leafValues>
            3.5274299979209900e-001 -1.5203118324279785e-001</leafValues></_>
        <_>
          <internalNodes>
            0 -1 7 5.5964358150959015e-002</internalNodes>
          <leafValues>
            1.2356629967689514e-001 -4.7123035788536072e-001</leafValues></_>
        <_>
          <internalNodes>
            0 -1 172 3.6219830508343875e-004</internalNodes>
          <leafValues>
            3.6691650748252869e-001 -1.2890511751174927e-001</leafValues></_>
        <_>
          <internalNodes>
            0 -1 45 4.7147717326879501e-002</internalNodes>
          <leafValues>
            2.6996037364006042e-001 -2.4582231044769287e-001</leafValues></_>
        <_>
          <internalNodes>
            0 -1 283 5.9409581124782562e-002</internalNodes>
          <leafValues>
            -2.8402096033096313e-001 1.4239659905433655e-001</leafValues></_>
        <_>
          <internalNodes>
            0 -1 28 3.6096546798944473e-002</internalNodes>
          <leafValues>
            -1.9294624030590057e-001 2.1960644423961639e-001</leafValues></_>
        <_>
          <internalNodes>
            0 -1 65 9.7356066107749939e-002</internalNodes>
          <leafValues>
            -1.0692460834980011e-001 3.8750731945037842e-001</leafValues></_>
        <_>
          <internalNodes>
            0 -1 273 8.1915184855461121e-003</internalNodes>
          <leafValues>
            -3.3002734184265137e-001 1.4608795940876007e-001</leafValues></_>
        <_>
          <internalNodes>
            0 -1 267 4.6587120741605759e-002</internalNodes>
          <leafValues>
            5.5243927985429764e-002 -7.9963999986648560e-001</leafValues></_>
        <_>
          <internalNodes>
            0 -1 241 5.6540628429502249e-004</internalNodes>
          <leafValues>
            4.1565859317779541e-001 -1.4474713802337646e-001</leafValues></_>
        <_>
          <internalNodes>
            0 -1 48 4.3205946683883667e-002</internalNodes>
          <leafValues>
            -1.4291264116764069e-001 3.4290984272956848e-001</leafValues></_>
        <_>
          <internalNodes>
            0 -1 215 1.5268570277839899e-003</internalNodes>
          <leafValues>
            2.8866094350814819e-001 -1.5342076122760773e-001</leafValues></_>
        <_>
          <internalNodes>
            0 -1 318 4.0269838791573420e-005</internalNodes>
          <leafValues>
            -5.9612458944320679e-001 9.6689797937870026e-002</leafValues></_>
        <_>
          <internalNodes>
            0 -1 208 2.3856566986069083e-004</internalNodes>
          <leafValues>
            5.1017618179321289e-001 -8.0583669245243073e-002</leafValues></_>
        <_>
          <internalNodes>
            0 -1 250 8.8210850954055786e-003</internalNodes>
          <leafValues>
            -4.3032053112983704e-001 1.0612783581018448e-001</leafValues></_>
        <_>
          <internalNodes>
            0 -1 178 3.8292435929179192e-003</internalNodes>
          <leafValues>
            -8.5985946655273438e-001 4.0995053946971893e-002</leafValues></_>
        <_>
          <internalNodes>
            0 -1 136 5.3018823266029358e-002</internalNodes>
          <leafValues>
            -8.6518809199333191e-002 5.2624744176864624e-001</leafValues></_>
        <_>
          <internalNodes>
            0 -1 3 2.0272143185138702e-002</internalNodes>
          <leafValues>
            1.3735121488571167e-001 -3.6610475182533264e-001</leafValues></_>
        <_>
          <internalNodes>
            0 -1 204 1.1760561913251877e-001</internalNodes>
          <leafValues>
            -8.3339899778366089e-002 5.2270138263702393e-001</leafValues></_>
        <_>
          <internalNodes>
            0 -1 117 1.7398945987224579e-002</internalNodes>
          <leafValues>
            -1.4620815217494965e-001 2.9524749517440796e-001</leafValues></_>
        <_>
          <internalNodes>
            0 -1 133 4.5842453837394714e-002</internalNodes>
          <leafValues>
            -1.3450103998184204e-001 3.5878166556358337e-001</leafValues></_>
        <_>
          <internalNodes>
            0 -1 253 5.6248001754283905e-002</internalNodes>
          <leafValues>
            -2.8566104173660278e-001 1.3706657290458679e-001</leafValues></_>
        <_>
          <internalNodes>
            0 -1 304 2.7495883405208588e-002</internalNodes>
          <leafValues>
            -8.8610492646694183e-002 4.5118641853332520e-001</leafValues></_>
        <_>
          <internalNodes>
            0 -1 8 5.3454495966434479e-002</internalNodes>
          <leafValues>
            -8.7991297245025635e-002 3.8270726799964905e-001</leafValues></_>
        <_>
          <internalNodes>
            0 -1 163 1.5523926413152367e-004</internalNodes>
          <leafValues>
            3.5102239251136780e-001 -1.1154139786958694e-001</leafValues></_>
        <_>
          <internalNodes>
            0 -1 256 3.5450215364107862e-005</internalNodes>
          <leafValues>
            -8.2633757591247559e-001 4.7000024467706680e-002</leafValues></_>
        <_>
          <internalNodes>
            0 -1 143 5.7838059961795807e-002</internalNodes>
          <leafValues>
            -1.1158969253301620e-001 3.7348264455795288e-001</leafValues></_>
        <_>
          <internalNodes>
            0 -1 7 1.2119291350245476e-003</internalNodes>
          <leafValues>
            4.7913661599159241e-001 -9.5786355435848236e-002</leafValues></_>
        <_>
          <internalNodes>
            0 -1 19 2.4226218461990356e-002</internalNodes>
          <leafValues>
            -1.5754288434982300e-001 2.6354223489761353e-001</leafValues></_></weakClassifiers></_>
    <!-- stage 26 -->
    <_>
      <maxWeakCount>39</maxWeakCount>
      <stageThreshold>9.2187255620956421e-001</stageThreshold>
      <weakClassifiers>
        <_>
          <internalNodes>
            0 -1 280 2.2377577424049377e-001</internalNodes>
          <leafValues>
            9.8402708768844604e-001 -6.0000002384185791e-001</leafValues></_>
        <_>
          <internalNodes>
            0 -1 51 2.7867703465744853e-004</internalNodes>
          <leafValues>
            9.6085572242736816e-001 7.8458094596862793e-001</leafValues></_>
        <_>
          <internalNodes>
            0 -1 75 3.7145504029467702e-004</internalNodes>
          <leafValues>
            8.1737142801284790e-001 2.7183175086975098e-001</leafValues></_>
        <_>
          <internalNodes>
            0 -1 16 7.4443340301513672e-002</internalNodes>
          <leafValues>
            -6.3707128167152405e-002 6.8300741910934448e-001</leafValues></_>
        <_>
          <internalNodes>
            0 -1 80 6.4519926672801375e-004</internalNodes>
          <leafValues>
            3.3157256245613098e-001 -2.4557827413082123e-001</leafValues></_>
        <_>
          <internalNodes>
            0 -1 181 2.8342481702566147e-002</internalNodes>
          <leafValues>
            -3.4853470325469971e-001 2.2316090762615204e-001</leafValues></_>
        <_>
          <internalNodes>
            0 -1 31 4.4758539297617972e-004</internalNodes>
          <leafValues>
            2.8992781043052673e-001 -2.6060423254966736e-001</leafValues></_>
        <_>
          <internalNodes>
            0 -1 112 6.1350874602794647e-003</internalNodes>
          <leafValues>
            -5.6041389703750610e-001 1.3208951056003571e-001</leafValues></_>
        <_>
          <internalNodes>
            0 -1 260 4.1435945604462177e-005</internalNodes>
          <leafValues>
            -5.5498737096786499e-001 9.2061698436737061e-002</leafValues></_>
        <_>
          <internalNodes>
            0 -1 184 2.9086312861181796e-004</internalNodes>
          <leafValues>
            4.1329497098922729e-001 -1.6311098635196686e-001</leafValues></_>
        <_>
          <internalNodes>
            0 -1 96 3.4768007695674896e-002</internalNodes>
          <leafValues>
            7.3199026286602020e-002 -7.2200363874435425e-001</leafValues></_>
        <_>
          <internalNodes>
            0 -1 162 2.0945441792719066e-004</internalNodes>
          <leafValues>
            4.6348243951797485e-001 -1.4008429646492004e-001</leafValues></_>
        <_>
          <internalNodes>
            0 -1 12 3.1516268849372864e-002</internalNodes>
          <leafValues>
            -1.9904159009456635e-001 2.8398889303207397e-001</leafValues></_>
        <_>
          <internalNodes>
            0 -1 261 3.3858470618724823e-002</internalNodes>
          <leafValues>
            6.9812409579753876e-002 -7.4402987957000732e-001</leafValues></_>
        <_>
          <internalNodes>
            0 -1 225 4.8466708511114120e-002</internalNodes>
          <leafValues>
            5.6005921214818954e-002 -7.6807576417922974e-001</leafValues></_>
        <_>
          <internalNodes>
            0 -1 255 1.1564991436898708e-002</internalNodes>
          <leafValues>
            -2.6151570677757263e-001 2.0533108711242676e-001</leafValues></_>
        <_>
          <internalNodes>
            0 -1 34 3.4769303165376186e-003</internalNodes>
          <leafValues>
            2.7248090505599976e-001 -2.4708764255046844e-001</leafValues></_>
        <_>
          <internalNodes>
            0 -1 114 1.6893712803721428e-002</internalNodes>
          <leafValues>
            -2.7171212434768677e-001 1.9769945740699768e-001</leafValues></_>
        <_>
          <internalNodes>
            0 -1 0 1.2465778738260269e-002</internalNodes>
          <leafValues>
            2.7461090683937073e-001 -1.9297353923320770e-001</leafValues></_>
        <_>
          <internalNodes>
            0 -1 140 1.1859143152832985e-002</internalNodes>
          <leafValues>
            1.9262245297431946e-001 -3.4597417712211609e-001</leafValues></_>
        <_>
          <internalNodes>
            0 -1 252 4.5880738645792007e-002</internalNodes>
          <leafValues>
            7.4054718017578125e-002 -9.0390366315841675e-001</leafValues></_>
        <_>
          <internalNodes>
            0 -1 267 5.9160580858588219e-003</internalNodes>
          <leafValues>
            -3.2951167225837708e-001 1.5301811695098877e-001</leafValues></_>
        <_>
          <internalNodes>
            0 -1 217 7.4159629642963409e-002</internalNodes>
          <leafValues>
            -1.2050805985927582e-001 4.6349915862083435e-001</leafValues></_>
        <_>
          <internalNodes>
            0 -1 231 1.6793437302112579e-002</internalNodes>
          <leafValues>
            -2.8595224022865295e-001 1.6790013015270233e-001</leafValues></_>
        <_>
          <internalNodes>
            0 -1 8 6.6193908452987671e-002</internalNodes>
          <leafValues>
            -9.7070850431919098e-002 5.4959106445312500e-001</leafValues></_>
        <_>
          <internalNodes>
            0 -1 180 6.5725646913051605e-002</internalNodes>
          <leafValues>
            -9.8779790103435516e-002 4.3355512619018555e-001</leafValues></_>
        <_>
          <internalNodes>
            0 -1 89 9.2941150069236755e-004</internalNodes>
          <leafValues>
            4.1584023833274841e-001 -1.4330703020095825e-001</leafValues></_>
        <_>
          <internalNodes>
            0 -1 234 2.0942350383847952e-003</internalNodes>
          <leafValues>
            -7.6052612066268921e-001 8.2202062010765076e-002</leafValues></_>
        <_>
          <internalNodes>
            0 -1 10 5.3326994180679321e-002</internalNodes>
          <leafValues>
            -9.9127523601055145e-002 5.2730339765548706e-001</leafValues></_>
        <_>
          <internalNodes>
            0 -1 120 8.7437108159065247e-003</internalNodes>
          <leafValues>
            2.7438640594482422e-001 -1.9540679454803467e-001</leafValues></_>
        <_>
          <internalNodes>
            0 -1 108 8.7565165013074875e-003</internalNodes>
          <leafValues>
            -5.9023642539978027e-001 9.6950285136699677e-002</leafValues></_>
        <_>
          <internalNodes>
            0 -1 92 9.3528669094666839e-004</internalNodes>
          <leafValues>
            3.8097757101058960e-001 -1.2445414811372757e-001</leafValues></_>
        <_>
          <internalNodes>
            0 -1 178 3.5766057670116425e-002</internalNodes>
          <leafValues>
            -3.1907680630683899e-001 1.5277004241943359e-001</leafValues></_>
        <_>
          <internalNodes>
            0 -1 236 6.0215339064598083e-002</internalNodes>
          <leafValues>
            -1.8124216794967651e-001 2.7989321947097778e-001</leafValues></_>
        <_>
          <internalNodes>
            0 -1 273 1.8742088228464127e-002</internalNodes>
          <leafValues>
            -2.1598275005817413e-001 2.3854944109916687e-001</leafValues></_>
        <_>
          <internalNodes>
            0 -1 166 5.5744429118931293e-004</internalNodes>
          <leafValues>
            3.5355383157730103e-001 -1.4970827102661133e-001</leafValues></_>
        <_>
          <internalNodes>
            0 -1 315 2.9668030329048634e-003</internalNodes>
          <leafValues>
            -4.4993406534194946e-001 1.0553001612424850e-001</leafValues></_>
        <_>
          <internalNodes>
            0 -1 142 4.2862325906753540e-002</internalNodes>
          <leafValues>
            7.4872449040412903e-002 -5.0695681571960449e-001</leafValues></_>
        <_>
          <internalNodes>
            0 -1 208 2.0301290787756443e-003</internalNodes>
          <leafValues>
            3.5930466651916504e-001 -1.2515674531459808e-001</leafValues></_></weakClassifiers></_></stages>
  <features>
    <_>
      <rect>
        0 0 8 8 0</rect></_>
    <_>
      <rect>
        0 0 8 8 2</rect></_>
    <_>
      <rect>
        0 0 8 8 3</rect></_>
    <_>
      <rect>
        0 0 8 8 4</rect></_>
    <_>
      <rect>
        0 0 8 8 5</rect></_>
    <_>
      <rect>
        0 0 8 8 6</rect></_>
    <_>
      <rect>
        0 0 8 8 7</rect></_>
    <_>
      <rect>
        0 0 8 8 8</rect></_>
    <_>
      <rect>
        0 0 8 8 9</rect></_>
    <_>
      <rect>
        0 0 8 8 10</rect></_>
    <_>
      <rect>
        0 0 8 8 11</rect></_>
    <_>
      <rect>
        0 0 8 8 12</rect></_>
    <_>
      <rect>
        0 0 8 8 13</rect></_>
    <_>
      <rect>
        0 0 8 8 14</rect></_>
    <_>
      <rect>
        0 0 8 8 16</rect></_>
    <_>
      <rect>
        0 0 8 8 17</rect></_>
    <_>
      <rect>
        0 0 8 8 18</rect></_>
    <_>
      <rect>
        0 0 8 8 22</rect></_>
    <_>
      <rect>
        0 0 8 8 23</rect></_>
    <_>
      <rect>
        0 0 8 8 25</rect></_>
    <_>
      <rect>
        0 0 8 8 26</rect></_>
    <_>
      <rect>
        0 0 8 8 27</rect></_>
    <_>
      <rect>
        0 0 8 8 34</rect></_>
    <_>
      <rect>
        0 4 8 8 4</rect></_>
    <_>
      <rect>
        0 4 8 8 5</rect></_>
    <_>
      <rect>
        0 4 8 8 6</rect></_>
    <_>
      <rect>
        0 4 8 8 9</rect></_>
    <_>
      <rect>
        0 4 8 8 13</rect></_>
    <_>
      <rect>
        0 4 8 8 16</rect></_>
    <_>
      <rect>
        0 4 8 8 18</rect></_>
    <_>
      <rect>
        0 4 8 8 19</rect></_>
    <_>
      <rect>
        0 4 8 8 20</rect></_>
    <_>
      <rect>
        0 4 8 8 21</rect></_>
    <_>
      <rect>
        0 4 8 8 22</rect></_>
    <_>
      <rect>
        0 4 8 8 23</rect></_>
    <_>
      <rect>
        0 4 8 8 24</rect></_>
    <_>
      <rect>
        0 4 8 8 25</rect></_>
    <_>
      <rect>
        0 4 8 8 26</rect></_>
    <_>
      <rect>
        0 4 8 8 28</rect></_>
    <_>
      <rect>
        0 4 8 8 32</rect></_>
    <_>
      <rect>
        0 4 8 8 33</rect></_>
    <_>
      <rect>
        0 8 8 8 1</rect></_>
    <_>
      <rect>
        0 8 8 8 4</rect></_>
    <_>
      <rect>
        0 8 8 8 6</rect></_>
    <_>
      <rect>
        0 8 8 8 14</rect></_>
    <_>
      <rect>
        0 8 8 8 17</rect></_>
    <_>
      <rect>
        0 8 8 8 19</rect></_>
    <_>
      <rect>
        0 8 8 8 20</rect></_>
    <_>
      <rect>
        0 8 8 8 25</rect></_>
    <_>
      <rect>
        0 8 8 8 26</rect></_>
    <_>
      <rect>
        0 8 8 8 28</rect></_>
    <_>
      <rect>
        0 8 8 8 32</rect></_>
    <_>
      <rect>
        0 8 8 8 33</rect></_>
    <_>
      <rect>
        0 12 8 8 4</rect></_>
    <_>
      <rect>
        0 12 8 8 7</rect></_>
    <_>
      <rect>
        0 12 8 8 8</rect></_>
    <_>
      <rect>
        0 12 8 8 10</rect></_>
    <_>
      <rect>
        0 12 8 8 11</rect></_>
    <_>
      <rect>
        0 12 8 8 14</rect></_>
    <_>
      <rect>
        0 12 8 8 15</rect></_>
    <_>
      <rect>
        0 12 8 8 19</rect></_>
    <_>
      <rect>
        0 12 8 8 22</rect></_>
    <_>
      <rect>
        0 12 8 8 24</rect></_>
    <_>
      <rect>
        0 12 8 8 25</rect></_>
    <_>
      <rect>
        0 12 8 8 26</rect></_>
    <_>
      <rect>
        0 12 8 8 27</rect></_>
    <_>
      <rect>
        0 12 8 8 28</rect></_>
    <_>
      <rect>
        0 16 8 8 1</rect></_>
    <_>
      <rect>
        0 16 8 8 2</rect></_>
    <_>
      <rect>
        0 16 8 8 4</rect></_>
    <_>
      <rect>
        0 16 8 8 5</rect></_>
    <_>
      <rect>
        0 16 8 8 6</rect></_>
    <_>
      <rect>
        0 16 8 8 8</rect></_>
    <_>
      <rect>
        0 16 8 8 11</rect></_>
    <_>
      <rect>
        0 16 8 8 14</rect></_>
    <_>
      <rect>
        0 16 8 8 15</rect></_>
    <_>
      <rect>
        0 16 8 8 16</rect></_>
    <_>
      <rect>
        0 16 8 8 17</rect></_>
    <_>
      <rect>
        0 16 8 8 18</rect></_>
    <_>
      <rect>
        0 16 8 8 22</rect></_>
    <_>
      <rect>
        0 16 8 8 23</rect></_>
    <_>
      <rect>
        0 16 8 8 24</rect></_>
    <_>
      <rect>
        0 16 8 8 27</rect></_>
    <_>
      <rect>
        0 16 8 8 33</rect></_>
    <_>
      <rect>
        0 16 8 8 34</rect></_>
    <_>
      <rect>
        0 20 8 8 1</rect></_>
    <_>
      <rect>
        0 20 8 8 2</rect></_>
    <_>
      <rect>
        0 20 8 8 4</rect></_>
    <_>
      <rect>
        0 20 8 8 5</rect></_>
    <_>
      <rect>
        0 20 8 8 6</rect></_>
    <_>
      <rect>
        0 20 8 8 22</rect></_>
    <_>
      <rect>
        0 20 8 8 23</rect></_>
    <_>
      <rect>
        0 20 8 8 24</rect></_>
    <_>
      <rect>
        0 20 8 8 27</rect></_>
    <_>
      <rect>
        0 20 8 8 28</rect></_>
    <_>
      <rect>
        0 20 8 8 29</rect></_>
    <_>
      <rect>
        0 20 8 8 30</rect></_>
    <_>
      <rect>
        0 20 8 8 34</rect></_>
    <_>
      <rect>
        0 20 8 8 35</rect></_>
    <_>
      <rect>
        0 24 8 8 0</rect></_>
    <_>
      <rect>
        0 24 8 8 4</rect></_>
    <_>
      <rect>
        0 24 8 8 5</rect></_>
    <_>
      <rect>
        0 24 8 8 6</rect></_>
    <_>
      <rect>
        0 24 8 8 7</rect></_>
    <_>
      <rect>
        0 24 8 8 8</rect></_>
    <_>
      <rect>
        0 24 8 8 16</rect></_>
    <_>
      <rect>
        0 24 8 8 17</rect></_>
    <_>
      <rect>
        0 24 8 8 25</rect></_>
    <_>
      <rect>
        0 24 8 8 26</rect></_>
    <_>
      <rect>
        0 24 8 8 30</rect></_>
    <_>
      <rect>
        0 24 8 8 32</rect></_>
    <_>
      <rect>
        0 24 8 8 35</rect></_>
    <_>
      <rect>
        4 0 8 8 0</rect></_>
    <_>
      <rect>
        4 0 8 8 1</rect></_>
    <_>
      <rect>
        4 0 8 8 2</rect></_>
    <_>
      <rect>
        4 0 8 8 3</rect></_>
    <_>
      <rect>
        4 0 8 8 4</rect></_>
    <_>
      <rect>
        4 0 8 8 5</rect></_>
    <_>
      <rect>
        4 0 8 8 6</rect></_>
    <_>
      <rect>
        4 0 8 8 8</rect></_>
    <_>
      <rect>
        4 0 8 8 9</rect></_>
    <_>
      <rect>
        4 0 8 8 10</rect></_>
    <_>
      <rect>
        4 0 8 8 11</rect></_>
    <_>
      <rect>
        4 0 8 8 14</rect></_>
    <_>
      <rect>
        4 0 8 8 15</rect></_>
    <_>
      <rect>
        4 0 8 8 17</rect></_>
    <_>
      <rect>
        4 0 8 8 24</rect></_>
    <_>
      <rect>
        4 0 8 8 28</rect></_>
    <_>
      <rect>
        4 0 8 8 29</rect></_>
    <_>
      <rect>
        4 0 8 8 31</rect></_>
    <_>
      <rect>
        4 0 8 8 33</rect></_>
    <_>
      <rect>
        4 0 8 8 34</rect></_>
    <_>
      <rect>
        4 4 8 8 0</rect></_>
    <_>
      <rect>
        4 4 8 8 1</rect></_>
    <_>
      <rect>
        4 4 8 8 2</rect></_>
    <_>
      <rect>
        4 4 8 8 4</rect></_>
    <_>
      <rect>
        4 4 8 8 6</rect></_>
    <_>
      <rect>
        4 4 8 8 7</rect></_>
    <_>
      <rect>
        4 4 8 8 8</rect></_>
    <_>
      <rect>
        4 4 8 8 10</rect></_>
    <_>
      <rect>
        4 4 8 8 11</rect></_>
    <_>
      <rect>
        4 4 8 8 12</rect></_>
    <_>
      <rect>
        4 4 8 8 13</rect></_>
    <_>
      <rect>
        4 4 8 8 15</rect></_>
    <_>
      <rect>
        4 4 8 8 16</rect></_>
    <_>
      <rect>
        4 4 8 8 17</rect></_>
    <_>
      <rect>
        4 4 8 8 20</rect></_>
    <_>
      <rect>
        4 4 8 8 22</rect></_>
    <_>
      <rect>
        4 4 8 8 24</rect></_>
    <_>
      <rect>
        4 4 8 8 27</rect></_>
    <_>
      <rect>
        4 4 8 8 31</rect></_>
    <_>
      <rect>
        4 4 8 8 34</rect></_>
    <_>
      <rect>
        4 4 8 8 35</rect></_>
    <_>
      <rect>
        4 8 8 8 2</rect></_>
    <_>
      <rect>
        4 8 8 8 3</rect></_>
    <_>
      <rect>
        4 8 8 8 5</rect></_>
    <_>
      <rect>
        4 8 8 8 10</rect></_>
    <_>
      <rect>
        4 8 8 8 11</rect></_>
    <_>
      <rect>
        4 8 8 8 13</rect></_>
    <_>
      <rect>
        4 8 8 8 15</rect></_>
    <_>
      <rect>
        4 8 8 8 16</rect></_>
    <_>
      <rect>
        4 8 8 8 18</rect></_>
    <_>
      <rect>
        4 8 8 8 19</rect></_>
    <_>
      <rect>
        4 8 8 8 20</rect></_>
    <_>
      <rect>
        4 8 8 8 27</rect></_>
    <_>
      <rect>
        4 8 8 8 29</rect></_>
    <_>
      <rect>
        4 8 8 8 31</rect></_>
    <_>
      <rect>
        4 8 8 8 32</rect></_>
    <_>
      <rect>
        4 8 8 8 33</rect></_>
    <_>
      <rect>
        4 8 8 8 35</rect></_>
    <_>
      <rect>
        4 12 8 8 1</rect></_>
    <_>
      <rect>
        4 12 8 8 2</rect></_>
    <_>
      <rect>
        4 12 8 8 4</rect></_>
    <_>
      <rect>
        4 12 8 8 5</rect></_>
    <_>
      <rect>
        4 12 8 8 6</rect></_>
    <_>
      <rect>
        4 12 8 8 13</rect></_>
    <_>
      <rect>
        4 12 8 8 14</rect></_>
    <_>
      <rect>
        4 12 8 8 15</rect></_>
    <_>
      <rect>
        4 12 8 8 17</rect></_>
    <_>
      <rect>
        4 12 8 8 22</rect></_>
    <_>
      <rect>
        4 12 8 8 25</rect></_>
    <_>
      <rect>
        4 12 8 8 27</rect></_>
    <_>
      <rect>
        4 12 8 8 28</rect></_>
    <_>
      <rect>
        4 12 8 8 31</rect></_>
    <_>
      <rect>
        4 12 8 8 33</rect></_>
    <_>
      <rect>
        4 12 8 8 34</rect></_>
    <_>
      <rect>
        4 12 8 8 35</rect></_>
    <_>
      <rect>
        4 16 8 8 8</rect></_>
    <_>
      <rect>
        4 16 8 8 9</rect></_>
    <_>
      <rect>
        4 16 8 8 10</rect></_>
    <_>
      <rect>
        4 16 8 8 13</rect></_>
    <_>
      <rect>
        4 16 8 8 14</rect></_>
    <_>
      <rect>
        4 16 8 8 15</rect></_>
    <_>
      <rect>
        4 16 8 8 17</rect></_>
    <_>
      <rect>
        4 16 8 8 18</rect></_>
    <_>
      <rect>
        4 16 8 8 25</rect></_>
    <_>
      <rect>
        4 16 8 8 29</rect></_>
    <_>
      <rect>
        4 16 8 8 31</rect></_>
    <_>
      <rect>
        4 16 8 8 33</rect></_>
    <_>
      <rect>
        4 16 8 8 34</rect></_>
    <_>
      <rect>
        4 20 8 8 13</rect></_>
    <_>
      <rect>
        4 20 8 8 14</rect></_>
    <_>
      <rect>
        4 20 8 8 15</rect></_>
    <_>
      <rect>
        4 20 8 8 17</rect></_>
    <_>
      <rect>
        4 20 8 8 18</rect></_>
    <_>
      <rect>
        4 20 8 8 21</rect></_>
    <_>
      <rect>
        4 20 8 8 24</rect></_>
    <_>
      <rect>
        4 20 8 8 26</rect></_>
    <_>
      <rect>
        4 20 8 8 28</rect></_>
    <_>
      <rect>
        4 20 8 8 29</rect></_>
    <_>
      <rect>
        4 20 8 8 31</rect></_>
    <_>
      <rect>
        4 20 8 8 33</rect></_>
    <_>
      <rect>
        4 24 8 8 0</rect></_>
    <_>
      <rect>
        4 24 8 8 1</rect></_>
    <_>
      <rect>
        4 24 8 8 3</rect></_>
    <_>
      <rect>
        4 24 8 8 13</rect></_>
    <_>
      <rect>
        4 24 8 8 17</rect></_>
    <_>
      <rect>
        4 24 8 8 18</rect></_>
    <_>
      <rect>
        4 24 8 8 21</rect></_>
    <_>
      <rect>
        4 24 8 8 22</rect></_>
    <_>
      <rect>
        4 24 8 8 23</rect></_>
    <_>
      <rect>
        4 24 8 8 27</rect></_>
    <_>
      <rect>
        4 24 8 8 34</rect></_>
    <_>
      <rect>
        0 0 8 16 0</rect></_>
    <_>
      <rect>
        0 0 8 16 1</rect></_>
    <_>
      <rect>
        0 0 8 16 2</rect></_>
    <_>
      <rect>
        0 0 8 16 3</rect></_>
    <_>
      <rect>
        0 0 8 16 8</rect></_>
    <_>
      <rect>
        0 0 8 16 12</rect></_>
    <_>
      <rect>
        0 0 8 16 13</rect></_>
    <_>
      <rect>
        0 0 8 16 14</rect></_>
    <_>
      <rect>
        0 0 8 16 15</rect></_>
    <_>
      <rect>
        0 0 8 16 17</rect></_>
    <_>
      <rect>
        0 0 8 16 21</rect></_>
    <_>
      <rect>
        0 0 8 16 25</rect></_>
    <_>
      <rect>
        0 0 8 16 26</rect></_>
    <_>
      <rect>
        0 0 8 16 27</rect></_>
    <_>
      <rect>
        0 0 8 16 30</rect></_>
    <_>
      <rect>
        0 0 8 16 32</rect></_>
    <_>
      <rect>
        0 0 8 16 35</rect></_>
    <_>
      <rect>
        0 4 8 16 0</rect></_>
    <_>
      <rect>
        0 4 8 16 4</rect></_>
    <_>
      <rect>
        0 4 8 16 7</rect></_>
    <_>
      <rect>
        0 4 8 16 8</rect></_>
    <_>
      <rect>
        0 4 8 16 13</rect></_>
    <_>
      <rect>
        0 4 8 16 18</rect></_>
    <_>
      <rect>
        0 4 8 16 22</rect></_>
    <_>
      <rect>
        0 4 8 16 25</rect></_>
    <_>
      <rect>
        0 4 8 16 26</rect></_>
    <_>
      <rect>
        0 4 8 16 27</rect></_>
    <_>
      <rect>
        0 4 8 16 28</rect></_>
    <_>
      <rect>
        0 4 8 16 30</rect></_>
    <_>
      <rect>
        0 4 8 16 31</rect></_>
    <_>
      <rect>
        0 4 8 16 35</rect></_>
    <_>
      <rect>
        0 8 8 16 0</rect></_>
    <_>
      <rect>
        0 8 8 16 1</rect></_>
    <_>
      <rect>
        0 8 8 16 7</rect></_>
    <_>
      <rect>
        0 8 8 16 8</rect></_>
    <_>
      <rect>
        0 8 8 16 17</rect></_>
    <_>
      <rect>
        0 8 8 16 18</rect></_>
    <_>
      <rect>
        0 8 8 16 21</rect></_>
    <_>
      <rect>
        0 8 8 16 22</rect></_>
    <_>
      <rect>
        0 8 8 16 25</rect></_>
    <_>
      <rect>
        0 8 8 16 26</rect></_>
    <_>
      <rect>
        0 8 8 16 27</rect></_>
    <_>
      <rect>
        0 8 8 16 28</rect></_>
    <_>
      <rect>
        0 8 8 16 29</rect></_>
    <_>
      <rect>
        0 8 8 16 30</rect></_>
    <_>
      <rect>
        0 8 8 16 31</rect></_>
    <_>
      <rect>
        0 8 8 16 32</rect></_>
    <_>
      <rect>
        0 8 8 16 34</rect></_>
    <_>
      <rect>
        4 0 8 16 1</rect></_>
    <_>
      <rect>
        4 0 8 16 2</rect></_>
    <_>
      <rect>
        4 0 8 16 3</rect></_>
    <_>
      <rect>
        4 0 8 16 8</rect></_>
    <_>
      <rect>
        4 0 8 16 11</rect></_>
    <_>
      <rect>
        4 0 8 16 12</rect></_>
    <_>
      <rect>
        4 0 8 16 14</rect></_>
    <_>
      <rect>
        4 0 8 16 15</rect></_>
    <_>
      <rect>
        4 0 8 16 16</rect></_>
    <_>
      <rect>
        4 0 8 16 17</rect></_>
    <_>
      <rect>
        4 0 8 16 21</rect></_>
    <_>
      <rect>
        4 0 8 16 22</rect></_>
    <_>
      <rect>
        4 0 8 16 26</rect></_>
    <_>
      <rect>
        4 0 8 16 27</rect></_>
    <_>
      <rect>
        4 0 8 16 29</rect></_>
    <_>
      <rect>
        4 0 8 16 30</rect></_>
    <_>
      <rect>
        4 0 8 16 31</rect></_>
    <_>
      <rect>
        4 0 8 16 34</rect></_>
    <_>
      <rect>
        4 4 8 16 6</rect></_>
    <_>
      <rect>
        4 4 8 16 8</rect></_>
    <_>
      <rect>
        4 4 8 16 9</rect></_>
    <_>
      <rect>
        4 4 8 16 13</rect></_>
    <_>
      <rect>
        4 4 8 16 16</rect></_>
    <_>
      <rect>
        4 4 8 16 17</rect></_>
    <_>
      <rect>
        4 4 8 16 22</rect></_>
    <_>
      <rect>
        4 4 8 16 25</rect></_>
    <_>
      <rect>
        4 4 8 16 26</rect></_>
    <_>
      <rect>
        4 4 8 16 27</rect></_>
    <_>
      <rect>
        4 4 8 16 30</rect></_>
    <_>
      <rect>
        4 4 8 16 31</rect></_>
    <_>
      <rect>
        4 4 8 16 34</rect></_>
    <_>
      <rect>
        4 8 8 16 1</rect></_>
    <_>
      <rect>
        4 8 8 16 2</rect></_>
    <_>
      <rect>
        4 8 8 16 3</rect></_>
    <_>
      <rect>
        4 8 8 16 4</rect></_>
    <_>
      <rect>
        4 8 8 16 8</rect></_>
    <_>
      <rect>
        4 8 8 16 9</rect></_>
    <_>
      <rect>
        4 8 8 16 10</rect></_>
    <_>
      <rect>
        4 8 8 16 15</rect></_>
    <_>
      <rect>
        4 8 8 16 16</rect></_>
    <_>
      <rect>
        4 8 8 16 17</rect></_>
    <_>
      <rect>
        4 8 8 16 19</rect></_>
    <_>
      <rect>
        4 8 8 16 20</rect></_>
    <_>
      <rect>
        4 8 8 16 21</rect></_>
    <_>
      <rect>
        4 8 8 16 23</rect></_>
    <_>
      <rect>
        4 8 8 16 26</rect></_>
    <_>
      <rect>
        4 8 8 16 27</rect></_>
    <_>
      <rect>
        4 8 8 16 30</rect></_>
    <_>
      <rect>
        4 8 8 16 31</rect></_>
    <_>
      <rect>
        4 8 8 16 35</rect></_></features></cascade>
</opencv_storage>
