<?xml version="1.0"?>
<opencv_storage>
<cascade>
  <stageType>BOOST</stageType>
  <featureType>HOG</featureType>
  <height>40</height>
  <width>20</width>
  <stageParams>
    <boostType>GAB</boostType>
    <minHitRate>9.9500000476837158e-001</minHitRate>
    <maxFalseAlarm>5.0000000000000000e-001</maxFalseAlarm>
    <weightTrimRate>9.4999998807907104e-001</weightTrimRate>
    <maxDepth>1</maxDepth>
    <maxWeakCount>100</maxWeakCount></stageParams>
  <featureParams>
    <maxCatCount>0</maxCatCount>
    <featSize>36</featSize></featureParams>
  <stageNum>16</stageNum>
  <stages>
    <!-- stage 0 -->
    <_>
      <maxWeakCount>1</maxWeakCount>
      <stageThreshold>1.</stageThreshold>
      <weakClassifiers>
        <_>
          <internalNodes>
            0 -1 277 9.3899681814946234e-005</internalNodes>
          <leafValues>
            -9.9800199270248413e-001 1.</leafValues></_></weakClassifiers></_>
    <!-- stage 1 -->
    <_>
      <maxWeakCount>3</maxWeakCount>
      <stageThreshold>9.0442597866058350e-001</stageThreshold>
      <weakClassifiers>
        <_>
          <internalNodes>
            0 -1 224 5.9780042618513107e-002</internalNodes>
          <leafValues>
            9.6216118335723877e-001 -6.4236110448837280e-001</leafValues></_>
        <_>
          <internalNodes>
            0 -1 215 4.5449208468198776e-002</internalNodes>
          <leafValues>
            8.6321777105331421e-001 -6.6132712364196777e-001</leafValues></_>
        <_>
          <internalNodes>
            0 -1 284 2.6490999385714531e-002</internalNodes>
          <leafValues>
            6.8356931209564209e-001 -5.1960653066635132e-001</leafValues></_></weakClassifiers></_>
    <!-- stage 2 -->
    <_>
      <maxWeakCount>12</maxWeakCount>
      <stageThreshold>-7.2970531880855560e-002</stageThreshold>
      <weakClassifiers>
        <_>
          <internalNodes>
            0 -1 275 8.1239417195320129e-002</internalNodes>
          <leafValues>
            9.4242918491363525e-001 -4.7081711888313293e-001</leafValues></_>
        <_>
          <internalNodes>
            0 -1 224 2.6144750416278839e-002</internalNodes>
          <leafValues>
            8.2052522897720337e-001 -2.0549415051937103e-001</leafValues></_>
        <_>
          <internalNodes>
            0 -1 22 7.4301138520240784e-003</internalNodes>
          <leafValues>
            7.3644125461578369e-001 -2.3616269230842590e-001</leafValues></_>
        <_>
          <internalNodes>
            0 -1 172 1.1446017771959305e-002</internalNodes>
          <leafValues>
            4.9351298809051514e-001 -3.4161266684532166e-001</leafValues></_>
        <_>
          <internalNodes>
            0 -1 3 9.6405402291566133e-004</internalNodes>
          <leafValues>
            5.9139126539230347e-001 -2.4557536840438843e-001</leafValues></_>
        <_>
          <internalNodes>
            0 -1 111 1.3916452880948782e-003</internalNodes>
          <leafValues>
            5.9588044881820679e-001 -2.4740552902221680e-001</leafValues></_>
        <_>
          <internalNodes>
            0 -1 292 2.4840421974658966e-002</internalNodes>
          <leafValues>
            -2.9712373018264771e-001 4.3885549902915955e-001</leafValues></_>
        <_>
          <internalNodes>
            0 -1 255 1.1206485331058502e-001</internalNodes>
          <leafValues>
            1.5071655809879303e-001 -7.6650255918502808e-001</leafValues></_>
        <_>
          <internalNodes>
            0 -1 73 4.3732477352023125e-003</internalNodes>
          <leafValues>
            4.5889556407928467e-001 -2.1828222274780273e-001</leafValues></_>
        <_>
          <internalNodes>
            0 -1 259 2.5178730487823486e-002</internalNodes>
          <leafValues>
            -2.4367561936378479e-001 3.6797299981117249e-001</leafValues></_>
        <_>
          <internalNodes>
            0 -1 105 1.6343042254447937e-002</internalNodes>
          <leafValues>
            -2.7359628677368164e-001 3.2025507092475891e-001</leafValues></_>
        <_>
          <internalNodes>
            0 -1 214 4.4111140072345734e-002</internalNodes>
          <leafValues>
            1.1679264158010483e-001 -7.9908680915832520e-001</leafValues></_></weakClassifiers></_>
    <!-- stage 3 -->
    <_>
      <maxWeakCount>13</maxWeakCount>
      <stageThreshold>1.0220849514007568e-001</stageThreshold>
      <weakClassifiers>
        <_>
          <internalNodes>
            0 -1 268 6.5087229013442993e-002</internalNodes>
          <leafValues>
            9.4016730785369873e-001 -4.2465752363204956e-001</leafValues></_>
        <_>
          <internalNodes>
            0 -1 215 2.5659833103418350e-002</internalNodes>
          <leafValues>
            7.9123252630233765e-001 -8.6562700569629669e-002</leafValues></_>
        <_>
          <internalNodes>
            0 -1 224 1.5730161219835281e-002</internalNodes>
          <leafValues>
            5.2770513296127319e-001 -3.3924058079719543e-001</leafValues></_>
        <_>
          <internalNodes>
            0 -1 271 2.9787618666887283e-002</internalNodes>
          <leafValues>
            -5.3230571746826172e-001 3.3209952712059021e-001</leafValues></_>
        <_>
          <internalNodes>
            0 -1 3 1.6517280600965023e-003</internalNodes>
          <leafValues>
            5.0572955608367920e-001 -3.3950793743133545e-001</leafValues></_>
        <_>
          <internalNodes>
            0 -1 10 1.4669927768409252e-002</internalNodes>
          <leafValues>
            -3.4184995293617249e-001 4.2837753891944885e-001</leafValues></_>
        <_>
          <internalNodes>
            0 -1 207 3.4953888505697250e-002</internalNodes>
          <leafValues>
            -5.0678056478500366e-001 2.4169336259365082e-001</leafValues></_>
        <_>
          <internalNodes>
            0 -1 106 5.9625897556543350e-003</internalNodes>
          <leafValues>
            -4.6229663491249084e-001 2.3429603874683380e-001</leafValues></_>
        <_>
          <internalNodes>
            0 -1 22 1.8434794619679451e-003</internalNodes>
          <leafValues>
            6.0070854425430298e-001 -2.2716350853443146e-001</leafValues></_>
        <_>
          <internalNodes>
            0 -1 275 3.3299736678600311e-002</internalNodes>
          <leafValues>
            2.1284295618534088e-001 -5.3224909305572510e-001</leafValues></_>
        <_>
          <internalNodes>
            0 -1 240 1.3501175679266453e-002</internalNodes>
          <leafValues>
            -3.1340390443801880e-001 3.0902987718582153e-001</leafValues></_>
        <_>
          <internalNodes>
            0 -1 172 6.5189483575522900e-003</internalNodes>
          <leafValues>
            3.5528346896171570e-001 -2.0898821949958801e-001</leafValues></_>
        <_>
          <internalNodes>
            0 -1 192 1.4044237323105335e-002</internalNodes>
          <leafValues>
            -3.9888432621955872e-001 2.1466210484504700e-001</leafValues></_></weakClassifiers></_>
    <!-- stage 4 -->
    <_>
      <maxWeakCount>10</maxWeakCount>
      <stageThreshold>4.4060852378606796e-002</stageThreshold>
      <weakClassifiers>
        <_>
          <internalNodes>
            0 -1 34 3.7088731914991513e-005</internalNodes>
          <leafValues>
            -7.3863637447357178e-001 9.4004601240158081e-001</leafValues></_>
        <_>
          <internalNodes>
            0 -1 269 2.2245230153203011e-002</internalNodes>
          <leafValues>
            8.5393911600112915e-001 -6.6726721823215485e-002</leafValues></_>
        <_>
          <internalNodes>
            0 -1 205 1.8893633037805557e-002</internalNodes>
          <leafValues>
            6.2123870849609375e-001 -3.9688381552696228e-001</leafValues></_>
        <_>
          <internalNodes>
            0 -1 207 4.3939869850873947e-002</internalNodes>
          <leafValues>
            -4.4156453013420105e-001 4.8918825387954712e-001</leafValues></_>
        <_>
          <internalNodes>
            0 -1 281 5.0320085138082504e-003</internalNodes>
          <leafValues>
            -8.1330364942550659e-001 2.3131343722343445e-001</leafValues></_>
        <_>
          <internalNodes>
            0 -1 22 1.3129686936736107e-002</internalNodes>
          <leafValues>
            3.3296200633049011e-001 -5.3616857528686523e-001</leafValues></_>
        <_>
          <internalNodes>
            0 -1 275 2.0449446514248848e-002</internalNodes>
          <leafValues>
            3.6565732955932617e-001 -3.9646729826927185e-001</leafValues></_>
        <_>
          <internalNodes>
            0 -1 213 6.5808966755867004e-003</internalNodes>
          <leafValues>
            -6.7118984460830688e-001 2.1998073160648346e-001</leafValues></_>
        <_>
          <internalNodes>
            0 -1 204 1.8137611448764801e-002</internalNodes>
          <leafValues>
            2.5531938672065735e-001 -4.5500960946083069e-001</leafValues></_>
        <_>
          <internalNodes>
            0 -1 225 4.2690830305218697e-003</internalNodes>
          <leafValues>
            -6.8178713321685791e-001 1.6077965497970581e-001</leafValues></_></weakClassifiers></_>
    <!-- stage 5 -->
    <_>
      <maxWeakCount>5</maxWeakCount>
      <stageThreshold>1.4038693904876709e-001</stageThreshold>
      <weakClassifiers>
        <_>
          <internalNodes>
            0 -1 223 1.9336283206939697e-002</internalNodes>
          <leafValues>
            9.7597622871398926e-001 6.3584709167480469e-001</leafValues></_>
        <_>
          <internalNodes>
            0 -1 2 6.6985012963414192e-003</internalNodes>
          <leafValues>
            9.4301563501358032e-001 1.4662961661815643e-001</leafValues></_>
        <_>
          <internalNodes>
            0 -1 268 1.5341721475124359e-002</internalNodes>
          <leafValues>
            8.1327688694000244e-001 -3.5325068235397339e-001</leafValues></_>
        <_>
          <internalNodes>
            0 -1 56 7.1327583864331245e-003</internalNodes>
          <leafValues>
            8.0170482397079468e-001 -3.0970358848571777e-001</leafValues></_>
        <_>
          <internalNodes>
            0 -1 3 4.5106476172804832e-003</internalNodes>
          <leafValues>
            7.4419951438903809e-001 -3.1926459074020386e-001</leafValues></_></weakClassifiers></_>
    <!-- stage 6 -->
    <_>
      <maxWeakCount>9</maxWeakCount>
      <stageThreshold>-2.6490157470107079e-002</stageThreshold>
      <weakClassifiers>
        <_>
          <internalNodes>
            0 -1 2 4.3268408626317978e-003</internalNodes>
          <leafValues>
            9.8552531003952026e-001 7.9633158445358276e-001</leafValues></_>
        <_>
          <internalNodes>
            0 -1 269 1.4399616979062557e-002</internalNodes>
          <leafValues>
            8.7938326597213745e-001 1.9270379841327667e-001</leafValues></_>
        <_>
          <internalNodes>
            0 -1 2 3.0674487352371216e-003</internalNodes>
          <leafValues>
            7.9208540916442871e-001 -2.1590796113014221e-001</leafValues></_>
        <_>
          <internalNodes>
            0 -1 236 5.2214186638593674e-002</internalNodes>
          <leafValues>
            -3.4787881374359131e-001 7.0406025648117065e-001</leafValues></_>
        <_>
          <internalNodes>
            0 -1 111 2.6007965207099915e-003</internalNodes>
          <leafValues>
            7.7663326263427734e-001 -2.4207308888435364e-001</leafValues></_>
        <_>
          <internalNodes>
            0 -1 277 5.0015594810247421e-002</internalNodes>
          <leafValues>
            -2.8169855475425720e-001 5.4748660326004028e-001</leafValues></_>
        <_>
          <internalNodes>
            0 -1 57 1.3074649032205343e-003</internalNodes>
          <leafValues>
            7.7658540010452271e-001 -1.8104551732540131e-001</leafValues></_>
        <_>
          <internalNodes>
            0 -1 9 3.6809556186199188e-002</internalNodes>
          <leafValues>
            -2.0927289128303528e-001 5.6701886653900146e-001</leafValues></_>
        <_>
          <internalNodes>
            0 -1 242 1.7227016389369965e-002</internalNodes>
          <leafValues>
            2.9485157132148743e-001 -3.6683389544487000e-001</leafValues></_></weakClassifiers></_>
    <!-- stage 7 -->
    <_>
      <maxWeakCount>19</maxWeakCount>
      <stageThreshold>-1.1481166630983353e-001</stageThreshold>
      <weakClassifiers>
        <_>
          <internalNodes>
            0 -1 3 4.2505441233515739e-003</internalNodes>
          <leafValues>
            9.8178082704544067e-001 8.2478815317153931e-001</leafValues></_>
        <_>
          <internalNodes>
            0 -1 22 5.0122169777750969e-003</internalNodes>
          <leafValues>
            9.0656650066375732e-001 3.2586553692817688e-001</leafValues></_>
        <_>
          <internalNodes>
            0 -1 73 4.5406124554574490e-003</internalNodes>
          <leafValues>
            6.9865018129348755e-001 -1.4854261279106140e-001</leafValues></_>
        <_>
          <internalNodes>
            0 -1 111 2.3993472568690777e-003</internalNodes>
          <leafValues>
            6.7777097225189209e-001 -2.1275737881660461e-001</leafValues></_>
        <_>
          <internalNodes>
            0 -1 8 3.1249675899744034e-002</internalNodes>
          <leafValues>
            -2.5597858428955078e-001 5.4114830493927002e-001</leafValues></_>
        <_>
          <internalNodes>
            0 -1 146 7.7660195529460907e-003</internalNodes>
          <leafValues>
            4.6579787135124207e-001 -2.7899420261383057e-001</leafValues></_>
        <_>
          <internalNodes>
            0 -1 3 4.3665958219207823e-004</internalNodes>
          <leafValues>
            5.2516007423400879e-001 -2.1609325706958771e-001</leafValues></_>
        <_>
          <internalNodes>
            0 -1 236 2.9877554625272751e-002</internalNodes>
          <leafValues>
            -4.8390293121337891e-001 2.1665850281715393e-001</leafValues></_>
        <_>
          <internalNodes>
            0 -1 107 3.2509453594684601e-002</internalNodes>
          <leafValues>
            -1.9847157597541809e-001 4.5732337236404419e-001</leafValues></_>
        <_>
          <internalNodes>
            0 -1 277 3.3591713756322861e-002</internalNodes>
          <leafValues>
            -3.8296970725059509e-001 2.4132488667964935e-001</leafValues></_>
        <_>
          <internalNodes>
            0 -1 2 1.7751315608620644e-003</internalNodes>
          <leafValues>
            3.1721690297126770e-001 -1.9885039329528809e-001</leafValues></_>
        <_>
          <internalNodes>
            0 -1 200 6.6967178136110306e-003</internalNodes>
          <leafValues>
            -4.4711783528327942e-001 1.4197850227355957e-001</leafValues></_>
        <_>
          <internalNodes>
            0 -1 280 4.1920036077499390e-002</internalNodes>
          <leafValues>
            -3.4867364168167114e-001 2.3592223227024078e-001</leafValues></_>
        <_>
          <internalNodes>
            0 -1 93 1.1426672339439392e-002</internalNodes>
          <leafValues>
            2.8150579333305359e-001 -2.1456463634967804e-001</leafValues></_>
        <_>
          <internalNodes>
            0 -1 48 6.4326566644012928e-004</internalNodes>
          <leafValues>
            6.5880948305130005e-001 -7.6798960566520691e-002</leafValues></_>
        <_>
          <internalNodes>
            0 -1 253 2.8281242121011019e-003</internalNodes>
          <leafValues>
            -5.7782483100891113e-001 1.0740713030099869e-001</leafValues></_>
        <_>
          <internalNodes>
            0 -1 112 1.2708846479654312e-002</internalNodes>
          <leafValues>
            2.2786091268062592e-001 -2.6699501276016235e-001</leafValues></_>
        <_>
          <internalNodes>
            0 -1 86 7.2877988219261169e-002</internalNodes>
          <leafValues>
            -9.6137948334217072e-002 5.4502850770950317e-001</leafValues></_>
        <_>
          <internalNodes>
            0 -1 184 6.4742930233478546e-002</internalNodes>
          <leafValues>
            -1.4450213313102722e-001 2.6631864905357361e-001</leafValues></_></weakClassifiers></_>
    <!-- stage 8 -->
    <_>
      <maxWeakCount>37</maxWeakCount>
      <stageThreshold>9.8620824515819550e-002</stageThreshold>
      <weakClassifiers>
        <_>
          <internalNodes>
            0 -1 246 7.0146808866411448e-004</internalNodes>
          <leafValues>
            -5.6204378604888916e-001 9.3687707185745239e-001</leafValues></_>
        <_>
          <internalNodes>
            0 -1 3 1.9365635234862566e-003</internalNodes>
          <leafValues>
            8.6545121669769287e-001 3.5988640785217285e-001</leafValues></_>
        <_>
          <internalNodes>
            0 -1 33 6.1367161106318235e-004</internalNodes>
          <leafValues>
            7.5375950336456299e-001 -1.2089594965800643e-003</leafValues></_>
        <_>
          <internalNodes>
            0 -1 9 1.8719170242547989e-002</internalNodes>
          <leafValues>
            -3.1941136717796326e-001 3.2133504748344421e-001</leafValues></_>
        <_>
          <internalNodes>
            0 -1 111 1.5811892226338387e-003</internalNodes>
          <leafValues>
            4.0090718865394592e-001 -2.6479718089103699e-001</leafValues></_>
        <_>
          <internalNodes>
            0 -1 192 9.1526925098150969e-004</internalNodes>
          <leafValues>
            -7.7606546878814697e-001 1.3947062194347382e-001</leafValues></_>
        <_>
          <internalNodes>
            0 -1 224 1.3033968396484852e-002</internalNodes>
          <leafValues>
            1.8473756313323975e-001 -3.7958618998527527e-001</leafValues></_>
        <_>
          <internalNodes>
            0 -1 2 3.0322477687150240e-004</internalNodes>
          <leafValues>
            3.6468917131423950e-001 -1.9577224552631378e-001</leafValues></_>
        <_>
          <internalNodes>
            0 -1 259 1.2771934270858765e-003</internalNodes>
          <leafValues>
            -8.3703953027725220e-001 8.5719585418701172e-002</leafValues></_>
        <_>
          <internalNodes>
            0 -1 152 7.4370985385030508e-004</internalNodes>
          <leafValues>
            4.9544546008110046e-001 -1.3277344405651093e-001</leafValues></_>
        <_>
          <internalNodes>
            0 -1 255 1.5543331205844879e-001</internalNodes>
          <leafValues>
            6.9262139499187469e-002 -8.5534799098968506e-001</leafValues></_>
        <_>
          <internalNodes>
            0 -1 226 4.2065065354108810e-002</internalNodes>
          <leafValues>
            -3.0670928955078125e-001 1.7993175983428955e-001</leafValues></_>
        <_>
          <internalNodes>
            0 -1 90 7.2560235857963562e-002</internalNodes>
          <leafValues>
            -1.0675407201051712e-001 5.8224141597747803e-001</leafValues></_>
        <_>
          <internalNodes>
            0 -1 106 1.4089161530137062e-002</internalNodes>
          <leafValues>
            -2.1895489096641541e-001 2.3429960012435913e-001</leafValues></_>
        <_>
          <internalNodes>
            0 -1 22 1.1157495900988579e-003</internalNodes>
          <leafValues>
            3.4848687052726746e-001 -1.3745051622390747e-001</leafValues></_>
        <_>
          <internalNodes>
            0 -1 293 4.7315342817455530e-004</internalNodes>
          <leafValues>
            -8.6844640970230103e-001 5.7673078030347824e-002</leafValues></_>
        <_>
          <internalNodes>
            0 -1 186 2.0933382213115692e-002</internalNodes>
          <leafValues>
            -1.7096114158630371e-001 2.3242771625518799e-001</leafValues></_>
        <_>
          <internalNodes>
            0 -1 83 5.5413700640201569e-002</internalNodes>
          <leafValues>
            -1.9251297414302826e-001 2.4010309576988220e-001</leafValues></_>
        <_>
          <internalNodes>
            0 -1 18 2.9572393745183945e-002</internalNodes>
          <leafValues>
            -1.2620493769645691e-001 3.2540065050125122e-001</leafValues></_>
        <_>
          <internalNodes>
            0 -1 284 2.5994015857577324e-002</internalNodes>
          <leafValues>
            1.0649914294481277e-001 -3.9270246028900146e-001</leafValues></_>
        <_>
          <internalNodes>
            0 -1 4 7.1370094083249569e-003</internalNodes>
          <leafValues>
            2.6781144738197327e-001 -1.3726733624935150e-001</leafValues></_>
        <_>
          <internalNodes>
            0 -1 218 4.0767617523670197e-002</internalNodes>
          <leafValues>
            -2.6404380798339844e-001 1.9044172763824463e-001</leafValues></_>
        <_>
          <internalNodes>
            0 -1 10 3.0527753755450249e-002</internalNodes>
          <leafValues>
            -1.1299700289964676e-001 3.4461995959281921e-001</leafValues></_>
        <_>
          <internalNodes>
            0 -1 128 1.6561046242713928e-002</internalNodes>
          <leafValues>
            1.6127759218215942e-001 -2.3021157085895538e-001</leafValues></_>
        <_>
          <internalNodes>
            0 -1 115 1.2496778368949890e-001</internalNodes>
          <leafValues>
            7.1455009281635284e-002 -5.6199961900711060e-001</leafValues></_>
        <_>
          <internalNodes>
            0 -1 109 2.4385266442550346e-005</internalNodes>
          <leafValues>
            -8.7972885370254517e-001 3.1480316072702408e-002</leafValues></_>
        <_>
          <internalNodes>
            0 -1 227 7.0519313216209412e-002</internalNodes>
          <leafValues>
            -8.5705965757369995e-002 4.2541012167930603e-001</leafValues></_>
        <_>
          <internalNodes>
            0 -1 287 1.9781231880187988e-002</internalNodes>
          <leafValues>
            -1.4410866796970367e-001 2.4822385609149933e-001</leafValues></_>
        <_>
          <internalNodes>
            0 -1 214 1.7717439681291580e-002</internalNodes>
          <leafValues>
            1.1823622882366180e-001 -2.7181923389434814e-001</leafValues></_>
        <_>
          <internalNodes>
            0 -1 100 1.0434604249894619e-002</internalNodes>
          <leafValues>
            -2.2389271855354309e-001 1.3578541576862335e-001</leafValues></_>
        <_>
          <internalNodes>
            0 -1 112 2.2115525789558887e-003</internalNodes>
          <leafValues>
            2.7198958396911621e-001 -1.0996010154485703e-001</leafValues></_>
        <_>
          <internalNodes>
            0 -1 7 3.7642087787389755e-002</internalNodes>
          <leafValues>
            -8.7086796760559082e-002 3.8879498839378357e-001</leafValues></_>
        <_>
          <internalNodes>
            0 -1 206 7.6497637201100588e-004</internalNodes>
          <leafValues>
            -7.3018562793731689e-001 4.8230063170194626e-002</leafValues></_>
        <_>
          <internalNodes>
            0 -1 107 6.6568963229656219e-002</internalNodes>
          <leafValues>
            -5.8768939226865768e-002 5.9926408529281616e-001</leafValues></_>
        <_>
          <internalNodes>
            0 -1 164 1.6469066031277180e-003</internalNodes>
          <leafValues>
            -8.2646918296813965e-001 4.2095165699720383e-002</leafValues></_>
        <_>
          <internalNodes>
            0 -1 142 5.1827868446707726e-004</internalNodes>
          <leafValues>
            5.0425398349761963e-001 -6.8195335566997528e-002</leafValues></_>
        <_>
          <internalNodes>
            0 -1 109 1.6304296255111694e-001</internalNodes>
          <leafValues>
            4.4775303453207016e-002 -6.8349915742874146e-001</leafValues></_></weakClassifiers></_>
    <!-- stage 9 -->
    <_>
      <maxWeakCount>12</maxWeakCount>
      <stageThreshold>1.6051219403743744e-001</stageThreshold>
      <weakClassifiers>
        <_>
          <internalNodes>
            0 -1 284 6.9107569754123688e-002</internalNodes>
          <leafValues>
            9.4183033704757690e-001 -3.3088234066963196e-001</leafValues></_>
        <_>
          <internalNodes>
            0 -1 293 6.6039860248565674e-003</internalNodes>
          <leafValues>
            -1.2826514244079590e-001 7.5245106220245361e-001</leafValues></_>
        <_>
          <internalNodes>
            0 -1 213 1.8111206591129303e-002</internalNodes>
          <leafValues>
            -3.2198306918144226e-001 5.0659853219985962e-001</leafValues></_>
        <_>
          <internalNodes>
            0 -1 247 3.5657212138175964e-002</internalNodes>
          <leafValues>
            -2.8368088603019714e-001 5.1139432191848755e-001</leafValues></_>
        <_>
          <internalNodes>
            0 -1 22 6.8505562376230955e-004</internalNodes>
          <leafValues>
            6.0213667154312134e-001 -2.2306644916534424e-001</leafValues></_>
        <_>
          <internalNodes>
            0 -1 276 1.5586007386445999e-002</internalNodes>
          <leafValues>
            -4.4596171379089355e-001 2.3820225894451141e-001</leafValues></_>
        <_>
          <internalNodes>
            0 -1 104 1.1430742219090462e-002</internalNodes>
          <leafValues>
            -3.9029181003570557e-001 2.6521751284599304e-001</leafValues></_>
        <_>
          <internalNodes>
            0 -1 44 9.2553475406020880e-004</internalNodes>
          <leafValues>
            5.7678741216659546e-001 -2.0253284275531769e-001</leafValues></_>
        <_>
          <internalNodes>
            0 -1 206 1.5722535550594330e-002</internalNodes>
          <leafValues>
            -4.0049609541893005e-001 2.3515646159648895e-001</leafValues></_>
        <_>
          <internalNodes>
            0 -1 219 1.7769802361726761e-002</internalNodes>
          <leafValues>
            -4.0094360709190369e-001 2.1568121016025543e-001</leafValues></_>
        <_>
          <internalNodes>
            0 -1 241 2.4471845477819443e-002</internalNodes>
          <leafValues>
            -2.3356263339519501e-001 3.7004348635673523e-001</leafValues></_>
        <_>
          <internalNodes>
            0 -1 275 3.4270942211151123e-002</internalNodes>
          <leafValues>
            1.3311442732810974e-001 -5.2110666036605835e-001</leafValues></_></weakClassifiers></_>
    <!-- stage 10 -->
    <_>
      <maxWeakCount>57</maxWeakCount>
      <stageThreshold>-1.3224318623542786e-001</stageThreshold>
      <weakClassifiers>
        <_>
          <internalNodes>
            0 -1 193 7.4830755591392517e-002</internalNodes>
          <leafValues>
            9.3378746509552002e-001 -2.6530611515045166e-001</leafValues></_>
        <_>
          <internalNodes>
            0 -1 215 1.8541228026151657e-002</internalNodes>
          <leafValues>
            7.5585877895355225e-001 1.7130114138126373e-001</leafValues></_>
        <_>
          <internalNodes>
            0 -1 3 4.9535138532519341e-004</internalNodes>
          <leafValues>
            5.8883857727050781e-001 -1.1219720542430878e-001</leafValues></_>
        <_>
          <internalNodes>
            0 -1 172 3.9206235669553280e-003</internalNodes>
          <leafValues>
            4.8531833291053772e-001 -2.3731058835983276e-001</leafValues></_>
        <_>
          <internalNodes>
            0 -1 73 7.4697076342999935e-004</internalNodes>
          <leafValues>
            5.5378228425979614e-001 -1.5905754268169403e-001</leafValues></_>
        <_>
          <internalNodes>
            0 -1 201 2.4400446563959122e-002</internalNodes>
          <leafValues>
            -2.6374271512031555e-001 3.0504652857780457e-001</leafValues></_>
        <_>
          <internalNodes>
            0 -1 105 1.3703349977731705e-002</internalNodes>
          <leafValues>
            -2.8862786293029785e-001 2.5182041525840759e-001</leafValues></_>
        <_>
          <internalNodes>
            0 -1 128 2.9093811754137278e-003</internalNodes>
          <leafValues>
            4.6983355283737183e-001 -1.5826849639415741e-001</leafValues></_>
        <_>
          <internalNodes>
            0 -1 244 2.4947909638285637e-002</internalNodes>
          <leafValues>
            1.3904714584350586e-001 -4.4253471493721008e-001</leafValues></_>
        <_>
          <internalNodes>
            0 -1 248 2.1529430523514748e-003</internalNodes>
          <leafValues>
            -5.4359376430511475e-001 1.1333782970905304e-001</leafValues></_>
        <_>
          <internalNodes>
            0 -1 178 1.4863092452287674e-002</internalNodes>
          <leafValues>
            2.3594501614570618e-001 -2.6616281270980835e-001</leafValues></_>
        <_>
          <internalNodes>
            0 -1 9 2.8558060526847839e-002</internalNodes>
          <leafValues>
            -2.0615836977958679e-001 2.0731569826602936e-001</leafValues></_>
        <_>
          <internalNodes>
            0 -1 111 9.3784707132726908e-004</internalNodes>
          <leafValues>
            3.6089751124382019e-001 -1.2840196490287781e-001</leafValues></_>
        <_>
          <internalNodes>
            0 -1 266 4.7719394788146019e-003</internalNodes>
          <leafValues>
            -6.6216808557510376e-001 6.6648811101913452e-002</leafValues></_>
        <_>
          <internalNodes>
            0 -1 22 8.2017882959917188e-004</internalNodes>
          <leafValues>
            3.9028584957122803e-001 -1.3743863999843597e-001</leafValues></_>
        <_>
          <internalNodes>
            0 -1 253 4.6709086745977402e-003</internalNodes>
          <leafValues>
            -5.0612992048263550e-001 1.1739629507064819e-001</leafValues></_>
        <_>
          <internalNodes>
            0 -1 182 6.1012074351310730e-002</internalNodes>
          <leafValues>
            -1.0032509267330170e-001 4.4302749633789063e-001</leafValues></_>
        <_>
          <internalNodes>
            0 -1 174 5.6181382387876511e-002</internalNodes>
          <leafValues>
            -1.0496027767658234e-001 4.1613391041755676e-001</leafValues></_>
        <_>
          <internalNodes>
            0 -1 277 2.5370605289936066e-002</internalNodes>
          <leafValues>
            -3.7278276681900024e-001 9.9866181612014771e-002</leafValues></_>
        <_>
          <internalNodes>
            0 -1 251 2.6336582377552986e-002</internalNodes>
          <leafValues>
            -1.5643697977066040e-001 2.3363739252090454e-001</leafValues></_>
        <_>
          <internalNodes>
            0 -1 47 1.0649594478309155e-003</internalNodes>
          <leafValues>
            3.7326639890670776e-001 -9.7833894193172455e-002</leafValues></_>
        <_>
          <internalNodes>
            0 -1 187 1.4536510407924652e-001</internalNodes>
          <leafValues>
            7.1334451436996460e-002 -5.4628509283065796e-001</leafValues></_>
        <_>
          <internalNodes>
            0 -1 206 1.1757904663681984e-002</internalNodes>
          <leafValues>
            -3.4627389907836914e-001 9.1961011290550232e-002</leafValues></_>
        <_>
          <internalNodes>
            0 -1 223 2.5571182370185852e-002</internalNodes>
          <leafValues>
            7.7025778591632843e-002 -4.2136356234550476e-001</leafValues></_>
        <_>
          <internalNodes>
            0 -1 236 1.7583015561103821e-001</internalNodes>
          <leafValues>
            4.8616100102663040e-002 -6.5719795227050781e-001</leafValues></_>
        <_>
          <internalNodes>
            0 -1 36 9.0638478286564350e-004</internalNodes>
          <leafValues>
            5.6988334655761719e-001 -6.2755972146987915e-002</leafValues></_>
        <_>
          <internalNodes>
            0 -1 260 1.4292249083518982e-001</internalNodes>
          <leafValues>
            4.7416139394044876e-002 -6.3956469297409058e-001</leafValues></_>
        <_>
          <internalNodes>
            0 -1 275 2.6920162141323090e-002</internalNodes>
          <leafValues>
            1.0006229579448700e-001 -2.8018218278884888e-001</leafValues></_>
        <_>
          <internalNodes>
            0 -1 87 7.4916862649843097e-004</internalNodes>
          <leafValues>
            5.0258398056030273e-001 -5.5581111460924149e-002</leafValues></_>
        <_>
          <internalNodes>
            0 -1 115 2.8678901799139567e-005</internalNodes>
          <leafValues>
            -7.3872983455657959e-001 4.0780451148748398e-002</leafValues></_>
        <_>
          <internalNodes>
            0 -1 112 7.1140739601105452e-004</internalNodes>
          <leafValues>
            3.5922271013259888e-001 -9.6180655062198639e-002</leafValues></_>
        <_>
          <internalNodes>
            0 -1 1 4.1512171737849712e-003</internalNodes>
          <leafValues>
            2.2515697777271271e-001 -1.1968734115362167e-001</leafValues></_>
        <_>
          <internalNodes>
            0 -1 200 1.6950134187936783e-002</internalNodes>
          <leafValues>
            -1.8108113110065460e-001 1.5330119431018829e-001</leafValues></_>
        <_>
          <internalNodes>
            0 -1 25 5.6099660694599152e-002</internalNodes>
          <leafValues>
            -6.9807775318622589e-002 4.2354518175125122e-001</leafValues></_>
        <_>
          <internalNodes>
            0 -1 86 5.3370125591754913e-002</internalNodes>
          <leafValues>
            -9.8243959248065948e-002 2.5307700037956238e-001</leafValues></_>
        <_>
          <internalNodes>
            0 -1 263 3.5516833886504173e-003</internalNodes>
          <leafValues>
            -3.0606821179389954e-001 8.1777609884738922e-002</leafValues></_>
        <_>
          <internalNodes>
            0 -1 207 4.3853215873241425e-002</internalNodes>
          <leafValues>
            -2.1206966042518616e-001 1.2323074787855148e-001</leafValues></_>
        <_>
          <internalNodes>
            0 -1 58 7.3443561792373657e-002</internalNodes>
          <leafValues>
            -5.1432505249977112e-002 4.8582988977432251e-001</leafValues></_>
        <_>
          <internalNodes>
            0 -1 8 5.3021050989627838e-002</internalNodes>
          <leafValues>
            -6.3785798847675323e-002 3.5186237096786499e-001</leafValues></_>
        <_>
          <internalNodes>
            0 -1 131 8.7529957294464111e-002</internalNodes>
          <leafValues>
            2.8277680277824402e-002 -9.1880834102630615e-001</leafValues></_>
        <_>
          <internalNodes>
            0 -1 271 1.6233608126640320e-002</internalNodes>
          <leafValues>
            -4.3106666207313538e-001 4.1550341993570328e-002</leafValues></_>
        <_>
          <internalNodes>
            0 -1 170 4.0816256660036743e-004</internalNodes>
          <leafValues>
            4.8751345276832581e-001 -5.3061861544847488e-002</leafValues></_>
        <_>
          <internalNodes>
            0 -1 215 5.7147949934005737e-002</internalNodes>
          <leafValues>
            2.9062956571578979e-002 -7.7269530296325684e-001</leafValues></_>
        <_>
          <internalNodes>
            0 -1 93 2.0142588764429092e-003</internalNodes>
          <leafValues>
            3.0310040712356567e-001 -7.7651754021644592e-002</leafValues></_>
        <_>
          <internalNodes>
            0 -1 149 4.0971159934997559e-002</internalNodes>
          <leafValues>
            -4.9163665622472763e-002 3.9389970898628235e-001</leafValues></_>
        <_>
          <internalNodes>
            0 -1 274 5.1989618688821793e-002</internalNodes>
          <leafValues>
            -7.3738209903240204e-002 2.7859011292457581e-001</leafValues></_>
        <_>
          <internalNodes>
            0 -1 295 1.2693769531324506e-004</internalNodes>
          <leafValues>
            -5.2596223354339600e-001 4.2383506894111633e-002</leafValues></_>
        <_>
          <internalNodes>
            0 -1 270 4.9401096999645233e-002</internalNodes>
          <leafValues>
            -3.6114722490310669e-002 5.8977502584457397e-001</leafValues></_>
        <_>
          <internalNodes>
            0 -1 295 2.1846683695912361e-002</internalNodes>
          <leafValues>
            9.5531150698661804e-002 -2.0383694767951965e-001</leafValues></_>
        <_>
          <internalNodes>
            0 -1 118 6.4685501158237457e-002</internalNodes>
          <leafValues>
            -4.2053505778312683e-002 5.2271628379821777e-001</leafValues></_>
        <_>
          <internalNodes>
            0 -1 26 4.7183856368064880e-002</internalNodes>
          <leafValues>
            -1.1510911583900452e-001 1.7248250544071198e-001</leafValues></_>
        <_>
          <internalNodes>
            0 -1 287 8.0940183252096176e-003</internalNodes>
          <leafValues>
            -2.2850306332111359e-001 1.0965632647275925e-001</leafValues></_>
        <_>
          <internalNodes>
            0 -1 2 2.8066406957805157e-004</internalNodes>
          <leafValues>
            2.1726512908935547e-001 -9.0955898165702820e-002</leafValues></_>
        <_>
          <internalNodes>
            0 -1 146 1.4384032227098942e-002</internalNodes>
          <leafValues>
            1.1920083314180374e-001 -1.6633081436157227e-001</leafValues></_>
        <_>
          <internalNodes>
            0 -1 9 8.5047762840986252e-003</internalNodes>
          <leafValues>
            -2.6888412237167358e-001 7.4220418930053711e-002</leafValues></_>
        <_>
          <internalNodes>
            0 -1 98 3.2599918544292450e-002</internalNodes>
          <leafValues>
            -6.8879269063472748e-002 2.9883274435997009e-001</leafValues></_>
        <_>
          <internalNodes>
            0 -1 214 2.6622615754604340e-002</internalNodes>
          <leafValues>
            6.6366359591484070e-002 -3.0462086200714111e-001</leafValues></_></weakClassifiers></_>
    <!-- stage 11 -->
    <_>
      <maxWeakCount>77</maxWeakCount>
      <stageThreshold>-1.1328876018524170e-002</stageThreshold>
      <weakClassifiers>
        <_>
          <internalNodes>
            0 -1 278 9.3273356556892395e-002</internalNodes>
          <leafValues>
            9.3186300992965698e-001 -4.0425533056259155e-001</leafValues></_>
        <_>
          <internalNodes>
            0 -1 3 4.7981541138142347e-004</internalNodes>
          <leafValues>
            8.6911016702651978e-001 3.9793875813484192e-001</leafValues></_>
        <_>
          <internalNodes>
            0 -1 111 4.2866638978011906e-004</internalNodes>
          <leafValues>
            6.0917502641677856e-001 -8.2009965553879738e-003</leafValues></_>
        <_>
          <internalNodes>
            0 -1 73 5.4969766642898321e-004</internalNodes>
          <leafValues>
            5.0404226779937744e-001 -1.3958674669265747e-001</leafValues></_>
        <_>
          <internalNodes>
            0 -1 8 1.0221939533948898e-002</internalNodes>
          <leafValues>
            -3.7897634506225586e-001 1.4880324900150299e-001</leafValues></_>
        <_>
          <internalNodes>
            0 -1 14 5.2415946265682578e-004</internalNodes>
          <leafValues>
            4.8383316397666931e-001 -1.3685037195682526e-001</leafValues></_>
        <_>
          <internalNodes>
            0 -1 46 1.7174011096358299e-002</internalNodes>
          <leafValues>
            -5.4937052726745605e-001 9.3428365886211395e-002</leafValues></_>
        <_>
          <internalNodes>
            0 -1 255 1.2869732081890106e-001</internalNodes>
          <leafValues>
            6.3766948878765106e-002 -7.5257736444473267e-001</leafValues></_>
        <_>
          <internalNodes>
            0 -1 127 8.6994953453540802e-003</internalNodes>
          <leafValues>
            2.2621212899684906e-001 -2.4844738841056824e-001</leafValues></_>
        <_>
          <internalNodes>
            0 -1 115 1.3581621646881104e-001</internalNodes>
          <leafValues>
            7.0762261748313904e-002 -7.0070469379425049e-001</leafValues></_>
        <_>
          <internalNodes>
            0 -1 284 2.9070887714624405e-002</internalNodes>
          <leafValues>
            9.0234018862247467e-002 -5.4280740022659302e-001</leafValues></_>
        <_>
          <internalNodes>
            0 -1 2 5.9121358208358288e-004</internalNodes>
          <leafValues>
            2.6809254288673401e-001 -1.7948348820209503e-001</leafValues></_>
        <_>
          <internalNodes>
            0 -1 192 8.4515928756445646e-004</internalNodes>
          <leafValues>
            -7.2839075326919556e-001 6.1719276010990143e-002</leafValues></_>
        <_>
          <internalNodes>
            0 -1 70 7.1684099733829498e-002</internalNodes>
          <leafValues>
            -9.0711243450641632e-002 4.8505833745002747e-001</leafValues></_>
        <_>
          <internalNodes>
            0 -1 68 5.5061783641576767e-002</internalNodes>
          <leafValues>
            -1.2520593404769897e-001 3.1755146384239197e-001</leafValues></_>
        <_>
          <internalNodes>
            0 -1 161 6.9445342523977160e-004</internalNodes>
          <leafValues>
            3.9034876227378845e-001 -8.4650397300720215e-002</leafValues></_>
        <_>
          <internalNodes>
            0 -1 200 1.9508384168148041e-002</internalNodes>
          <leafValues>
            -1.7945414781570435e-001 1.8085065484046936e-001</leafValues></_>
        <_>
          <internalNodes>
            0 -1 97 9.6137207001447678e-003</internalNodes>
          <leafValues>
            -4.1583150625228882e-001 6.8796172738075256e-002</leafValues></_>
        <_>
          <internalNodes>
            0 -1 207 2.0568215847015381e-001</internalNodes>
          <leafValues>
            3.2102864235639572e-002 -7.7172774076461792e-001</leafValues></_>
        <_>
          <internalNodes>
            0 -1 22 3.7327478639781475e-003</internalNodes>
          <leafValues>
            2.1870175004005432e-001 -1.4827561378479004e-001</leafValues></_>
        <_>
          <internalNodes>
            0 -1 254 1.6887266188859940e-002</internalNodes>
          <leafValues>
            -2.3293167352676392e-001 1.5256986021995544e-001</leafValues></_>
        <_>
          <internalNodes>
            0 -1 17 6.1370083130896091e-004</internalNodes>
          <leafValues>
            5.5261510610580444e-001 -5.6076034903526306e-002</leafValues></_>
        <_>
          <internalNodes>
            0 -1 224 2.8434082865715027e-002</internalNodes>
          <leafValues>
            6.7869313061237335e-002 -4.4025549292564392e-001</leafValues></_>
        <_>
          <internalNodes>
            0 -1 102 1.4409336447715759e-001</internalNodes>
          <leafValues>
            5.4714813828468323e-002 -4.9036794900894165e-001</leafValues></_>
        <_>
          <internalNodes>
            0 -1 259 1.4263396151363850e-003</internalNodes>
          <leafValues>
            -6.8966901302337646e-001 3.4805554896593094e-002</leafValues></_>
        <_>
          <internalNodes>
            0 -1 112 4.8542013973928988e-004</internalNodes>
          <leafValues>
            3.3108019828796387e-001 -1.0351945459842682e-001</leafValues></_>
        <_>
          <internalNodes>
            0 -1 6 4.6270545572042465e-002</internalNodes>
          <leafValues>
            -7.5674526393413544e-002 3.6079457402229309e-001</leafValues></_>
        <_>
          <internalNodes>
            0 -1 184 4.8404246568679810e-002</internalNodes>
          <leafValues>
            -1.6040055453777313e-001 1.4723992347717285e-001</leafValues></_>
        <_>
          <internalNodes>
            0 -1 260 1.7712721228599548e-001</internalNodes>
          <leafValues>
            3.3217918127775192e-002 -8.0036771297454834e-001</leafValues></_>
        <_>
          <internalNodes>
            0 -1 123 2.7598196640610695e-002</internalNodes>
          <leafValues>
            -2.2526456415653229e-001 1.0657370090484619e-001</leafValues></_>
        <_>
          <internalNodes>
            0 -1 138 4.9869466572999954e-002</internalNodes>
          <leafValues>
            -8.2067564129829407e-002 2.7900287508964539e-001</leafValues></_>
        <_>
          <internalNodes>
            0 -1 222 3.2143561838893220e-005</internalNodes>
          <leafValues>
            -8.0524808168411255e-001 2.8188785538077354e-002</leafValues></_>
        <_>
          <internalNodes>
            0 -1 84 3.9398649823851883e-004</internalNodes>
          <leafValues>
            4.2531991004943848e-001 -6.4946457743644714e-002</leafValues></_>
        <_>
          <internalNodes>
            0 -1 249 7.1630077436566353e-003</internalNodes>
          <leafValues>
            -2.8298243880271912e-001 8.9272126555442810e-002</leafValues></_>
        <_>
          <internalNodes>
            0 -1 76 2.3816718021407723e-004</internalNodes>
          <leafValues>
            4.4586753845214844e-001 -4.9298360943794250e-002</leafValues></_>
        <_>
          <internalNodes>
            0 -1 51 1.0811071097850800e-001</internalNodes>
          <leafValues>
            2.9417242854833603e-002 -7.9938888549804688e-001</leafValues></_>
        <_>
          <internalNodes>
            0 -1 49 8.6203068494796753e-002</internalNodes>
          <leafValues>
            -4.1292507201433182e-002 5.9154194593429565e-001</leafValues></_>
        <_>
          <internalNodes>
            0 -1 4 3.4284545108675957e-003</internalNodes>
          <leafValues>
            2.4217042326927185e-001 -9.2757120728492737e-002</leafValues></_>
        <_>
          <internalNodes>
            0 -1 285 1.1139749549329281e-003</internalNodes>
          <leafValues>
            -6.6651469469070435e-001 3.6547478288412094e-002</leafValues></_>
        <_>
          <internalNodes>
            0 -1 254 6.1350371688604355e-003</internalNodes>
          <leafValues>
            -3.6681297421455383e-001 5.4171852767467499e-002</leafValues></_>
        <_>
          <internalNodes>
            0 -1 128 9.7067877650260925e-003</internalNodes>
          <leafValues>
            1.8737077713012695e-001 -1.2404109537601471e-001</leafValues></_>
        <_>
          <internalNodes>
            0 -1 261 5.8715306222438812e-002</internalNodes>
          <leafValues>
            -7.4931710958480835e-002 3.0182006955146790e-001</leafValues></_>
        <_>
          <internalNodes>
            0 -1 198 2.5274494662880898e-002</internalNodes>
          <leafValues>
            -1.2965914607048035e-001 1.7846292257308960e-001</leafValues></_>
        <_>
          <internalNodes>
            0 -1 164 3.8084771484136581e-002</internalNodes>
          <leafValues>
            -1.8368725478649139e-001 1.1846569180488586e-001</leafValues></_>
        <_>
          <internalNodes>
            0 -1 134 4.0404975414276123e-002</internalNodes>
          <leafValues>
            -8.1608869135379791e-002 2.8923010826110840e-001</leafValues></_>
        <_>
          <internalNodes>
            0 -1 207 5.2924957126379013e-002</internalNodes>
          <leafValues>
            -1.6001902520656586e-001 1.3672389090061188e-001</leafValues></_>
        <_>
          <internalNodes>
            0 -1 24 3.3008947968482971e-002</internalNodes>
          <leafValues>
            -6.0198921710252762e-002 3.7855011224746704e-001</leafValues></_>
        <_>
          <internalNodes>
            0 -1 1 5.3691281937062740e-004</internalNodes>
          <leafValues>
            3.1990873813629150e-001 -7.0581629872322083e-002</leafValues></_>
        <_>
          <internalNodes>
            0 -1 289 7.2157613933086395e-002</internalNodes>
          <leafValues>
            -4.2789846658706665e-002 5.1072061061859131e-001</leafValues></_>
        <_>
          <internalNodes>
            0 -1 141 5.5333159863948822e-002</internalNodes>
          <leafValues>
            -4.3634172528982162e-002 4.5120665431022644e-001</leafValues></_>
        <_>
          <internalNodes>
            0 -1 119 3.9238762110471725e-003</internalNodes>
          <leafValues>
            -6.1087799072265625e-001 3.6375891417264938e-002</leafValues></_>
        <_>
          <internalNodes>
            0 -1 136 4.3906558305025101e-002</internalNodes>
          <leafValues>
            -5.2759345620870590e-002 4.2813608050346375e-001</leafValues></_>
        <_>
          <internalNodes>
            0 -1 78 9.6191670745611191e-003</internalNodes>
          <leafValues>
            1.2998090684413910e-001 -1.3641126453876495e-001</leafValues></_>
        <_>
          <internalNodes>
            0 -1 103 6.2295916723087430e-004</internalNodes>
          <leafValues>
            -4.5064407587051392e-001 4.3185643851757050e-002</leafValues></_>
        <_>
          <internalNodes>
            0 -1 296 1.8597990274429321e-001</internalNodes>
          <leafValues>
            2.7450904250144958e-002 -7.0550698041915894e-001</leafValues></_>
        <_>
          <internalNodes>
            0 -1 234 3.4998256713151932e-002</internalNodes>
          <leafValues>
            3.7337366491556168e-002 -4.3788629770278931e-001</leafValues></_>
        <_>
          <internalNodes>
            0 -1 9 3.8146547973155975e-002</internalNodes>
          <leafValues>
            -1.0392575711011887e-001 1.8343551456928253e-001</leafValues></_>
        <_>
          <internalNodes>
            0 -1 111 1.1873845010995865e-002</internalNodes>
          <leafValues>
            1.3552805781364441e-001 -1.4172978699207306e-001</leafValues></_>
        <_>
          <internalNodes>
            0 -1 255 1.7981579899787903e-001</internalNodes>
          <leafValues>
            2.4868642911314964e-002 -7.9358786344528198e-001</leafValues></_>
        <_>
          <internalNodes>
            0 -1 47 2.2393073886632919e-003</internalNodes>
          <leafValues>
            2.4271798133850098e-001 -8.0899156630039215e-002</leafValues></_>
        <_>
          <internalNodes>
            0 -1 233 5.2997586317360401e-004</internalNodes>
          <leafValues>
            -7.0130789279937744e-001 2.4491198360919952e-002</leafValues></_>
        <_>
          <internalNodes>
            0 -1 3 9.2231258749961853e-003</internalNodes>
          <leafValues>
            1.1941389739513397e-001 -1.5791563689708710e-001</leafValues></_>
        <_>
          <internalNodes>
            0 -1 188 8.8682711124420166e-002</internalNodes>
          <leafValues>
            2.1064700558781624e-002 -7.6591008901596069e-001</leafValues></_>
        <_>
          <internalNodes>
            0 -1 99 9.2789977788925171e-003</internalNodes>
          <leafValues>
            -1.6271591186523438e-001 9.7883738577365875e-002</leafValues></_>
        <_>
          <internalNodes>
            0 -1 45 3.1077867606654763e-004</internalNodes>
          <leafValues>
            3.9017596840858459e-001 -4.1823957115411758e-002</leafValues></_>
        <_>
          <internalNodes>
            0 -1 63 1.7094312608242035e-001</internalNodes>
          <leafValues>
            4.0192101150751114e-002 -4.7349712252616882e-001</leafValues></_>
        <_>
          <internalNodes>
            0 -1 128 5.8733813464641571e-002</internalNodes>
          <leafValues>
            3.4775659441947937e-002 -4.6731916069984436e-001</leafValues></_>
        <_>
          <internalNodes>
            0 -1 182 5.5838271975517273e-002</internalNodes>
          <leafValues>
            -8.0926328897476196e-002 2.3216739296913147e-001</leafValues></_>
        <_>
          <internalNodes>
            0 -1 219 5.8234348893165588e-002</internalNodes>
          <leafValues>
            -5.2629832178354263e-002 2.8083884716033936e-001</leafValues></_>
        <_>
          <internalNodes>
            0 -1 221 2.1286609768867493e-001</internalNodes>
          <leafValues>
            2.1449739113450050e-002 -7.5495302677154541e-001</leafValues></_>
        <_>
          <internalNodes>
            0 -1 166 3.9508598274551332e-004</internalNodes>
          <leafValues>
            3.7762522697448730e-001 -4.8862479627132416e-002</leafValues></_>
        <_>
          <internalNodes>
            0 -1 206 4.3021957390010357e-004</internalNodes>
          <leafValues>
            -8.0023294687271118e-001 2.0665120333433151e-002</leafValues></_>
        <_>
          <internalNodes>
            0 -1 89 6.2710605561733246e-002</internalNodes>
          <leafValues>
            -3.8360252976417542e-002 4.8648643493652344e-001</leafValues></_>
        <_>
          <internalNodes>
            0 -1 67 6.2565680127590895e-004</internalNodes>
          <leafValues>
            2.8267845511436462e-001 -4.9537658691406250e-002</leafValues></_>
        <_>
          <internalNodes>
            0 -1 263 5.9463512152433395e-003</internalNodes>
          <leafValues>
            -2.1560151875019073e-001 7.1008786559104919e-002</leafValues></_>
        <_>
          <internalNodes>
            0 -1 154 4.0927365422248840e-002</internalNodes>
          <leafValues>
            -8.0912053585052490e-002 2.0547139644622803e-001</leafValues></_>
        <_>
          <internalNodes>
            0 -1 19 5.3787813521921635e-004</internalNodes>
          <leafValues>
            4.0925124287605286e-001 -3.5281170159578323e-002</leafValues></_></weakClassifiers></_>
    <!-- stage 12 -->
    <_>
      <maxWeakCount>100</maxWeakCount>
      <stageThreshold>-2.9716452583670616e-002</stageThreshold>
      <weakClassifiers>
        <_>
          <internalNodes>
            0 -1 3 1.5712884487584233e-003</internalNodes>
          <leafValues>
            9.6768707036972046e-001 8.6748218536376953e-001</leafValues></_>
        <_>
          <internalNodes>
            0 -1 22 1.6361444722861052e-003</internalNodes>
          <leafValues>
            8.4438633918762207e-001 4.4935268163681030e-001</leafValues></_>
        <_>
          <internalNodes>
            0 -1 152 1.6710872296243906e-003</internalNodes>
          <leafValues>
            6.3503688573837280e-001 -2.5002837181091309e-002</leafValues></_>
        <_>
          <internalNodes>
            0 -1 112 2.2769472561776638e-003</internalNodes>
          <leafValues>
            3.0703684687614441e-001 -2.2425729036331177e-001</leafValues></_>
        <_>
          <internalNodes>
            0 -1 8 1.8085749819874763e-002</internalNodes>
          <leafValues>
            -2.6425907015800476e-001 2.2170625627040863e-001</leafValues></_>
        <_>
          <internalNodes>
            0 -1 224 1.2573640793561935e-002</internalNodes>
          <leafValues>
            1.9521491229534149e-001 -3.0761039257049561e-001</leafValues></_>
        <_>
          <internalNodes>
            0 -1 3 3.1050178222358227e-004</internalNodes>
          <leafValues>
            2.8262680768966675e-001 -1.9076476991176605e-001</leafValues></_>
        <_>
          <internalNodes>
            0 -1 258 2.9551894403994083e-003</internalNodes>
          <leafValues>
            -5.8415055274963379e-001 9.5879212021827698e-002</leafValues></_>
        <_>
          <internalNodes>
            0 -1 127 1.8504172563552856e-002</internalNodes>
          <leafValues>
            1.4055193960666656e-001 -3.2074108719825745e-001</leafValues></_>
        <_>
          <internalNodes>
            0 -1 63 1.8541427329182625e-002</internalNodes>
          <leafValues>
            -4.6704071760177612e-001 8.5777737200260162e-002</leafValues></_>
        <_>
          <internalNodes>
            0 -1 72 4.2982169543392956e-004</internalNodes>
          <leafValues>
            3.3701285719871521e-001 -1.2215341627597809e-001</leafValues></_>
        <_>
          <internalNodes>
            0 -1 241 5.9063069056719542e-004</internalNodes>
          <leafValues>
            -7.8822261095046997e-001 5.0923224538564682e-002</leafValues></_>
        <_>
          <internalNodes>
            0 -1 9 3.0312426388263702e-002</internalNodes>
          <leafValues>
            -1.7968834936618805e-001 1.9598935544490814e-001</leafValues></_>
        <_>
          <internalNodes>
            0 -1 166 4.1886488907039165e-003</internalNodes>
          <leafValues>
            2.6137679815292358e-001 -1.3269861042499542e-001</leafValues></_>
        <_>
          <internalNodes>
            0 -1 255 1.1961323022842407e-001</internalNodes>
          <leafValues>
            5.5905979126691818e-002 -5.8016729354858398e-001</leafValues></_>
        <_>
          <internalNodes>
            0 -1 47 4.7381472541019320e-004</internalNodes>
          <leafValues>
            3.8366854190826416e-001 -9.8951391875743866e-002</leafValues></_>
        <_>
          <internalNodes>
            0 -1 26 2.6142972274101339e-005</internalNodes>
          <leafValues>
            -8.2480967044830322e-001 4.3783541768789291e-002</leafValues></_>
        <_>
          <internalNodes>
            0 -1 111 5.3900247439742088e-004</internalNodes>
          <leafValues>
            3.1197145581245422e-001 -1.1748580634593964e-001</leafValues></_>
        <_>
          <internalNodes>
            0 -1 99 6.5152440220117569e-003</internalNodes>
          <leafValues>
            -2.3885771632194519e-001 1.1811723560094833e-001</leafValues></_>
        <_>
          <internalNodes>
            0 -1 208 5.2800580859184265e-002</internalNodes>
          <leafValues>
            -1.0902316868305206e-001 2.7916231751441956e-001</leafValues></_>
        <_>
          <internalNodes>
            0 -1 252 2.0715801045298576e-002</internalNodes>
          <leafValues>
            -1.5812034904956818e-001 1.8269070982933044e-001</leafValues></_>
        <_>
          <internalNodes>
            0 -1 279 4.4201210141181946e-002</internalNodes>
          <leafValues>
            -1.0538644343614578e-001 2.7807959914207458e-001</leafValues></_>
        <_>
          <internalNodes>
            0 -1 1 3.8076657801866531e-003</internalNodes>
          <leafValues>
            2.4339853227138519e-001 -1.5231975913047791e-001</leafValues></_>
        <_>
          <internalNodes>
            0 -1 206 3.7021894968347624e-005</internalNodes>
          <leafValues>
            -8.6637139320373535e-001 3.2120786607265472e-002</leafValues></_>
        <_>
          <internalNodes>
            0 -1 109 5.9133468312211335e-005</internalNodes>
          <leafValues>
            -8.3040982484817505e-001 2.0798746496438980e-002</leafValues></_>
        <_>
          <internalNodes>
            0 -1 43 6.0432660393416882e-004</internalNodes>
          <leafValues>
            4.2072489857673645e-001 -7.3856733739376068e-002</leafValues></_>
        <_>
          <internalNodes>
            0 -1 260 1.4653542637825012e-001</internalNodes>
          <leafValues>
            3.8129802793264389e-002 -6.6626638174057007e-001</leafValues></_>
        <_>
          <internalNodes>
            0 -1 271 2.6522547006607056e-002</internalNodes>
          <leafValues>
            -3.3504721522331238e-001 7.9001240432262421e-002</leafValues></_>
        <_>
          <internalNodes>
            0 -1 275 5.1421802490949631e-002</internalNodes>
          <leafValues>
            3.9423748850822449e-002 -6.0149723291397095e-001</leafValues></_>
        <_>
          <internalNodes>
            0 -1 141 6.0524277389049530e-002</internalNodes>
          <leafValues>
            -4.7083929181098938e-002 5.1031243801116943e-001</leafValues></_>
        <_>
          <internalNodes>
            0 -1 226 4.6469248831272125e-002</internalNodes>
          <leafValues>
            -1.6988025605678558e-001 1.2288628518581390e-001</leafValues></_>
        <_>
          <internalNodes>
            0 -1 287 1.3441646471619606e-002</internalNodes>
          <leafValues>
            -1.5995836257934570e-001 1.4201271533966064e-001</leafValues></_>
        <_>
          <internalNodes>
            0 -1 128 1.3659042306244373e-003</internalNodes>
          <leafValues>
            3.4767395257949829e-001 -6.7729666829109192e-002</leafValues></_>
        <_>
          <internalNodes>
            0 -1 290 5.9096631594002247e-004</internalNodes>
          <leafValues>
            -7.7936631441116333e-001 2.9773939400911331e-002</leafValues></_>
        <_>
          <internalNodes>
            0 -1 217 8.2081355154514313e-002</internalNodes>
          <leafValues>
            -3.7218213081359863e-002 6.6297328472137451e-001</leafValues></_>
        <_>
          <internalNodes>
            0 -1 39 4.3243938125669956e-004</internalNodes>
          <leafValues>
            3.5455179214477539e-001 -5.9243679046630859e-002</leafValues></_>
        <_>
          <internalNodes>
            0 -1 254 6.7184418439865112e-003</internalNodes>
          <leafValues>
            -3.4276071190834045e-001 7.2190806269645691e-002</leafValues></_>
        <_>
          <internalNodes>
            0 -1 174 9.7344681620597839e-002</internalNodes>
          <leafValues>
            -4.1621878743171692e-002 4.8723933100700378e-001</leafValues></_>
        <_>
          <internalNodes>
            0 -1 70 8.3305358886718750e-002</internalNodes>
          <leafValues>
            -4.5466154813766479e-002 4.5374703407287598e-001</leafValues></_>
        <_>
          <internalNodes>
            0 -1 22 1.0220064781606197e-002</internalNodes>
          <leafValues>
            1.1828831583261490e-001 -1.5714778006076813e-001</leafValues></_>
        <_>
          <internalNodes>
            0 -1 195 1.6871759295463562e-001</internalNodes>
          <leafValues>
            2.6373628526926041e-002 -7.1051508188247681e-001</leafValues></_>
        <_>
          <internalNodes>
            0 -1 233 7.3472713120281696e-004</internalNodes>
          <leafValues>
            -6.8667179346084595e-001 2.5225572288036346e-002</leafValues></_>
        <_>
          <internalNodes>
            0 -1 61 1.2946010101586580e-003</internalNodes>
          <leafValues>
            2.4840676784515381e-001 -9.0816728770732880e-002</leafValues></_>
        <_>
          <internalNodes>
            0 -1 130 4.3316069059073925e-004</internalNodes>
          <leafValues>
            -7.2127526998519897e-001 2.2844007238745689e-002</leafValues></_>
        <_>
          <internalNodes>
            0 -1 295 4.7518638893961906e-005</internalNodes>
          <leafValues>
            -4.6875032782554626e-001 2.8650213032960892e-002</leafValues></_>
        <_>
          <internalNodes>
            0 -1 173 6.5424619242548943e-004</internalNodes>
          <leafValues>
            2.8812405467033386e-001 -6.9279372692108154e-002</leafValues></_>
        <_>
          <internalNodes>
            0 -1 12 1.8508642911911011e-001</internalNodes>
          <leafValues>
            2.1928101778030396e-002 -6.7678314447402954e-001</leafValues></_>
        <_>
          <internalNodes>
            0 -1 193 5.6930005550384521e-002</internalNodes>
          <leafValues>
            1.8047461286187172e-002 -7.7271145582199097e-001</leafValues></_>
        <_>
          <internalNodes>
            0 -1 175 1.0745538771152496e-001</internalNodes>
          <leafValues>
            1.3815019279718399e-002 -8.5201686620712280e-001</leafValues></_>
        <_>
          <internalNodes>
            0 -1 246 1.3740423321723938e-001</internalNodes>
          <leafValues>
            3.7186037749052048e-002 -3.5350200533866882e-001</leafValues></_>
        <_>
          <internalNodes>
            0 -1 27 1.2428292538970709e-003</internalNodes>
          <leafValues>
            4.0065816044807434e-001 -3.9189666509628296e-002</leafValues></_>
        <_>
          <internalNodes>
            0 -1 211 6.6657669842243195e-002</internalNodes>
          <leafValues>
            2.4921765550971031e-002 -6.0290700197219849e-001</leafValues></_>
        <_>
          <internalNodes>
            0 -1 288 1.9233588129281998e-002</internalNodes>
          <leafValues>
            -1.1781419813632965e-001 1.4024923741817474e-001</leafValues></_>
        <_>
          <internalNodes>
            0 -1 2 3.7007592618465424e-004</internalNodes>
          <leafValues>
            1.8829885125160217e-001 -8.8396675884723663e-002</leafValues></_>
        <_>
          <internalNodes>
            0 -1 104 3.7771416828036308e-003</internalNodes>
          <leafValues>
            -2.7201789617538452e-001 5.8333884924650192e-002</leafValues></_>
        <_>
          <internalNodes>
            0 -1 33 2.2435680031776428e-002</internalNodes>
          <leafValues>
            6.4751468598842621e-002 -2.3013177514076233e-001</leafValues></_>
        <_>
          <internalNodes>
            0 -1 164 9.2761078849434853e-004</internalNodes>
          <leafValues>
            -7.6811283826828003e-001 1.5610992908477783e-002</leafValues></_>
        <_>
          <internalNodes>
            0 -1 93 1.2046406045556068e-003</internalNodes>
          <leafValues>
            2.9098325967788696e-001 -5.6276854127645493e-002</leafValues></_>
        <_>
          <internalNodes>
            0 -1 245 7.0517545100301504e-004</internalNodes>
          <leafValues>
            -6.6890215873718262e-001 2.6636902242898941e-002</leafValues></_>
        <_>
          <internalNodes>
            0 -1 110 1.2033168226480484e-002</internalNodes>
          <leafValues>
            1.5711756050586700e-001 -9.9591597914695740e-002</leafValues></_>
        <_>
          <internalNodes>
            0 -1 267 2.0522531121969223e-002</internalNodes>
          <leafValues>
            7.2035372257232666e-002 -1.9372734427452087e-001</leafValues></_>
        <_>
          <internalNodes>
            0 -1 228 1.2951375916600227e-002</internalNodes>
          <leafValues>
            -1.7651449143886566e-001 9.4458743929862976e-002</leafValues></_>
        <_>
          <internalNodes>
            0 -1 76 4.7004176303744316e-004</internalNodes>
          <leafValues>
            3.7639847397804260e-001 -4.6262133866548538e-002</leafValues></_>
        <_>
          <internalNodes>
            0 -1 120 9.0560831129550934e-002</internalNodes>
          <leafValues>
            2.4337695911526680e-002 -5.3190362453460693e-001</leafValues></_>
        <_>
          <internalNodes>
            0 -1 13 2.8666999423876405e-004</internalNodes>
          <leafValues>
            3.4131950139999390e-001 -4.2075276374816895e-002</leafValues></_>
        <_>
          <internalNodes>
            0 -1 217 3.4302163840038702e-005</internalNodes>
          <leafValues>
            -6.8378788232803345e-001 2.9019294306635857e-002</leafValues></_>
        <_>
          <internalNodes>
            0 -1 153 5.8654733002185822e-002</internalNodes>
          <leafValues>
            -3.6493398249149323e-002 4.3471059203147888e-001</leafValues></_>
        <_>
          <internalNodes>
            0 -1 79 3.0651618726551533e-003</internalNodes>
          <leafValues>
            2.2238159179687500e-001 -5.7677853852510452e-002</leafValues></_>
        <_>
          <internalNodes>
            0 -1 263 4.8506865277886391e-003</internalNodes>
          <leafValues>
            -2.2696477174758911e-001 6.9955416023731232e-002</leafValues></_>
        <_>
          <internalNodes>
            0 -1 223 3.8371179252862930e-002</internalNodes>
          <leafValues>
            3.1866598874330521e-002 -4.7892218828201294e-001</leafValues></_>
        <_>
          <internalNodes>
            0 -1 97 2.8606452979147434e-003</internalNodes>
          <leafValues>
            -5.1876735687255859e-001 2.4348268285393715e-002</leafValues></_>
        <_>
          <internalNodes>
            0 -1 74 3.6401418037712574e-004</internalNodes>
          <leafValues>
            3.1920519471168518e-001 -4.7267924994230270e-002</leafValues></_>
        <_>
          <internalNodes>
            0 -1 50 1.9303782284259796e-001</internalNodes>
          <leafValues>
            2.6374028995633125e-002 -5.5121386051177979e-001</leafValues></_>
        <_>
          <internalNodes>
            0 -1 37 7.0939496159553528e-002</internalNodes>
          <leafValues>
            2.2870982065796852e-002 -5.2050828933715820e-001</leafValues></_>
        <_>
          <internalNodes>
            0 -1 87 5.6642346316948533e-004</internalNodes>
          <leafValues>
            3.9465788006782532e-001 -3.6938823759555817e-002</leafValues></_>
        <_>
          <internalNodes>
            0 -1 186 1.5838848426938057e-002</internalNodes>
          <leafValues>
            -1.1645977944135666e-001 1.0537172853946686e-001</leafValues></_>
        <_>
          <internalNodes>
            0 -1 91 3.9399892091751099e-002</internalNodes>
          <leafValues>
            -1.7166034877300262e-001 8.7663501501083374e-002</leafValues></_>
        <_>
          <internalNodes>
            0 -1 3 9.1700069606304169e-004</internalNodes>
          <leafValues>
            1.8239255249500275e-001 -7.5981624424457550e-002</leafValues></_>
        <_>
          <internalNodes>
            0 -1 273 3.9990872144699097e-002</internalNodes>
          <leafValues>
            -7.9845324158668518e-002 1.6939695179462433e-001</leafValues></_>
        <_>
          <internalNodes>
            0 -1 107 3.9975598454475403e-002</internalNodes>
          <leafValues>
            -6.5392121672630310e-002 1.8177410960197449e-001</leafValues></_>
        <_>
          <internalNodes>
            0 -1 193 2.3365575820207596e-002</internalNodes>
          <leafValues>
            6.3549868762493134e-002 -2.3230051994323730e-001</leafValues></_>
        <_>
          <internalNodes>
            0 -1 155 7.2068898589350283e-005</internalNodes>
          <leafValues>
            -9.0250968933105469e-001 1.2277739122509956e-002</leafValues></_>
        <_>
          <internalNodes>
            0 -1 13 6.1984762549400330e-002</internalNodes>
          <leafValues>
            -3.4979272633790970e-002 3.9186948537826538e-001</leafValues></_>
        <_>
          <internalNodes>
            0 -1 121 2.0075175911188126e-002</internalNodes>
          <leafValues>
            -7.7245004475116730e-002 1.4628630876541138e-001</leafValues></_>
        <_>
          <internalNodes>
            0 -1 124 4.4107399880886078e-002</internalNodes>
          <leafValues>
            -7.2720229625701904e-002 1.9086822867393494e-001</leafValues></_>
        <_>
          <internalNodes>
            0 -1 211 3.1479117460548878e-003</internalNodes>
          <leafValues>
            -2.8648537397384644e-001 3.7242759019136429e-002</leafValues></_>
        <_>
          <internalNodes>
            0 -1 64 6.1248149722814560e-003</internalNodes>
          <leafValues>
            1.9950538873672485e-001 -6.5527983009815216e-002</leafValues></_>
        <_>
          <internalNodes>
            0 -1 276 6.0446400195360184e-002</internalNodes>
          <leafValues>
            -3.6227840930223465e-002 3.4225860238075256e-001</leafValues></_>
        <_>
          <internalNodes>
            0 -1 146 3.8314659148454666e-002</internalNodes>
          <leafValues>
            3.3947788178920746e-002 -3.1774190068244934e-001</leafValues></_>
        <_>
          <internalNodes>
            0 -1 183 3.7336237728595734e-002</internalNodes>
          <leafValues>
            -3.6157805472612381e-002 3.3910760283470154e-001</leafValues></_>
        <_>
          <internalNodes>
            0 -1 199 1.7970439046621323e-002</internalNodes>
          <leafValues>
            -1.3859774172306061e-001 8.0865621566772461e-002</leafValues></_>
        <_>
          <internalNodes>
            0 -1 29 1.4725469052791595e-002</internalNodes>
          <leafValues>
            1.3914330303668976e-001 -8.4855079650878906e-002</leafValues></_>
        <_>
          <internalNodes>
            0 -1 116 4.6753220260143280e-002</internalNodes>
          <leafValues>
            -4.2054500430822372e-002 2.7580663561820984e-001</leafValues></_>
        <_>
          <internalNodes>
            0 -1 285 4.7509231080766767e-005</internalNodes>
          <leafValues>
            -8.0265891551971436e-001 1.6993520781397820e-002</leafValues></_>
        <_>
          <internalNodes>
            0 -1 22 1.2431925861164927e-003</internalNodes>
          <leafValues>
            1.9606773555278778e-001 -5.5597551167011261e-002</leafValues></_>
        <_>
          <internalNodes>
            0 -1 216 2.7958945793216117e-005</internalNodes>
          <leafValues>
            -3.7516149878501892e-001 3.7102945148944855e-002</leafValues></_>
        <_>
          <internalNodes>
            0 -1 15 9.1623805463314056e-002</internalNodes>
          <leafValues>
            -3.2112985849380493e-002 3.1854122877120972e-001</leafValues></_>
        <_>
          <internalNodes>
            0 -1 92 1.4159742742776871e-002</internalNodes>
          <leafValues>
            1.4021533727645874e-001 -7.6175607740879059e-002</leafValues></_>
        <_>
          <internalNodes>
            0 -1 177 1.5136285219341516e-003</internalNodes>
          <leafValues>
            -6.2361675500869751e-001 1.8323270604014397e-002</leafValues></_>
        <_>
          <internalNodes>
            0 -1 77 8.7670295033603907e-004</internalNodes>
          <leafValues>
            3.0594533681869507e-001 -4.3472114950418472e-002</leafValues></_></weakClassifiers></_>
    <!-- stage 13 -->
    <_>
      <maxWeakCount>100</maxWeakCount>
      <stageThreshold>-6.2869139015674591e-002</stageThreshold>
      <weakClassifiers>
        <_>
          <internalNodes>
            0 -1 3 4.3768435716629028e-003</internalNodes>
          <leafValues>
            9.6452736854553223e-001 8.5341250896453857e-001</leafValues></_>
        <_>
          <internalNodes>
            0 -1 23 6.2783237081021070e-004</internalNodes>
          <leafValues>
            8.3579474687576294e-001 4.4314184784889221e-001</leafValues></_>
        <_>
          <internalNodes>
            0 -1 111 8.3334214286878705e-004</internalNodes>
          <leafValues>
            6.3315904140472412e-001 -6.4763508737087250e-002</leafValues></_>
        <_>
          <internalNodes>
            0 -1 60 7.6438399264588952e-004</internalNodes>
          <leafValues>
            4.8100343346595764e-001 -1.9528333842754364e-001</leafValues></_>
        <_>
          <internalNodes>
            0 -1 157 3.6504387389868498e-004</internalNodes>
          <leafValues>
            5.5414497852325439e-001 -9.9731609225273132e-002</leafValues></_>
        <_>
          <internalNodes>
            0 -1 104 2.4640470743179321e-002</internalNodes>
          <leafValues>
            -1.9767080247402191e-001 2.8184953331947327e-001</leafValues></_>
        <_>
          <internalNodes>
            0 -1 284 2.0357334986329079e-002</internalNodes>
          <leafValues>
            1.2242735922336578e-001 -3.6431753635406494e-001</leafValues></_>
        <_>
          <internalNodes>
            0 -1 9 2.3885011672973633e-002</internalNodes>
          <leafValues>
            -2.3603749275207520e-001 1.7752155661582947e-001</leafValues></_>
        <_>
          <internalNodes>
            0 -1 207 5.6434724479913712e-002</internalNodes>
          <leafValues>
            -2.1503221988677979e-001 1.8908329308032990e-001</leafValues></_>
        <_>
          <internalNodes>
            0 -1 250 5.8935299515724182e-002</internalNodes>
          <leafValues>
            -9.0023636817932129e-002 4.3666607141494751e-001</leafValues></_>
        <_>
          <internalNodes>
            0 -1 3 2.6077521033585072e-004</internalNodes>
          <leafValues>
            2.9619729518890381e-001 -1.4047485589981079e-001</leafValues></_>
        <_>
          <internalNodes>
            0 -1 201 3.5428863018751144e-002</internalNodes>
          <leafValues>
            -1.2200223654508591e-001 3.2302397489547729e-001</leafValues></_>
        <_>
          <internalNodes>
            0 -1 227 2.7864295989274979e-002</internalNodes>
          <leafValues>
            -2.3490519821643829e-001 1.6653850674629211e-001</leafValues></_>
        <_>
          <internalNodes>
            0 -1 20 5.1148810598533601e-005</internalNodes>
          <leafValues>
            -5.2555596828460693e-001 6.5812349319458008e-002</leafValues></_>
        <_>
          <internalNodes>
            0 -1 22 9.8695047199726105e-004</internalNodes>
          <leafValues>
            2.7917191386222839e-001 -1.1923430114984512e-001</leafValues></_>
        <_>
          <internalNodes>
            0 -1 106 1.8039185553789139e-002</internalNodes>
          <leafValues>
            -1.8355530500411987e-001 1.9704875349998474e-001</leafValues></_>
        <_>
          <internalNodes>
            0 -1 128 2.9777172021567822e-003</internalNodes>
          <leafValues>
            2.8599539399147034e-001 -9.5150612294673920e-002</leafValues></_>
        <_>
          <internalNodes>
            0 -1 109 1.2286891043186188e-001</internalNodes>
          <leafValues>
            5.3491782397031784e-002 -6.0363316535949707e-001</leafValues></_>
        <_>
          <internalNodes>
            0 -1 224 2.2489445284008980e-002</internalNodes>
          <leafValues>
            6.8209044635295868e-002 -3.3217844367027283e-001</leafValues></_>
        <_>
          <internalNodes>
            0 -1 1 4.0470898966304958e-004</internalNodes>
          <leafValues>
            3.0132105946540833e-001 -8.9672677218914032e-002</leafValues></_>
        <_>
          <internalNodes>
            0 -1 206 2.4671538267284632e-003</internalNodes>
          <leafValues>
            -6.3171410560607910e-001 4.3737221509218216e-002</leafValues></_>
        <_>
          <internalNodes>
            0 -1 130 1.6817511641420424e-004</internalNodes>
          <leafValues>
            -8.7928706407546997e-001 2.1467993035912514e-002</leafValues></_>
        <_>
          <internalNodes>
            0 -1 112 3.6070756614208221e-003</internalNodes>
          <leafValues>
            2.2382541000843048e-001 -1.3039681315422058e-001</leafValues></_>
        <_>
          <internalNodes>
            0 -1 260 1.3065746426582336e-001</internalNodes>
          <leafValues>
            4.5978505164384842e-002 -5.5561399459838867e-001</leafValues></_>
        <_>
          <internalNodes>
            0 -1 152 4.9138092435896397e-003</internalNodes>
          <leafValues>
            2.3456637561321259e-001 -1.2193400412797928e-001</leafValues></_>
        <_>
          <internalNodes>
            0 -1 257 2.8048290405422449e-003</internalNodes>
          <leafValues>
            -4.1139489412307739e-001 7.4248015880584717e-002</leafValues></_>
        <_>
          <internalNodes>
            0 -1 66 1.5342020196840167e-003</internalNodes>
          <leafValues>
            2.6176071166992188e-001 -8.2237228751182556e-002</leafValues></_>
        <_>
          <internalNodes>
            0 -1 248 3.6941780708730221e-003</internalNodes>
          <leafValues>
            -3.4203177690505981e-001 6.7353479564189911e-002</leafValues></_>
        <_>
          <internalNodes>
            0 -1 235 7.9828619956970215e-002</internalNodes>
          <leafValues>
            -3.4377478063106537e-002 5.6976109743118286e-001</leafValues></_>
        <_>
          <internalNodes>
            0 -1 2 3.7830899236723781e-004</internalNodes>
          <leafValues>
            2.1233956515789032e-001 -1.0618161410093307e-001</leafValues></_>
        <_>
          <internalNodes>
            0 -1 264 7.6530724763870239e-002</internalNodes>
          <leafValues>
            2.4569379165768623e-002 -8.2530021667480469e-001</leafValues></_>
        <_>
          <internalNodes>
            0 -1 252 1.5801327303051949e-002</internalNodes>
          <leafValues>
            -1.7087249457836151e-001 1.2087848037481308e-001</leafValues></_>
        <_>
          <internalNodes>
            0 -1 271 3.8175284862518311e-002</internalNodes>
          <leafValues>
            -2.3222041130065918e-001 1.1298570781946182e-001</leafValues></_>
        <_>
          <internalNodes>
            0 -1 180 7.3450192809104919e-002</internalNodes>
          <leafValues>
            -6.6091075539588928e-002 3.3175069093704224e-001</leafValues></_>
        <_>
          <internalNodes>
            0 -1 122 4.5156411826610565e-002</internalNodes>
          <leafValues>
            -8.3790712058544159e-002 2.5999963283538818e-001</leafValues></_>
        <_>
          <internalNodes>
            0 -1 81 2.5373342214152217e-004</internalNodes>
          <leafValues>
            4.9797397851943970e-001 -3.4658964723348618e-002</leafValues></_>
        <_>
          <internalNodes>
            0 -1 220 8.8113367557525635e-002</internalNodes>
          <leafValues>
            3.0014244839549065e-002 -7.1366798877716064e-001</leafValues></_>
        <_>
          <internalNodes>
            0 -1 9 6.0356304049491882e-002</internalNodes>
          <leafValues>
            -6.7803069949150085e-002 2.8150805830955505e-001</leafValues></_>
        <_>
          <internalNodes>
            0 -1 128 2.2728908807039261e-002</internalNodes>
          <leafValues>
            1.0203093290328979e-001 -2.0131492614746094e-001</leafValues></_>
        <_>
          <internalNodes>
            0 -1 199 1.1853327974677086e-002</internalNodes>
          <leafValues>
            -2.6063835620880127e-001 7.3582731187343597e-002</leafValues></_>
        <_>
          <internalNodes>
            0 -1 31 5.7550556957721710e-002</internalNodes>
          <leafValues>
            -1.0995244979858398e-001 1.6641269624233246e-001</leafValues></_>
        <_>
          <internalNodes>
            0 -1 265 5.5213771760463715e-002</internalNodes>
          <leafValues>
            -6.8110950291156769e-002 2.9526641964912415e-001</leafValues></_>
        <_>
          <internalNodes>
            0 -1 186 3.0211638659238815e-002</internalNodes>
          <leafValues>
            -8.9589118957519531e-002 2.1471880376338959e-001</leafValues></_>
        <_>
          <internalNodes>
            0 -1 237 7.6928898692131042e-002</internalNodes>
          <leafValues>
            -4.5092009007930756e-002 3.8824030756950378e-001</leafValues></_>
        <_>
          <internalNodes>
            0 -1 32 5.6791655719280243e-002</internalNodes>
          <leafValues>
            -3.7593804299831390e-002 4.2920717597007751e-001</leafValues></_>
        <_>
          <internalNodes>
            0 -1 94 4.8827357590198517e-002</internalNodes>
          <leafValues>
            3.7316709756851196e-002 -5.1438826322555542e-001</leafValues></_>
        <_>
          <internalNodes>
            0 -1 102 1.5576800704002380e-001</internalNodes>
          <leafValues>
            3.2011676579713821e-002 -4.4762849807739258e-001</leafValues></_>
        <_>
          <internalNodes>
            0 -1 177 6.1306755989789963e-002</internalNodes>
          <leafValues>
            -1.1010164767503738e-001 1.4826656877994537e-001</leafValues></_>
        <_>
          <internalNodes>
            0 -1 16 2.7399720624089241e-002</internalNodes>
          <leafValues>
            -9.4553045928478241e-002 1.9440974295139313e-001</leafValues></_>
        <_>
          <internalNodes>
            0 -1 140 5.4323644144460559e-004</internalNodes>
          <leafValues>
            3.1473103165626526e-001 -5.5378179997205734e-002</leafValues></_>
        <_>
          <internalNodes>
            0 -1 276 2.0860251970589161e-003</internalNodes>
          <leafValues>
            -6.4385056495666504e-001 2.9823513701558113e-002</leafValues></_>
        <_>
          <internalNodes>
            0 -1 139 5.4244972765445709e-002</internalNodes>
          <leafValues>
            -4.0490504354238510e-002 3.9270788431167603e-001</leafValues></_>
        <_>
          <internalNodes>
            0 -1 147 7.9592660069465637e-002</internalNodes>
          <leafValues>
            -2.9621828347444534e-002 4.4897025823593140e-001</leafValues></_>
        <_>
          <internalNodes>
            0 -1 97 1.4137595891952515e-001</internalNodes>
          <leafValues>
            4.2921941727399826e-002 -3.7336283922195435e-001</leafValues></_>
        <_>
          <internalNodes>
            0 -1 93 9.9232895299792290e-003</internalNodes>
          <leafValues>
            1.5065771341323853e-001 -1.1589790880680084e-001</leafValues></_>
        <_>
          <internalNodes>
            0 -1 245 4.8108078772202134e-004</internalNodes>
          <leafValues>
            -7.2671973705291748e-001 2.3658849298954010e-002</leafValues></_>
        <_>
          <internalNodes>
            0 -1 288 3.0455769971013069e-002</internalNodes>
          <leafValues>
            -7.8672021627426147e-002 2.2126889228820801e-001</leafValues></_>
        <_>
          <internalNodes>
            0 -1 215 1.7012026160955429e-002</internalNodes>
          <leafValues>
            9.1484673321247101e-002 -1.8699973821640015e-001</leafValues></_>
        <_>
          <internalNodes>
            0 -1 52 2.3793737636879086e-004</internalNodes>
          <leafValues>
            3.9999663829803467e-001 -3.9706394076347351e-002</leafValues></_>
        <_>
          <internalNodes>
            0 -1 272 1.4030352234840393e-002</internalNodes>
          <leafValues>
            -1.6705711185932159e-001 1.0364238172769547e-001</leafValues></_>
        <_>
          <internalNodes>
            0 -1 74 9.1730952262878418e-003</internalNodes>
          <leafValues>
            1.4671102166175842e-001 -1.0281402617692947e-001</leafValues></_>
        <_>
          <internalNodes>
            0 -1 12 1.8448312580585480e-001</internalNodes>
          <leafValues>
            2.1863309666514397e-002 -7.0053714513778687e-001</leafValues></_>
        <_>
          <internalNodes>
            0 -1 114 9.6627912716940045e-004</internalNodes>
          <leafValues>
            3.5313254594802856e-001 -4.4958818703889847e-002</leafValues></_>
        <_>
          <internalNodes>
            0 -1 123 1.1471529724076390e-003</internalNodes>
          <leafValues>
            -6.4484214782714844e-001 2.5205794721841812e-002</leafValues></_>
        <_>
          <internalNodes>
            0 -1 3 2.3419859353452921e-003</internalNodes>
          <leafValues>
            1.6822858154773712e-001 -1.1346551775932312e-001</leafValues></_>
        <_>
          <internalNodes>
            0 -1 143 2.5940776686184108e-004</internalNodes>
          <leafValues>
            -5.3046441078186035e-001 3.1891480088233948e-002</leafValues></_>
        <_>
          <internalNodes>
            0 -1 141 6.8386986851692200e-002</internalNodes>
          <leafValues>
            -3.2167408615350723e-002 4.5694518089294434e-001</leafValues></_>
        <_>
          <internalNodes>
            0 -1 8 2.2104365751147270e-002</internalNodes>
          <leafValues>
            -1.1509008705615997e-001 1.2385816127061844e-001</leafValues></_>
        <_>
          <internalNodes>
            0 -1 26 2.9167663305997849e-002</internalNodes>
          <leafValues>
            -1.4251706004142761e-001 1.0669660568237305e-001</leafValues></_>
        <_>
          <internalNodes>
            0 -1 253 9.0500764548778534e-002</internalNodes>
          <leafValues>
            2.0709224045276642e-002 -7.5241219997406006e-001</leafValues></_>
        <_>
          <internalNodes>
            0 -1 145 3.3188151428475976e-004</internalNodes>
          <leafValues>
            2.9000130295753479e-001 -5.3368132561445236e-002</leafValues></_>
        <_>
          <internalNodes>
            0 -1 263 4.4280076399445534e-003</internalNodes>
          <leafValues>
            -2.3714397847652435e-001 6.3288711011409760e-002</leafValues></_>
        <_>
          <internalNodes>
            0 -1 169 4.0253711631521583e-004</internalNodes>
          <leafValues>
            2.9845696687698364e-001 -4.9581658095121384e-002</leafValues></_>
        <_>
          <internalNodes>
            0 -1 179 2.9863379895687103e-003</internalNodes>
          <leafValues>
            -5.5124425888061523e-001 2.4721037596464157e-002</leafValues></_>
        <_>
          <internalNodes>
            0 -1 35 5.5240362882614136e-002</internalNodes>
          <leafValues>
            -7.0789203047752380e-002 2.0280212163925171e-001</leafValues></_>
        <_>
          <internalNodes>
            0 -1 53 9.1287627816200256e-002</internalNodes>
          <leafValues>
            -2.6532463729381561e-002 5.1024222373962402e-001</leafValues></_>
        <_>
          <internalNodes>
            0 -1 207 2.2130910307168961e-002</internalNodes>
          <leafValues>
            -2.6774778962135315e-001 5.4096307605504990e-002</leafValues></_>
        <_>
          <internalNodes>
            0 -1 189 6.0663884505629539e-004</internalNodes>
          <leafValues>
            3.7872248888015747e-001 -3.6996621638536453e-002</leafValues></_>
        <_>
          <internalNodes>
            0 -1 275 5.2065193653106689e-002</internalNodes>
          <leafValues>
            2.7910219505429268e-002 -5.0530689954757690e-001</leafValues></_>
        <_>
          <internalNodes>
            0 -1 150 3.8528881967067719e-002</internalNodes>
          <leafValues>
            -5.0609424710273743e-002 3.1774172186851501e-001</leafValues></_>
        <_>
          <internalNodes>
            0 -1 196 3.8910340517759323e-002</internalNodes>
          <leafValues>
            -5.9368964284658432e-002 2.1196529269218445e-001</leafValues></_>
        <_>
          <internalNodes>
            0 -1 110 1.6203749924898148e-002</internalNodes>
          <leafValues>
            1.2762539088726044e-001 -9.9951326847076416e-002</leafValues></_>
        <_>
          <internalNodes>
            0 -1 277 3.6717969924211502e-002</internalNodes>
          <leafValues>
            -1.7734892666339874e-001 9.5144063234329224e-002</leafValues></_>
        <_>
          <internalNodes>
            0 -1 294 9.5510552637279034e-004</internalNodes>
          <leafValues>
            -5.1356208324432373e-001 2.4495422840118408e-002</leafValues></_>
        <_>
          <internalNodes>
            0 -1 55 4.8763997619971633e-004</internalNodes>
          <leafValues>
            3.0973231792449951e-001 -4.7912083566188812e-002</leafValues></_>
        <_>
          <internalNodes>
            0 -1 148 1.4266374707221985e-001</internalNodes>
          <leafValues>
            4.2101692408323288e-002 -3.2186844944953918e-001</leafValues></_>
        <_>
          <internalNodes>
            0 -1 286 6.4514398574829102e-002</internalNodes>
          <leafValues>
            -9.2439383268356323e-002 1.5469782054424286e-001</leafValues></_>
        <_>
          <internalNodes>
            0 -1 190 2.1947644650936127e-002</internalNodes>
          <leafValues>
            1.1175747215747833e-001 -1.1402653157711029e-001</leafValues></_>
        <_>
          <internalNodes>
            0 -1 243 6.8021565675735474e-002</internalNodes>
          <leafValues>
            1.7402315512299538e-002 -8.3591467142105103e-001</leafValues></_>
        <_>
          <internalNodes>
            0 -1 243 1.7617479898035526e-003</internalNodes>
          <leafValues>
            -2.5616043806076050e-001 4.5778144150972366e-002</leafValues></_>
        <_>
          <internalNodes>
            0 -1 93 4.6120272600091994e-004</internalNodes>
          <leafValues>
            3.5800108313560486e-001 -4.2047016322612762e-002</leafValues></_>
        <_>
          <internalNodes>
            0 -1 42 7.5568407773971558e-002</internalNodes>
          <leafValues>
            -3.4642655402421951e-002 3.3905887603759766e-001</leafValues></_>
        <_>
          <internalNodes>
            0 -1 168 9.5134526491165161e-002</internalNodes>
          <leafValues>
            -2.3769577965140343e-002 5.3760188817977905e-001</leafValues></_>
        <_>
          <internalNodes>
            0 -1 75 7.0265561342239380e-002</internalNodes>
          <leafValues>
            -3.5327680408954620e-002 3.1225922703742981e-001</leafValues></_>
        <_>
          <internalNodes>
            0 -1 195 1.7782151699066162e-001</internalNodes>
          <leafValues>
            1.9886484369635582e-002 -6.1121237277984619e-001</leafValues></_>
        <_>
          <internalNodes>
            0 -1 1 1.4140075072646141e-003</internalNodes>
          <leafValues>
            2.0030744373798370e-001 -6.6350668668746948e-002</leafValues></_>
        <_>
          <internalNodes>
            0 -1 235 9.4762170920148492e-004</internalNodes>
          <leafValues>
            -5.6521213054656982e-001 2.5597378611564636e-002</leafValues></_>
        <_>
          <internalNodes>
            0 -1 47 1.7617922276258469e-003</internalNodes>
          <leafValues>
            2.3264212906360626e-001 -6.5460748970508575e-002</leafValues></_>
        <_>
          <internalNodes>
            0 -1 254 1.7669502645730972e-002</internalNodes>
          <leafValues>
            -1.5022999048233032e-001 1.0363188385963440e-001</leafValues></_>
        <_>
          <internalNodes>
            0 -1 81 5.3694598376750946e-002</internalNodes>
          <leafValues>
            -3.4809514880180359e-002 3.5859811305999756e-001</leafValues></_></weakClassifiers></_>
    <!-- stage 14 -->
    <_>
      <maxWeakCount>100</maxWeakCount>
      <stageThreshold>1.3657058589160442e-002</stageThreshold>
      <weakClassifiers>
        <_>
          <internalNodes>
            0 -1 255 2.2674641013145447e-001</internalNodes>
          <leafValues>
            9.3208158016204834e-001 -6.3636362552642822e-001</leafValues></_>
        <_>
          <internalNodes>
            0 -1 3 3.8935348857194185e-004</internalNodes>
          <leafValues>
            8.2712280750274658e-001 4.3887633085250854e-001</leafValues></_>
        <_>
          <internalNodes>
            0 -1 47 3.1803175806999207e-004</internalNodes>
          <leafValues>
            6.4276498556137085e-001 -1.0957154445350170e-002</leafValues></_>
        <_>
          <internalNodes>
            0 -1 172 4.5641907490789890e-004</internalNodes>
          <leafValues>
            5.1968073844909668e-001 -1.0265947133302689e-001</leafValues></_>
        <_>
          <internalNodes>
            0 -1 104 1.3410370796918869e-002</internalNodes>
          <leafValues>
            -3.2988676428794861e-001 1.7075519263744354e-001</leafValues></_>
        <_>
          <internalNodes>
            0 -1 111 3.4941761987283826e-004</internalNodes>
          <leafValues>
            3.8422137498855591e-001 -1.7407988011837006e-001</leafValues></_>
        <_>
          <internalNodes>
            0 -1 239 6.1394922435283661e-002</internalNodes>
          <leafValues>
            8.2318618893623352e-002 -6.0309106111526489e-001</leafValues></_>
        <_>
          <internalNodes>
            0 -1 10 1.6252078115940094e-002</internalNodes>
          <leafValues>
            -2.3153032362461090e-001 1.9068138301372528e-001</leafValues></_>
        <_>
          <internalNodes>
            0 -1 2 2.8077096212655306e-003</internalNodes>
          <leafValues>
            2.2037257254123688e-001 -2.3360918462276459e-001</leafValues></_>
        <_>
          <internalNodes>
            0 -1 85 1.3263587607070804e-003</internalNodes>
          <leafValues>
            3.5164326429367065e-001 -1.4387610554695129e-001</leafValues></_>
        <_>
          <internalNodes>
            0 -1 148 1.0939375497400761e-002</internalNodes>
          <leafValues>
            -5.6860953569412231e-001 8.0689243972301483e-002</leafValues></_>
        <_>
          <internalNodes>
            0 -1 206 2.3412398993968964e-002</internalNodes>
          <leafValues>
            -2.0508083701133728e-001 1.4100056886672974e-001</leafValues></_>
        <_>
          <internalNodes>
            0 -1 195 1.4601463079452515e-001</internalNodes>
          <leafValues>
            5.2905775606632233e-002 -6.1999297142028809e-001</leafValues></_>
        <_>
          <internalNodes>
            0 -1 22 3.0366061255335808e-003</internalNodes>
          <leafValues>
            2.2038964927196503e-001 -1.5822720527648926e-001</leafValues></_>
        <_>
          <internalNodes>
            0 -1 192 4.0825590258464217e-004</internalNodes>
          <leafValues>
            -7.5523704290390015e-001 5.1642872393131256e-002</leafValues></_>
        <_>
          <internalNodes>
            0 -1 247 3.0055578798055649e-002</internalNodes>
          <leafValues>
            -2.0413069427013397e-001 1.5027010440826416e-001</leafValues></_>
        <_>
          <internalNodes>
            0 -1 107 2.7102500200271606e-002</internalNodes>
          <leafValues>
            -1.5757049620151520e-001 2.0342977344989777e-001</leafValues></_>
        <_>
          <internalNodes>
            0 -1 1 6.7963870242238045e-004</internalNodes>
          <leafValues>
            3.1905236840248108e-001 -9.8240010440349579e-002</leafValues></_>
        <_>
          <internalNodes>
            0 -1 82 7.3623761534690857e-002</internalNodes>
          <leafValues>
            -6.7349769175052643e-002 4.6437361836433411e-001</leafValues></_>
        <_>
          <internalNodes>
            0 -1 128 7.5608293991535902e-004</internalNodes>
          <leafValues>
            3.5873374342918396e-001 -6.7563667893409729e-002</leafValues></_>
        <_>
          <internalNodes>
            0 -1 253 1.3034516945481300e-002</internalNodes>
          <leafValues>
            -2.2034895420074463e-001 1.1174844950437546e-001</leafValues></_>
        <_>
          <internalNodes>
            0 -1 230 4.6239253133535385e-002</internalNodes>
          <leafValues>
            5.4366637021303177e-002 -4.9573954939842224e-001</leafValues></_>
        <_>
          <internalNodes>
            0 -1 185 4.4323233887553215e-003</internalNodes>
          <leafValues>
            -2.5418245792388916e-001 9.4475366175174713e-002</leafValues></_>
        <_>
          <internalNodes>
            0 -1 214 2.1522540599107742e-002</internalNodes>
          <leafValues>
            8.2847528159618378e-002 -3.0523020029067993e-001</leafValues></_>
        <_>
          <internalNodes>
            0 -1 243 3.4185133874416351e-002</internalNodes>
          <leafValues>
            4.0120422840118408e-002 -5.7443904876708984e-001</leafValues></_>
        <_>
          <internalNodes>
            0 -1 64 3.0284741660580039e-004</internalNodes>
          <leafValues>
            4.0561404824256897e-001 -6.4184933900833130e-002</leafValues></_>
        <_>
          <internalNodes>
            0 -1 19 4.0967226028442383e-002</internalNodes>
          <leafValues>
            -8.7129868566989899e-002 2.8942504525184631e-001</leafValues></_>
        <_>
          <internalNodes>
            0 -1 202 1.4136084914207458e-001</internalNodes>
          <leafValues>
            3.9553627371788025e-002 -5.9309524297714233e-001</leafValues></_>
        <_>
          <internalNodes>
            0 -1 206 7.6637655729427934e-004</internalNodes>
          <leafValues>
            -6.8209952116012573e-001 2.2769154980778694e-002</leafValues></_>
        <_>
          <internalNodes>
            0 -1 45 2.6811339193955064e-004</internalNodes>
          <leafValues>
            3.7038657069206238e-001 -6.7000068724155426e-002</leafValues></_>
        <_>
          <internalNodes>
            0 -1 65 8.8101789355278015e-002</internalNodes>
          <leafValues>
            -3.4934923052787781e-002 5.1336920261383057e-001</leafValues></_>
        <_>
          <internalNodes>
            0 -1 180 1.2217811495065689e-001</internalNodes>
          <leafValues>
            -2.9624711722135544e-002 5.3293144702911377e-001</leafValues></_>
        <_>
          <internalNodes>
            0 -1 11 5.3193182684481144e-003</internalNodes>
          <leafValues>
            -2.7749243378639221e-001 7.0630095899105072e-002</leafValues></_>
        <_>
          <internalNodes>
            0 -1 135 3.9733979851007462e-002</internalNodes>
          <leafValues>
            -6.0044590383768082e-002 3.2408770918846130e-001</leafValues></_>
        <_>
          <internalNodes>
            0 -1 28 1.7596581019461155e-003</internalNodes>
          <leafValues>
            3.3492347598075867e-001 -6.8001747131347656e-002</leafValues></_>
        <_>
          <internalNodes>
            0 -1 235 3.3577056456124410e-005</internalNodes>
          <leafValues>
            -7.6366037130355835e-001 2.1834107115864754e-002</leafValues></_>
        <_>
          <internalNodes>
            0 -1 69 4.6856200788170099e-004</internalNodes>
          <leafValues>
            4.0512552857398987e-001 -4.5045901089906693e-002</leafValues></_>
        <_>
          <internalNodes>
            0 -1 266 1.0898460168391466e-003</internalNodes>
          <leafValues>
            -7.2764843702316284e-001 2.9900997877120972e-002</leafValues></_>
        <_>
          <internalNodes>
            0 -1 263 1.5764910494908690e-003</internalNodes>
          <leafValues>
            -3.6051553487777710e-001 4.7768954187631607e-002</leafValues></_>
        <_>
          <internalNodes>
            0 -1 137 3.3052224898710847e-004</internalNodes>
          <leafValues>
            4.5902293920516968e-001 -4.6650823205709457e-002</leafValues></_>
        <_>
          <internalNodes>
            0 -1 71 4.4035870814695954e-004</internalNodes>
          <leafValues>
            3.3377432823181152e-001 -5.5674839764833450e-002</leafValues></_>
        <_>
          <internalNodes>
            0 -1 255 1.5913659334182739e-001</internalNodes>
          <leafValues>
            2.4021575227379799e-002 -6.4874482154846191e-001</leafValues></_>
        <_>
          <internalNodes>
            0 -1 246 5.3510122001171112e-002</internalNodes>
          <leafValues>
            -1.3492591679096222e-001 1.3967196643352509e-001</leafValues></_>
        <_>
          <internalNodes>
            0 -1 40 9.6899479627609253e-002</internalNodes>
          <leafValues>
            -3.1741578131914139e-002 5.9681725502014160e-001</leafValues></_>
        <_>
          <internalNodes>
            0 -1 41 2.4690374732017517e-002</internalNodes>
          <leafValues>
            -9.0586528182029724e-002 1.9158282876014709e-001</leafValues></_>
        <_>
          <internalNodes>
            0 -1 262 4.3078460730612278e-003</internalNodes>
          <leafValues>
            -3.2445296645164490e-001 4.9460459500551224e-002</leafValues></_>
        <_>
          <internalNodes>
            0 -1 130 3.2424360513687134e-002</internalNodes>
          <leafValues>
            -1.5480598807334900e-001 1.0551825165748596e-001</leafValues></_>
        <_>
          <internalNodes>
            0 -1 33 6.0884140431880951e-002</internalNodes>
          <leafValues>
            1.9371487200260162e-002 -6.6383808851242065e-001</leafValues></_>
        <_>
          <internalNodes>
            0 -1 3 1.3934859307482839e-003</internalNodes>
          <leafValues>
            1.6841031610965729e-001 -9.6748456358909607e-002</leafValues></_>
        <_>
          <internalNodes>
            0 -1 108 3.6971293389797211e-002</internalNodes>
          <leafValues>
            -6.7295938730239868e-002 3.1114929914474487e-001</leafValues></_>
        <_>
          <internalNodes>
            0 -1 62 6.3514620065689087e-002</internalNodes>
          <leafValues>
            -4.5380163937807083e-002 3.0874875187873840e-001</leafValues></_>
        <_>
          <internalNodes>
            0 -1 8 3.0749663710594177e-002</internalNodes>
          <leafValues>
            -9.4978585839271545e-002 1.5548975765705109e-001</leafValues></_>
        <_>
          <internalNodes>
            0 -1 283 1.7623092979192734e-002</internalNodes>
          <leafValues>
            8.4226079285144806e-002 -1.9038519263267517e-001</leafValues></_>
        <_>
          <internalNodes>
            0 -1 295 3.8730780943296850e-005</internalNodes>
          <leafValues>
            -5.2108097076416016e-001 2.8075892478227615e-002</leafValues></_>
        <_>
          <internalNodes>
            0 -1 112 8.3691522013396025e-004</internalNodes>
          <leafValues>
            2.2460271418094635e-001 -7.3225542902946472e-002</leafValues></_>
        <_>
          <internalNodes>
            0 -1 125 5.4699286818504333e-002</internalNodes>
          <leafValues>
            -4.1000977158546448e-002 4.4961595535278320e-001</leafValues></_>
        <_>
          <internalNodes>
            0 -1 244 4.8753965646028519e-002</internalNodes>
          <leafValues>
            2.7230953797698021e-002 -5.7591611146926880e-001</leafValues></_>
        <_>
          <internalNodes>
            0 -1 288 2.6174766942858696e-002</internalNodes>
          <leafValues>
            -8.1094749271869659e-002 1.5952074527740479e-001</leafValues></_>
        <_>
          <internalNodes>
            0 -1 17 1.0909587889909744e-001</internalNodes>
          <leafValues>
            2.8216298669576645e-002 -6.0798466205596924e-001</leafValues></_>
        <_>
          <internalNodes>
            0 -1 0 1.5446625184267759e-003</internalNodes>
          <leafValues>
            1.8936559557914734e-001 -8.2849413156509399e-002</leafValues></_>
        <_>
          <internalNodes>
            0 -1 46 1.4738138765096664e-002</internalNodes>
          <leafValues>
            -3.0195856094360352e-001 4.3889850378036499e-002</leafValues></_>
        <_>
          <internalNodes>
            0 -1 53 1.0119859129190445e-001</internalNodes>
          <leafValues>
            -2.6240866631269455e-002 5.8520042896270752e-001</leafValues></_>
        <_>
          <internalNodes>
            0 -1 208 4.3097957968711853e-002</internalNodes>
          <leafValues>
            -9.2066884040832520e-002 1.5092422068119049e-001</leafValues></_>
        <_>
          <internalNodes>
            0 -1 181 3.0066826730035245e-004</internalNodes>
          <leafValues>
            3.7013384699821472e-001 -3.8116116076707840e-002</leafValues></_>
        <_>
          <internalNodes>
            0 -1 291 7.7201798558235168e-003</internalNodes>
          <leafValues>
            -2.3100449144840240e-001 7.7856257557868958e-002</leafValues></_>
        <_>
          <internalNodes>
            0 -1 123 3.1385026872158051e-002</internalNodes>
          <leafValues>
            -1.5482269227504730e-001 8.9832037687301636e-002</leafValues></_>
        <_>
          <internalNodes>
            0 -1 199 1.6490412876009941e-002</internalNodes>
          <leafValues>
            -2.0086993277072906e-001 8.4263697266578674e-002</leafValues></_>
        <_>
          <internalNodes>
            0 -1 51 3.5673775710165501e-003</internalNodes>
          <leafValues>
            2.5044625997543335e-001 -5.7361502200365067e-002</leafValues></_>
        <_>
          <internalNodes>
            0 -1 257 2.6448757125763223e-005</internalNodes>
          <leafValues>
            -5.1289021968841553e-001 2.4367284029722214e-002</leafValues></_>
        <_>
          <internalNodes>
            0 -1 110 1.0521096177399158e-002</internalNodes>
          <leafValues>
            1.6080078482627869e-001 -9.0248093008995056e-002</leafValues></_>
        <_>
          <internalNodes>
            0 -1 187 1.3487344980239868e-001</internalNodes>
          <leafValues>
            3.7123773247003555e-002 -3.5957375168800354e-001</leafValues></_>
        <_>
          <internalNodes>
            0 -1 178 9.0981752146035433e-004</internalNodes>
          <leafValues>
            3.5966759920120239e-001 -3.8944814354181290e-002</leafValues></_>
        <_>
          <internalNodes>
            0 -1 197 3.3262439072132111e-002</internalNodes>
          <leafValues>
            -6.5209425985813141e-002 2.1390581130981445e-001</leafValues></_>
        <_>
          <internalNodes>
            0 -1 29 7.9669021070003510e-003</internalNodes>
          <leafValues>
            2.1197441220283508e-001 -6.5264955163002014e-002</leafValues></_>
        <_>
          <internalNodes>
            0 -1 249 3.6914106458425522e-003</internalNodes>
          <leafValues>
            -3.4369856119155884e-001 4.3037306517362595e-002</leafValues></_>
        <_>
          <internalNodes>
            0 -1 93 1.1365560814738274e-002</internalNodes>
          <leafValues>
            1.1835801601409912e-001 -1.1396782845258713e-001</leafValues></_>
        <_>
          <internalNodes>
            0 -1 187 1.1783032678067684e-003</internalNodes>
          <leafValues>
            -5.6185710430145264e-001 2.5099596008658409e-002</leafValues></_>
        <_>
          <internalNodes>
            0 -1 176 6.9919216912239790e-004</internalNodes>
          <leafValues>
            3.9621436595916748e-001 -4.3302293866872787e-002</leafValues></_>
        <_>
          <internalNodes>
            0 -1 296 1.7732948064804077e-001</internalNodes>
          <leafValues>
            2.4063710123300552e-002 -6.5157717466354370e-001</leafValues></_>
        <_>
          <internalNodes>
            0 -1 188 6.6877737641334534e-002</internalNodes>
          <leafValues>
            2.1260319277644157e-002 -5.2304261922836304e-001</leafValues></_>
        <_>
          <internalNodes>
            0 -1 253 3.5334648564457893e-003</internalNodes>
          <leafValues>
            -3.3220687508583069e-001 3.6630216985940933e-002</leafValues></_>
        <_>
          <internalNodes>
            0 -1 120 5.8441632427275181e-004</internalNodes>
          <leafValues>
            4.2504069209098816e-001 -3.7870593369007111e-002</leafValues></_>
        <_>
          <internalNodes>
            0 -1 271 5.8088310062885284e-002</internalNodes>
          <leafValues>
            -9.9859863519668579e-002 1.2135116010904312e-001</leafValues></_>
        <_>
          <internalNodes>
            0 -1 272 1.4355190098285675e-002</internalNodes>
          <leafValues>
            -1.4453542232513428e-001 9.2207297682762146e-002</leafValues></_>
        <_>
          <internalNodes>
            0 -1 54 5.0415448844432831e-002</internalNodes>
          <leafValues>
            -6.1039604246616364e-002 2.2282740473747253e-001</leafValues></_>
        <_>
          <internalNodes>
            0 -1 117 5.8297347277402878e-002</internalNodes>
          <leafValues>
            -5.4976586252450943e-002 2.1915109455585480e-001</leafValues></_>
        <_>
          <internalNodes>
            0 -1 150 4.5803762972354889e-002</internalNodes>
          <leafValues>
            -3.2204147428274155e-002 3.6000272631645203e-001</leafValues></_>
        <_>
          <internalNodes>
            0 -1 236 5.4346993565559387e-002</internalNodes>
          <leafValues>
            -1.1331123858690262e-001 1.1463732272386551e-001</leafValues></_>
        <_>
          <internalNodes>
            0 -1 238 9.9930111318826675e-003</internalNodes>
          <leafValues>
            -1.5508551895618439e-001 7.7688157558441162e-002</leafValues></_>
        <_>
          <internalNodes>
            0 -1 90 7.8596577048301697e-002</internalNodes>
          <leafValues>
            -4.2443327605724335e-002 3.0221256613731384e-001</leafValues></_>
        <_>
          <internalNodes>
            0 -1 227 8.5601411759853363e-002</internalNodes>
          <leafValues>
            -3.4416861832141876e-002 3.5541981458663940e-001</leafValues></_>
        <_>
          <internalNodes>
            0 -1 101 4.1958607733249664e-002</internalNodes>
          <leafValues>
            -3.5618875175714493e-002 3.4482017159461975e-001</leafValues></_>
        <_>
          <internalNodes>
            0 -1 113 8.5782095789909363e-002</internalNodes>
          <leafValues>
            2.2130036726593971e-002 -5.7737666368484497e-001</leafValues></_>
        <_>
          <internalNodes>
            0 -1 107 5.1807839423418045e-002</internalNodes>
          <leafValues>
            -5.7709630578756332e-002 2.4228374660015106e-001</leafValues></_>
        <_>
          <internalNodes>
            0 -1 194 1.2242475524544716e-002</internalNodes>
          <leafValues>
            1.2076945602893829e-001 -1.2734849750995636e-001</leafValues></_>
        <_>
          <internalNodes>
            0 -1 264 6.0840297490358353e-002</internalNodes>
          <leafValues>
            2.2749494761228561e-002 -5.2785664796829224e-001</leafValues></_>
        <_>
          <internalNodes>
            0 -1 189 9.4782952219247818e-003</internalNodes>
          <leafValues>
            1.3746413588523865e-001 -1.0145872086286545e-001</leafValues></_>
        <_>
          <internalNodes>
            0 -1 5 1.7224234342575073e-001</internalNodes>
          <leafValues>
            2.3714369162917137e-002 -5.4404628276824951e-001</leafValues></_>
        <_>
          <internalNodes>
            0 -1 132 7.1027696132659912e-002</internalNodes>
          <leafValues>
            -2.6477793231606483e-002 4.8082396388053894e-001</leafValues></_>
        <_>
          <internalNodes>
            0 -1 1 9.6303239464759827e-002</internalNodes>
          <leafValues>
            2.0385611802339554e-002 -6.7649894952774048e-001</leafValues></_></weakClassifiers></_>
    <!-- stage 15 -->
    <_>
      <maxWeakCount>100</maxWeakCount>
      <stageThreshold>-1.0198579548159614e-004</stageThreshold>
      <weakClassifiers>
        <_>
          <internalNodes>
            0 -1 23 7.3920568684116006e-004</internalNodes>
          <leafValues>
            9.6972393989562988e-001 8.8008499145507813e-001</leafValues></_>
        <_>
          <internalNodes>
            0 -1 59 5.7397643104195595e-004</internalNodes>
          <leafValues>
            8.5704219341278076e-001 4.8376035690307617e-001</leafValues></_>
        <_>
          <internalNodes>
            0 -1 163 4.4481790973804891e-004</internalNodes>
          <leafValues>
            7.2001773118972778e-001 2.0158500410616398e-003</leafValues></_>
        <_>
          <internalNodes>
            0 -1 111 1.6262496355921030e-003</internalNodes>
          <leafValues>
            3.3210530877113342e-001 -2.0807494223117828e-001</leafValues></_>
        <_>
          <internalNodes>
            0 -1 2 3.4605659311637282e-004</internalNodes>
          <leafValues>
            3.0279502272605896e-001 -2.0456318557262421e-001</leafValues></_>
        <_>
          <internalNodes>
            0 -1 106 4.0788734331727028e-003</internalNodes>
          <leafValues>
            -4.1221362352371216e-001 1.3196566700935364e-001</leafValues></_>
        <_>
          <internalNodes>
            0 -1 77 5.4473648779094219e-003</internalNodes>
          <leafValues>
            2.3338179290294647e-001 -1.7453733086585999e-001</leafValues></_>
        <_>
          <internalNodes>
            0 -1 158 2.7862093411386013e-003</internalNodes>
          <leafValues>
            -7.6737093925476074e-001 5.4571796208620071e-002</leafValues></_>
        <_>
          <internalNodes>
            0 -1 251 3.2708842307329178e-002</internalNodes>
          <leafValues>
            -1.5232773125171661e-001 2.6917535066604614e-001</leafValues></_>
        <_>
          <internalNodes>
            0 -1 38 4.3934816494584084e-004</internalNodes>
          <leafValues>
            3.5342592000961304e-001 -1.1322019249200821e-001</leafValues></_>
        <_>
          <internalNodes>
            0 -1 259 6.6928286105394363e-003</internalNodes>
          <leafValues>
            -4.8193958401679993e-001 6.8348802626132965e-002</leafValues></_>
        <_>
          <internalNodes>
            0 -1 126 5.2245525876060128e-004</internalNodes>
          <leafValues>
            3.6497023701667786e-001 -1.1199773102998734e-001</leafValues></_>
        <_>
          <internalNodes>
            0 -1 284 2.4676315486431122e-002</internalNodes>
          <leafValues>
            8.4100067615509033e-002 -3.9067625999450684e-001</leafValues></_>
        <_>
          <internalNodes>
            0 -1 9 1.9505236297845840e-002</internalNodes>
          <leafValues>
            -2.2505620121955872e-001 1.1999002844095230e-001</leafValues></_>
        <_>
          <internalNodes>
            0 -1 68 6.9281287491321564e-002</internalNodes>
          <leafValues>
            -8.2021296024322510e-002 3.3556795120239258e-001</leafValues></_>
        <_>
          <internalNodes>
            0 -1 185 5.9607294388115406e-003</internalNodes>
          <leafValues>
            -2.3382650315761566e-001 1.1638963967561722e-001</leafValues></_>
        <_>
          <internalNodes>
            0 -1 171 6.2997866189107299e-004</internalNodes>
          <leafValues>
            4.1975182294845581e-001 -6.4210668206214905e-002</leafValues></_>
        <_>
          <internalNodes>
            0 -1 147 5.4137199185788631e-005</internalNodes>
          <leafValues>
            -6.0509943962097168e-001 5.0549659878015518e-002</leafValues></_>
        <_>
          <internalNodes>
            0 -1 3 7.5280829332768917e-004</internalNodes>
          <leafValues>
            2.1090771257877350e-001 -1.5141266584396362e-001</leafValues></_>
        <_>
          <internalNodes>
            0 -1 279 4.4474683701992035e-002</internalNodes>
          <leafValues>
            -1.1409393697977066e-001 2.6692333817481995e-001</leafValues></_>
        <_>
          <internalNodes>
            0 -1 203 6.7229956388473511e-002</internalNodes>
          <leafValues>
            -6.5234102308750153e-002 3.5686302185058594e-001</leafValues></_>
        <_>
          <internalNodes>
            0 -1 128 7.7974088490009308e-003</internalNodes>
          <leafValues>
            1.8506871163845062e-001 -1.1951296776533127e-001</leafValues></_>
        <_>
          <internalNodes>
            0 -1 200 2.3103497922420502e-002</internalNodes>
          <leafValues>
            -1.4864698052406311e-001 1.8530799448490143e-001</leafValues></_>
        <_>
          <internalNodes>
            0 -1 232 6.2326624989509583e-002</internalNodes>
          <leafValues>
            -1.4013555645942688e-001 1.6697981953620911e-001</leafValues></_>
        <_>
          <internalNodes>
            0 -1 202 1.3197728991508484e-001</internalNodes>
          <leafValues>
            4.1468601673841476e-002 -5.4739809036254883e-001</leafValues></_>
        <_>
          <internalNodes>
            0 -1 156 4.9359793774783611e-004</internalNodes>
          <leafValues>
            4.1581627726554871e-001 -5.9063404798507690e-002</leafValues></_>
        <_>
          <internalNodes>
            0 -1 17 1.2592804431915283e-001</internalNodes>
          <leafValues>
            3.0504519119858742e-002 -8.3193975687026978e-001</leafValues></_>
        <_>
          <internalNodes>
            0 -1 225 2.8570222202688456e-003</internalNodes>
          <leafValues>
            -5.6434541940689087e-001 2.4840978905558586e-002</leafValues></_>
        <_>
          <internalNodes>
            0 -1 0 6.4930349588394165e-002</internalNodes>
          <leafValues>
            2.4684861302375793e-002 -6.6745334863662720e-001</leafValues></_>
        <_>
          <internalNodes>
            0 -1 52 2.2619876835960895e-004</internalNodes>
          <leafValues>
            4.4567483663558960e-001 -4.4917006045579910e-002</leafValues></_>
        <_>
          <internalNodes>
            0 -1 253 1.3683274388313293e-002</internalNodes>
          <leafValues>
            -1.8895499408245087e-001 1.0431922972202301e-001</leafValues></_>
        <_>
          <internalNodes>
            0 -1 21 1.1642850935459137e-002</internalNodes>
          <leafValues>
            1.1582698673009872e-001 -2.0720753073692322e-001</leafValues></_>
        <_>
          <internalNodes>
            0 -1 141 5.3450908511877060e-002</internalNodes>
          <leafValues>
            -5.1833070814609528e-002 3.7876993417739868e-001</leafValues></_>
        <_>
          <internalNodes>
            0 -1 266 2.2635618224740028e-003</internalNodes>
          <leafValues>
            -6.3729000091552734e-001 3.0664945021271706e-002</leafValues></_>
        <_>
          <internalNodes>
            0 -1 167 7.6643296051770449e-004</internalNodes>
          <leafValues>
            3.9678516983985901e-001 -5.3000498563051224e-002</leafValues></_>
        <_>
          <internalNodes>
            0 -1 273 2.7838822454214096e-002</internalNodes>
          <leafValues>
            -1.4610870182514191e-001 1.4019614458084106e-001</leafValues></_>
        <_>
          <internalNodes>
            0 -1 195 1.6101416945457458e-001</internalNodes>
          <leafValues>
            2.8436873108148575e-002 -6.6538041830062866e-001</leafValues></_>
        <_>
          <internalNodes>
            0 -1 30 3.5187770845368505e-004</internalNodes>
          <leafValues>
            4.7824463248252869e-001 -4.0354847908020020e-002</leafValues></_>
        <_>
          <internalNodes>
            0 -1 229 7.5506404042243958e-002</internalNodes>
          <leafValues>
            1.9882908090949059e-002 -8.3055317401885986e-001</leafValues></_>
        <_>
          <internalNodes>
            0 -1 231 3.9222287014126778e-003</internalNodes>
          <leafValues>
            -2.7551212906837463e-001 5.7929717004299164e-002</leafValues></_>
        <_>
          <internalNodes>
            0 -1 73 6.2128668650984764e-004</internalNodes>
          <leafValues>
            2.6569983363151550e-001 -6.1045825481414795e-002</leafValues></_>
        <_>
          <internalNodes>
            0 -1 164 1.9914408028125763e-001</internalNodes>
          <leafValues>
            2.3675154894590378e-002 -6.0264617204666138e-001</leafValues></_>
        <_>
          <internalNodes>
            0 -1 146 6.9754198193550110e-004</internalNodes>
          <leafValues>
            3.1222966313362122e-001 -5.3853407502174377e-002</leafValues></_>
        <_>
          <internalNodes>
            0 -1 133 3.0546311754733324e-003</internalNodes>
          <leafValues>
            -3.7941318750381470e-001 4.1514523327350616e-002</leafValues></_>
        <_>
          <internalNodes>
            0 -1 189 5.0596974324434996e-004</internalNodes>
          <leafValues>
            4.1362303495407104e-001 -4.0051072835922241e-002</leafValues></_>
        <_>
          <internalNodes>
            0 -1 135 1.6182880848646164e-002</internalNodes>
          <leafValues>
            -1.1663369834423065e-001 1.2667806446552277e-001</leafValues></_>
        <_>
          <internalNodes>
            0 -1 96 1.9280774518847466e-002</internalNodes>
          <leafValues>
            9.6768252551555634e-002 -1.5264762938022614e-001</leafValues></_>
        <_>
          <internalNodes>
            0 -1 1 2.1883705630898476e-003</internalNodes>
          <leafValues>
            1.7387780547142029e-001 -9.0817637741565704e-002</leafValues></_>
        <_>
          <internalNodes>
            0 -1 107 4.5839659869670868e-002</internalNodes>
          <leafValues>
            -7.8295722603797913e-002 2.5022163987159729e-001</leafValues></_>
        <_>
          <internalNodes>
            0 -1 222 8.8329383288510144e-005</internalNodes>
          <leafValues>
            -7.6460677385330200e-001 2.2978821769356728e-002</leafValues></_>
        <_>
          <internalNodes>
            0 -1 112 4.8698124010115862e-004</internalNodes>
          <leafValues>
            2.2565215826034546e-001 -6.8156577646732330e-002</leafValues></_>
        <_>
          <internalNodes>
            0 -1 125 3.6245640367269516e-002</internalNodes>
          <leafValues>
            -7.0376791059970856e-002 2.8572025895118713e-001</leafValues></_>
        <_>
          <internalNodes>
            0 -1 205 4.8960853368043900e-002</internalNodes>
          <leafValues>
            2.5375960394740105e-002 -6.7925441265106201e-001</leafValues></_>
        <_>
          <internalNodes>
            0 -1 256 6.8722456693649292e-002</internalNodes>
          <leafValues>
            1.5253908000886440e-002 -6.9356358051300049e-001</leafValues></_>
        <_>
          <internalNodes>
            0 -1 162 1.5177016146481037e-002</internalNodes>
          <leafValues>
            8.1663817167282104e-002 -1.5826962888240814e-001</leafValues></_>
        <_>
          <internalNodes>
            0 -1 160 1.7735743522644043e-001</internalNodes>
          <leafValues>
            2.8406003490090370e-002 -4.5664769411087036e-001</leafValues></_>
        <_>
          <internalNodes>
            0 -1 215 1.5461595728993416e-002</internalNodes>
          <leafValues>
            8.1759676337242126e-002 -1.6678202152252197e-001</leafValues></_>
        <_>
          <internalNodes>
            0 -1 288 2.4964703246951103e-002</internalNodes>
          <leafValues>
            -8.6940206587314606e-002 1.7257268726825714e-001</leafValues></_>
        <_>
          <internalNodes>
            0 -1 107 2.4580753233749419e-005</internalNodes>
          <leafValues>
            -4.6116140484809875e-001 2.9126547276973724e-002</leafValues></_>
        <_>
          <internalNodes>
            0 -1 15 6.0382246971130371e-002</internalNodes>
          <leafValues>
            -6.8745575845241547e-002 2.1059325337409973e-001</leafValues></_>
        <_>
          <internalNodes>
            0 -1 32 3.2779516186565161e-004</internalNodes>
          <leafValues>
            3.2181307673454285e-001 -4.1419498622417450e-002</leafValues></_>
        <_>
          <internalNodes>
            0 -1 235 3.5113105695927516e-005</internalNodes>
          <leafValues>
            -8.3161872625350952e-001 1.9956920295953751e-002</leafValues></_>
        <_>
          <internalNodes>
            0 -1 97 3.8474902510643005e-002</internalNodes>
          <leafValues>
            -1.2938155233860016e-001 9.8540641367435455e-002</leafValues></_>
        <_>
          <internalNodes>
            0 -1 93 8.0750249326229095e-003</internalNodes>
          <leafValues>
            1.4309769868850708e-001 -9.3565374612808228e-002</leafValues></_>
        <_>
          <internalNodes>
            0 -1 187 1.1154310405254364e-001</internalNodes>
          <leafValues>
            5.1074702292680740e-002 -2.9211965203285217e-001</leafValues></_>
        <_>
          <internalNodes>
            0 -1 110 3.6545537412166595e-002</internalNodes>
          <leafValues>
            6.7875184118747711e-002 -1.8411113321781158e-001</leafValues></_>
        <_>
          <internalNodes>
            0 -1 277 4.5930020511150360e-002</internalNodes>
          <leafValues>
            -1.2799422442913055e-001 1.1197835206985474e-001</leafValues></_>
        <_>
          <internalNodes>
            0 -1 191 1.6318333148956299e-001</internalNodes>
          <leafValues>
            2.8767518699169159e-002 -5.0983929634094238e-001</leafValues></_>
        <_>
          <internalNodes>
            0 -1 105 3.5458009690046310e-002</internalNodes>
          <leafValues>
            -6.2516205012798309e-002 2.1986044943332672e-001</leafValues></_>
        <_>
          <internalNodes>
            0 -1 191 2.9076931532472372e-003</internalNodes>
          <leafValues>
            -4.6885836124420166e-001 2.6118995621800423e-002</leafValues></_>
        <_>
          <internalNodes>
            0 -1 24 2.4734059115871787e-004</internalNodes>
          <leafValues>
            2.2729104757308960e-001 -5.9634543955326080e-002</leafValues></_>
        <_>
          <internalNodes>
            0 -1 122 1.2573599815368652e-002</internalNodes>
          <leafValues>
            -2.1290037035942078e-001 8.6416147649288177e-002</leafValues></_>
        <_>
          <internalNodes>
            0 -1 207 5.5700227618217468e-002</internalNodes>
          <leafValues>
            -1.2061965465545654e-001 1.0255219787359238e-001</leafValues></_>
        <_>
          <internalNodes>
            0 -1 115 2.0050993561744690e-001</internalNodes>
          <leafValues>
            1.3868347741663456e-002 -7.8033554553985596e-001</leafValues></_>
        <_>
          <internalNodes>
            0 -1 151 8.8423520326614380e-002</internalNodes>
          <leafValues>
            -3.2352857291698456e-002 3.8546079397201538e-001</leafValues></_>
        <_>
          <internalNodes>
            0 -1 210 2.5089702103286982e-003</internalNodes>
          <leafValues>
            -2.6671767234802246e-001 4.5002948492765427e-002</leafValues></_>
        <_>
          <internalNodes>
            0 -1 80 1.1133325751870871e-003</internalNodes>
          <leafValues>
            3.4404063224792480e-001 -3.8489680737257004e-002</leafValues></_>
        <_>
          <internalNodes>
            0 -1 249 3.6274585872888565e-003</internalNodes>
          <leafValues>
            -3.2574149966239929e-001 3.9204400032758713e-002</leafValues></_>
        <_>
          <internalNodes>
            0 -1 159 6.4280792139470577e-004</internalNodes>
          <leafValues>
            2.8657984733581543e-001 -4.7754429280757904e-002</leafValues></_>
        <_>
          <internalNodes>
            0 -1 88 9.2985652387142181e-002</internalNodes>
          <leafValues>
            1.7628090456128120e-002 -6.3187384605407715e-001</leafValues></_>
        <_>
          <internalNodes>
            0 -1 19 2.8466423973441124e-002</internalNodes>
          <leafValues>
            -9.2322424054145813e-002 1.3850636780261993e-001</leafValues></_>
        <_>
          <internalNodes>
            0 -1 217 8.1671968102455139e-002</internalNodes>
          <leafValues>
            -2.5544885545969009e-002 4.8984903097152710e-001</leafValues></_>
        <_>
          <internalNodes>
            0 -1 198 2.9915807768702507e-002</internalNodes>
          <leafValues>
            -8.3001911640167236e-002 1.5567545592784882e-001</leafValues></_>
        <_>
          <internalNodes>
            0 -1 212 8.2243755459785461e-002</internalNodes>
          <leafValues>
            -7.8927487134933472e-002 1.9338141381740570e-001</leafValues></_>
        <_>
          <internalNodes>
            0 -1 287 7.9845063388347626e-002</internalNodes>
          <leafValues>
            1.6431162133812904e-002 -7.3802167177200317e-001</leafValues></_>
        <_>
          <internalNodes>
            0 -1 12 3.1756511889398098e-003</internalNodes>
          <leafValues>
            -3.9554870128631592e-001 2.7001563459634781e-002</leafValues></_>
        <_>
          <internalNodes>
            0 -1 149 5.9851095080375671e-002</internalNodes>
          <leafValues>
            -2.4673998355865479e-002 4.7800657153129578e-001</leafValues></_>
        <_>
          <internalNodes>
            0 -1 95 1.0787181556224823e-001</internalNodes>
          <leafValues>
            1.4456816948950291e-002 -8.9138102531433105e-001</leafValues></_>
        <_>
          <internalNodes>
            0 -1 6 4.2586587369441986e-004</internalNodes>
          <leafValues>
            3.5055306553840637e-001 -3.7013631314039230e-002</leafValues></_>
        <_>
          <internalNodes>
            0 -1 257 2.2693850100040436e-002</internalNodes>
          <leafValues>
            -6.8815201520919800e-002 1.6680501401424408e-001</leafValues></_>
        <_>
          <internalNodes>
            0 -1 129 7.1057491004467010e-003</internalNodes>
          <leafValues>
            1.5760768949985504e-001 -8.7942361831665039e-002</leafValues></_>
        <_>
          <internalNodes>
            0 -1 165 2.7117967605590820e-001</internalNodes>
          <leafValues>
            1.3170802034437656e-002 -8.4675252437591553e-001</leafValues></_>
        <_>
          <internalNodes>
            0 -1 144 2.0205430686473846e-002</internalNodes>
          <leafValues>
            8.2759521901607513e-002 -1.2980870902538300e-001</leafValues></_>
        <_>
          <internalNodes>
            0 -1 209 1.1148212477564812e-002</internalNodes>
          <leafValues>
            -2.0465627312660217e-001 7.7223248779773712e-002</leafValues></_>
        <_>
          <internalNodes>
            0 -1 173 7.3453516233712435e-004</internalNodes>
          <leafValues>
            2.2855289280414581e-001 -5.1506958901882172e-002</leafValues></_>
        <_>
          <internalNodes>
            0 -1 283 3.9279020711546764e-005</internalNodes>
          <leafValues>
            -4.1426998376846313e-001 2.6639064773917198e-002</leafValues></_>
        <_>
          <internalNodes>
            0 -1 282 4.6517733484506607e-002</internalNodes>
          <leafValues>
            3.1847693026065826e-002 -3.6918264627456665e-001</leafValues></_>
        <_>
          <internalNodes>
            0 -1 166 5.1732640713453293e-004</internalNodes>
          <leafValues>
            3.0197510123252869e-001 -3.7789933383464813e-002</leafValues></_>
        <_>
          <internalNodes>
            0 -1 64 8.1591352820396423e-002</internalNodes>
          <leafValues>
            -1.9512997940182686e-002 5.9367668628692627e-001</leafValues></_>
        <_>
          <internalNodes>
            0 -1 213 5.4887111764401197e-004</internalNodes>
          <leafValues>
            -6.0298603773117065e-001 1.9924981519579887e-002</leafValues></_></weakClassifiers></_></stages>
  <features>
    <_>
      <rect>
        0 0 8 8 3</rect></_>
    <_>
      <rect>
        0 0 8 8 4</rect></_>
    <_>
      <rect>
        0 0 8 8 5</rect></_>
    <_>
      <rect>
        0 0 8 8 6</rect></_>
    <_>
      <rect>
        0 0 8 8 7</rect></_>
    <_>
      <rect>
        0 0 8 8 8</rect></_>
    <_>
      <rect>
        0 0 8 8 10</rect></_>
    <_>
      <rect>
        0 0 8 8 11</rect></_>
    <_>
      <rect>
        0 0 8 8 12</rect></_>
    <_>
      <rect>
        0 0 8 8 13</rect></_>
    <_>
      <rect>
        0 0 8 8 14</rect></_>
    <_>
      <rect>
        0 0 8 8 16</rect></_>
    <_>
      <rect>
        0 0 8 8 17</rect></_>
    <_>
      <rect>
        0 0 8 8 19</rect></_>
    <_>
      <rect>
        0 0 8 8 22</rect></_>
    <_>
      <rect>
        0 0 8 8 27</rect></_>
    <_>
      <rect>
        0 0 8 8 30</rect></_>
    <_>
      <rect>
        0 0 8 8 31</rect></_>
    <_>
      <rect>
        0 0 8 8 32</rect></_>
    <_>
      <rect>
        0 0 8 8 33</rect></_>
    <_>
      <rect>
        0 4 8 8 0</rect></_>
    <_>
      <rect>
        0 4 8 8 3</rect></_>
    <_>
      <rect>
        0 4 8 8 4</rect></_>
    <_>
      <rect>
        0 4 8 8 5</rect></_>
    <_>
      <rect>
        0 4 8 8 6</rect></_>
    <_>
      <rect>
        0 4 8 8 7</rect></_>
    <_>
      <rect>
        0 4 8 8 8</rect></_>
    <_>
      <rect>
        0 4 8 8 10</rect></_>
    <_>
      <rect>
        0 4 8 8 11</rect></_>
    <_>
      <rect>
        0 4 8 8 13</rect></_>
    <_>
      <rect>
        0 4 8 8 15</rect></_>
    <_>
      <rect>
        0 4 8 8 17</rect></_>
    <_>
      <rect>
        0 4 8 8 19</rect></_>
    <_>
      <rect>
        0 4 8 8 22</rect></_>
    <_>
      <rect>
        0 4 8 8 26</rect></_>
    <_>
      <rect>
        0 4 8 8 27</rect></_>
    <_>
      <rect>
        0 4 8 8 28</rect></_>
    <_>
      <rect>
        0 4 8 8 30</rect></_>
    <_>
      <rect>
        0 8 8 8 4</rect></_>
    <_>
      <rect>
        0 8 8 8 6</rect></_>
    <_>
      <rect>
        0 8 8 8 7</rect></_>
    <_>
      <rect>
        0 8 8 8 14</rect></_>
    <_>
      <rect>
        0 8 8 8 18</rect></_>
    <_>
      <rect>
        0 8 8 8 19</rect></_>
    <_>
      <rect>
        0 8 8 8 22</rect></_>
    <_>
      <rect>
        0 8 8 8 24</rect></_>
    <_>
      <rect>
        0 8 8 8 26</rect></_>
    <_>
      <rect>
        0 12 8 8 4</rect></_>
    <_>
      <rect>
        0 12 8 8 6</rect></_>
    <_>
      <rect>
        0 12 8 8 7</rect></_>
    <_>
      <rect>
        0 12 8 8 8</rect></_>
    <_>
      <rect>
        0 12 8 8 13</rect></_>
    <_>
      <rect>
        0 12 8 8 15</rect></_>
    <_>
      <rect>
        0 12 8 8 16</rect></_>
    <_>
      <rect>
        0 12 8 8 18</rect></_>
    <_>
      <rect>
        0 12 8 8 19</rect></_>
    <_>
      <rect>
        0 12 8 8 21</rect></_>
    <_>
      <rect>
        0 12 8 8 22</rect></_>
    <_>
      <rect>
        0 12 8 8 34</rect></_>
    <_>
      <rect>
        0 16 8 8 2</rect></_>
    <_>
      <rect>
        0 16 8 8 4</rect></_>
    <_>
      <rect>
        0 16 8 8 5</rect></_>
    <_>
      <rect>
        0 16 8 8 7</rect></_>
    <_>
      <rect>
        0 16 8 8 8</rect></_>
    <_>
      <rect>
        0 16 8 8 15</rect></_>
    <_>
      <rect>
        0 16 8 8 16</rect></_>
    <_>
      <rect>
        0 16 8 8 22</rect></_>
    <_>
      <rect>
        0 16 8 8 23</rect></_>
    <_>
      <rect>
        0 16 8 8 27</rect></_>
    <_>
      <rect>
        0 16 8 8 28</rect></_>
    <_>
      <rect>
        0 16 8 8 34</rect></_>
    <_>
      <rect>
        0 20 8 8 1</rect></_>
    <_>
      <rect>
        0 20 8 8 2</rect></_>
    <_>
      <rect>
        0 20 8 8 4</rect></_>
    <_>
      <rect>
        0 20 8 8 6</rect></_>
    <_>
      <rect>
        0 20 8 8 7</rect></_>
    <_>
      <rect>
        0 20 8 8 15</rect></_>
    <_>
      <rect>
        0 20 8 8 22</rect></_>
    <_>
      <rect>
        0 20 8 8 23</rect></_>
    <_>
      <rect>
        0 20 8 8 24</rect></_>
    <_>
      <rect>
        0 20 8 8 31</rect></_>
    <_>
      <rect>
        0 20 8 8 33</rect></_>
    <_>
      <rect>
        0 20 8 8 34</rect></_>
    <_>
      <rect>
        0 20 8 8 35</rect></_>
    <_>
      <rect>
        0 24 8 8 1</rect></_>
    <_>
      <rect>
        0 24 8 8 4</rect></_>
    <_>
      <rect>
        0 24 8 8 9</rect></_>
    <_>
      <rect>
        0 24 8 8 10</rect></_>
    <_>
      <rect>
        0 24 8 8 13</rect></_>
    <_>
      <rect>
        0 24 8 8 15</rect></_>
    <_>
      <rect>
        0 24 8 8 16</rect></_>
    <_>
      <rect>
        0 24 8 8 17</rect></_>
    <_>
      <rect>
        0 24 8 8 18</rect></_>
    <_>
      <rect>
        0 24 8 8 19</rect></_>
    <_>
      <rect>
        0 24 8 8 21</rect></_>
    <_>
      <rect>
        0 24 8 8 22</rect></_>
    <_>
      <rect>
        0 24 8 8 24</rect></_>
    <_>
      <rect>
        0 24 8 8 26</rect></_>
    <_>
      <rect>
        0 24 8 8 29</rect></_>
    <_>
      <rect>
        0 24 8 8 30</rect></_>
    <_>
      <rect>
        0 24 8 8 31</rect></_>
    <_>
      <rect>
        0 24 8 8 32</rect></_>
    <_>
      <rect>
        0 24 8 8 35</rect></_>
    <_>
      <rect>
        4 0 8 8 0</rect></_>
    <_>
      <rect>
        4 0 8 8 1</rect></_>
    <_>
      <rect>
        4 0 8 8 2</rect></_>
    <_>
      <rect>
        4 0 8 8 3</rect></_>
    <_>
      <rect>
        4 0 8 8 4</rect></_>
    <_>
      <rect>
        4 0 8 8 6</rect></_>
    <_>
      <rect>
        4 0 8 8 8</rect></_>
    <_>
      <rect>
        4 0 8 8 9</rect></_>
    <_>
      <rect>
        4 0 8 8 10</rect></_>
    <_>
      <rect>
        4 0 8 8 11</rect></_>
    <_>
      <rect>
        4 0 8 8 12</rect></_>
    <_>
      <rect>
        4 0 8 8 13</rect></_>
    <_>
      <rect>
        4 0 8 8 17</rect></_>
    <_>
      <rect>
        4 0 8 8 21</rect></_>
    <_>
      <rect>
        4 0 8 8 27</rect></_>
    <_>
      <rect>
        4 0 8 8 33</rect></_>
    <_>
      <rect>
        4 0 8 8 35</rect></_>
    <_>
      <rect>
        4 4 8 8 4</rect></_>
    <_>
      <rect>
        4 4 8 8 5</rect></_>
    <_>
      <rect>
        4 4 8 8 7</rect></_>
    <_>
      <rect>
        4 4 8 8 8</rect></_>
    <_>
      <rect>
        4 4 8 8 9</rect></_>
    <_>
      <rect>
        4 4 8 8 10</rect></_>
    <_>
      <rect>
        4 4 8 8 11</rect></_>
    <_>
      <rect>
        4 4 8 8 12</rect></_>
    <_>
      <rect>
        4 4 8 8 13</rect></_>
    <_>
      <rect>
        4 4 8 8 14</rect></_>
    <_>
      <rect>
        4 4 8 8 17</rect></_>
    <_>
      <rect>
        4 4 8 8 30</rect></_>
    <_>
      <rect>
        4 4 8 8 33</rect></_>
    <_>
      <rect>
        4 4 8 8 34</rect></_>
    <_>
      <rect>
        4 8 8 8 1</rect></_>
    <_>
      <rect>
        4 8 8 8 2</rect></_>
    <_>
      <rect>
        4 8 8 8 5</rect></_>
    <_>
      <rect>
        4 8 8 8 6</rect></_>
    <_>
      <rect>
        4 8 8 8 9</rect></_>
    <_>
      <rect>
        4 8 8 8 10</rect></_>
    <_>
      <rect>
        4 8 8 8 11</rect></_>
    <_>
      <rect>
        4 8 8 8 15</rect></_>
    <_>
      <rect>
        4 8 8 8 24</rect></_>
    <_>
      <rect>
        4 8 8 8 27</rect></_>
    <_>
      <rect>
        4 8 8 8 28</rect></_>
    <_>
      <rect>
        4 8 8 8 29</rect></_>
    <_>
      <rect>
        4 8 8 8 31</rect></_>
    <_>
      <rect>
        4 8 8 8 34</rect></_>
    <_>
      <rect>
        4 8 8 8 35</rect></_>
    <_>
      <rect>
        4 12 8 8 2</rect></_>
    <_>
      <rect>
        4 12 8 8 5</rect></_>
    <_>
      <rect>
        4 12 8 8 9</rect></_>
    <_>
      <rect>
        4 12 8 8 13</rect></_>
    <_>
      <rect>
        4 12 8 8 15</rect></_>
    <_>
      <rect>
        4 12 8 8 16</rect></_>
    <_>
      <rect>
        4 12 8 8 17</rect></_>
    <_>
      <rect>
        4 12 8 8 24</rect></_>
    <_>
      <rect>
        4 12 8 8 33</rect></_>
    <_>
      <rect>
        4 12 8 8 35</rect></_>
    <_>
      <rect>
        4 16 8 8 5</rect></_>
    <_>
      <rect>
        4 16 8 8 8</rect></_>
    <_>
      <rect>
        4 16 8 8 13</rect></_>
    <_>
      <rect>
        4 16 8 8 14</rect></_>
    <_>
      <rect>
        4 16 8 8 15</rect></_>
    <_>
      <rect>
        4 16 8 8 17</rect></_>
    <_>
      <rect>
        4 16 8 8 26</rect></_>
    <_>
      <rect>
        4 16 8 8 31</rect></_>
    <_>
      <rect>
        4 16 8 8 33</rect></_>
    <_>
      <rect>
        4 16 8 8 34</rect></_>
    <_>
      <rect>
        4 20 8 8 5</rect></_>
    <_>
      <rect>
        4 20 8 8 6</rect></_>
    <_>
      <rect>
        4 20 8 8 10</rect></_>
    <_>
      <rect>
        4 20 8 8 13</rect></_>
    <_>
      <rect>
        4 20 8 8 14</rect></_>
    <_>
      <rect>
        4 20 8 8 18</rect></_>
    <_>
      <rect>
        4 20 8 8 21</rect></_>
    <_>
      <rect>
        4 20 8 8 24</rect></_>
    <_>
      <rect>
        4 20 8 8 26</rect></_>
    <_>
      <rect>
        4 20 8 8 31</rect></_>
    <_>
      <rect>
        4 20 8 8 35</rect></_>
    <_>
      <rect>
        4 24 8 8 0</rect></_>
    <_>
      <rect>
        4 24 8 8 6</rect></_>
    <_>
      <rect>
        4 24 8 8 7</rect></_>
    <_>
      <rect>
        4 24 8 8 14</rect></_>
    <_>
      <rect>
        4 24 8 8 17</rect></_>
    <_>
      <rect>
        4 24 8 8 21</rect></_>
    <_>
      <rect>
        4 24 8 8 22</rect></_>
    <_>
      <rect>
        4 24 8 8 26</rect></_>
    <_>
      <rect>
        4 24 8 8 30</rect></_>
    <_>
      <rect>
        4 24 8 8 33</rect></_>
    <_>
      <rect>
        4 24 8 8 34</rect></_>
    <_>
      <rect>
        4 24 8 8 35</rect></_>
    <_>
      <rect>
        0 0 8 16 0</rect></_>
    <_>
      <rect>
        0 0 8 16 3</rect></_>
    <_>
      <rect>
        0 0 8 16 4</rect></_>
    <_>
      <rect>
        0 0 8 16 8</rect></_>
    <_>
      <rect>
        0 0 8 16 10</rect></_>
    <_>
      <rect>
        0 0 8 16 11</rect></_>
    <_>
      <rect>
        0 0 8 16 12</rect></_>
    <_>
      <rect>
        0 0 8 16 13</rect></_>
    <_>
      <rect>
        0 0 8 16 14</rect></_>
    <_>
      <rect>
        0 0 8 16 15</rect></_>
    <_>
      <rect>
        0 0 8 16 17</rect></_>
    <_>
      <rect>
        0 0 8 16 18</rect></_>
    <_>
      <rect>
        0 0 8 16 21</rect></_>
    <_>
      <rect>
        0 0 8 16 22</rect></_>
    <_>
      <rect>
        0 0 8 16 25</rect></_>
    <_>
      <rect>
        0 0 8 16 26</rect></_>
    <_>
      <rect>
        0 0 8 16 27</rect></_>
    <_>
      <rect>
        0 0 8 16 28</rect></_>
    <_>
      <rect>
        0 0 8 16 30</rect></_>
    <_>
      <rect>
        0 0 8 16 31</rect></_>
    <_>
      <rect>
        0 0 8 16 35</rect></_>
    <_>
      <rect>
        0 4 8 16 0</rect></_>
    <_>
      <rect>
        0 4 8 16 3</rect></_>
    <_>
      <rect>
        0 4 8 16 4</rect></_>
    <_>
      <rect>
        0 4 8 16 5</rect></_>
    <_>
      <rect>
        0 4 8 16 7</rect></_>
    <_>
      <rect>
        0 4 8 16 8</rect></_>
    <_>
      <rect>
        0 4 8 16 9</rect></_>
    <_>
      <rect>
        0 4 8 16 13</rect></_>
    <_>
      <rect>
        0 4 8 16 17</rect></_>
    <_>
      <rect>
        0 4 8 16 18</rect></_>
    <_>
      <rect>
        0 4 8 16 21</rect></_>
    <_>
      <rect>
        0 4 8 16 22</rect></_>
    <_>
      <rect>
        0 4 8 16 25</rect></_>
    <_>
      <rect>
        0 4 8 16 26</rect></_>
    <_>
      <rect>
        0 4 8 16 27</rect></_>
    <_>
      <rect>
        0 4 8 16 28</rect></_>
    <_>
      <rect>
        0 4 8 16 30</rect></_>
    <_>
      <rect>
        0 4 8 16 31</rect></_>
    <_>
      <rect>
        0 4 8 16 32</rect></_>
    <_>
      <rect>
        0 4 8 16 35</rect></_>
    <_>
      <rect>
        0 8 8 16 0</rect></_>
    <_>
      <rect>
        0 8 8 16 3</rect></_>
    <_>
      <rect>
        0 8 8 16 7</rect></_>
    <_>
      <rect>
        0 8 8 16 8</rect></_>
    <_>
      <rect>
        0 8 8 16 9</rect></_>
    <_>
      <rect>
        0 8 8 16 12</rect></_>
    <_>
      <rect>
        0 8 8 16 13</rect></_>
    <_>
      <rect>
        0 8 8 16 14</rect></_>
    <_>
      <rect>
        0 8 8 16 18</rect></_>
    <_>
      <rect>
        0 8 8 16 20</rect></_>
    <_>
      <rect>
        0 8 8 16 21</rect></_>
    <_>
      <rect>
        0 8 8 16 22</rect></_>
    <_>
      <rect>
        0 8 8 16 25</rect></_>
    <_>
      <rect>
        0 8 8 16 26</rect></_>
    <_>
      <rect>
        0 8 8 16 27</rect></_>
    <_>
      <rect>
        0 8 8 16 30</rect></_>
    <_>
      <rect>
        0 8 8 16 31</rect></_>
    <_>
      <rect>
        0 8 8 16 34</rect></_>
    <_>
      <rect>
        4 0 8 16 1</rect></_>
    <_>
      <rect>
        4 0 8 16 2</rect></_>
    <_>
      <rect>
        4 0 8 16 3</rect></_>
    <_>
      <rect>
        4 0 8 16 4</rect></_>
    <_>
      <rect>
        4 0 8 16 8</rect></_>
    <_>
      <rect>
        4 0 8 16 12</rect></_>
    <_>
      <rect>
        4 0 8 16 14</rect></_>
    <_>
      <rect>
        4 0 8 16 15</rect></_>
    <_>
      <rect>
        4 0 8 16 16</rect></_>
    <_>
      <rect>
        4 0 8 16 17</rect></_>
    <_>
      <rect>
        4 0 8 16 18</rect></_>
    <_>
      <rect>
        4 0 8 16 19</rect></_>
    <_>
      <rect>
        4 0 8 16 21</rect></_>
    <_>
      <rect>
        4 0 8 16 22</rect></_>
    <_>
      <rect>
        4 0 8 16 25</rect></_>
    <_>
      <rect>
        4 0 8 16 27</rect></_>
    <_>
      <rect>
        4 0 8 16 29</rect></_>
    <_>
      <rect>
        4 0 8 16 30</rect></_>
    <_>
      <rect>
        4 0 8 16 31</rect></_>
    <_>
      <rect>
        4 0 8 16 33</rect></_>
    <_>
      <rect>
        4 0 8 16 35</rect></_>
    <_>
      <rect>
        4 4 8 16 6</rect></_>
    <_>
      <rect>
        4 4 8 16 7</rect></_>
    <_>
      <rect>
        4 4 8 16 9</rect></_>
    <_>
      <rect>
        4 4 8 16 13</rect></_>
    <_>
      <rect>
        4 4 8 16 16</rect></_>
    <_>
      <rect>
        4 4 8 16 17</rect></_>
    <_>
      <rect>
        4 4 8 16 22</rect></_>
    <_>
      <rect>
        4 4 8 16 25</rect></_>
    <_>
      <rect>
        4 4 8 16 26</rect></_>
    <_>
      <rect>
        4 4 8 16 27</rect></_>
    <_>
      <rect>
        4 4 8 16 28</rect></_>
    <_>
      <rect>
        4 4 8 16 30</rect></_>
    <_>
      <rect>
        4 4 8 16 31</rect></_>
    <_>
      <rect>
        4 4 8 16 34</rect></_>
    <_>
      <rect>
        4 4 8 16 35</rect></_>
    <_>
      <rect>
        4 8 8 16 3</rect></_>
    <_>
      <rect>
        4 8 8 16 4</rect></_>
    <_>
      <rect>
        4 8 8 16 7</rect></_>
    <_>
      <rect>
        4 8 8 16 9</rect></_>
    <_>
      <rect>
        4 8 8 16 24</rect></_>
    <_>
      <rect>
        4 8 8 16 25</rect></_>
    <_>
      <rect>
        4 8 8 16 27</rect></_>
    <_>
      <rect>
        4 8 8 16 28</rect></_>
    <_>
      <rect>
        4 8 8 16 30</rect></_>
    <_>
      <rect>
        4 8 8 16 35</rect></_></features></cascade>
</opencv_storage>
