<?xml version="1.0"?>
<opencv_storage>
<cascade>
  <stageType>BOOST</stageType>
  <featureType>HOG</featureType>
  <height>40</height>
  <width>20</width>
  <stageParams>
    <boostType>GAB</boostType>
    <minHitRate>9.9500000476837158e-001</minHitRate>
    <maxFalseAlarm>5.0000000000000000e-001</maxFalseAlarm>
    <weightTrimRate>9.4999998807907104e-001</weightTrimRate>
    <maxDepth>1</maxDepth>
    <maxWeakCount>100</maxWeakCount></stageParams>
  <featureParams>
    <maxCatCount>0</maxCatCount>
    <featSize>36</featSize></featureParams>
  <stageNum>24</stageNum>
  <stages>
    <!-- stage 0 -->
    <_>
      <maxWeakCount>1</maxWeakCount>
      <stageThreshold>1.</stageThreshold>
      <weakClassifiers>
        <_>
          <internalNodes>
            0 -1 397 9.3899681814946234e-005</internalNodes>
          <leafValues>
            -9.9800199270248413e-001 1.</leafValues></_></weakClassifiers></_>
    <!-- stage 1 -->
    <_>
      <maxWeakCount>3</maxWeakCount>
      <stageThreshold>9.0442597866058350e-001</stageThreshold>
      <weakClassifiers>
        <_>
          <internalNodes>
            0 -1 330 5.9780042618513107e-002</internalNodes>
          <leafValues>
            9.6216118335723877e-001 -6.4236110448837280e-001</leafValues></_>
        <_>
          <internalNodes>
            0 -1 319 4.5449208468198776e-002</internalNodes>
          <leafValues>
            8.6321777105331421e-001 -6.6132712364196777e-001</leafValues></_>
        <_>
          <internalNodes>
            0 -1 407 2.6490999385714531e-002</internalNodes>
          <leafValues>
            6.8356931209564209e-001 -5.1960653066635132e-001</leafValues></_></weakClassifiers></_>
    <!-- stage 2 -->
    <_>
      <maxWeakCount>12</maxWeakCount>
      <stageThreshold>-7.2970531880855560e-002</stageThreshold>
      <weakClassifiers>
        <_>
          <internalNodes>
            0 -1 394 8.1239417195320129e-002</internalNodes>
          <leafValues>
            9.4242918491363525e-001 -4.7081711888313293e-001</leafValues></_>
        <_>
          <internalNodes>
            0 -1 330 2.6144750416278839e-002</internalNodes>
          <leafValues>
            8.2052522897720337e-001 -2.0549415051937103e-001</leafValues></_>
        <_>
          <internalNodes>
            0 -1 27 7.4301138520240784e-003</internalNodes>
          <leafValues>
            7.3644125461578369e-001 -2.3616269230842590e-001</leafValues></_>
        <_>
          <internalNodes>
            0 -1 259 1.1446017771959305e-002</internalNodes>
          <leafValues>
            4.9351298809051514e-001 -3.4161266684532166e-001</leafValues></_>
        <_>
          <internalNodes>
            0 -1 4 9.6405402291566133e-004</internalNodes>
          <leafValues>
            5.9139126539230347e-001 -2.4557536840438843e-001</leafValues></_>
        <_>
          <internalNodes>
            0 -1 159 1.3916452880948782e-003</internalNodes>
          <leafValues>
            5.9588044881820679e-001 -2.4740552902221680e-001</leafValues></_>
        <_>
          <internalNodes>
            0 -1 423 2.4840421974658966e-002</internalNodes>
          <leafValues>
            -2.9712373018264771e-001 4.3885549902915955e-001</leafValues></_>
        <_>
          <internalNodes>
            0 -1 366 1.1206485331058502e-001</internalNodes>
          <leafValues>
            1.5071655809879303e-001 -7.6650255918502808e-001</leafValues></_>
        <_>
          <internalNodes>
            0 -1 110 4.3732477352023125e-003</internalNodes>
          <leafValues>
            4.5889556407928467e-001 -2.1828222274780273e-001</leafValues></_>
        <_>
          <internalNodes>
            0 -1 371 2.5178730487823486e-002</internalNodes>
          <leafValues>
            -2.4367561936378479e-001 3.6797299981117249e-001</leafValues></_>
        <_>
          <internalNodes>
            0 -1 151 1.6343042254447937e-002</internalNodes>
          <leafValues>
            -2.7359628677368164e-001 3.2025507092475891e-001</leafValues></_>
        <_>
          <internalNodes>
            0 -1 318 4.4111140072345734e-002</internalNodes>
          <leafValues>
            1.1679264158010483e-001 -7.9908680915832520e-001</leafValues></_></weakClassifiers></_>
    <!-- stage 3 -->
    <_>
      <maxWeakCount>13</maxWeakCount>
      <stageThreshold>1.0220849514007568e-001</stageThreshold>
      <weakClassifiers>
        <_>
          <internalNodes>
            0 -1 383 6.5087229013442993e-002</internalNodes>
          <leafValues>
            9.4016730785369873e-001 -4.2465752363204956e-001</leafValues></_>
        <_>
          <internalNodes>
            0 -1 319 2.5659833103418350e-002</internalNodes>
          <leafValues>
            7.9123252630233765e-001 -8.6562700569629669e-002</leafValues></_>
        <_>
          <internalNodes>
            0 -1 330 1.5730161219835281e-002</internalNodes>
          <leafValues>
            5.2770513296127319e-001 -3.3924058079719543e-001</leafValues></_>
        <_>
          <internalNodes>
            0 -1 387 2.9787618666887283e-002</internalNodes>
          <leafValues>
            -5.3230571746826172e-001 3.3209952712059021e-001</leafValues></_>
        <_>
          <internalNodes>
            0 -1 4 1.6517280600965023e-003</internalNodes>
          <leafValues>
            5.0572955608367920e-001 -3.3950793743133545e-001</leafValues></_>
        <_>
          <internalNodes>
            0 -1 11 1.4669927768409252e-002</internalNodes>
          <leafValues>
            -3.4184995293617249e-001 4.2837753891944885e-001</leafValues></_>
        <_>
          <internalNodes>
            0 -1 309 3.4953888505697250e-002</internalNodes>
          <leafValues>
            -5.0678056478500366e-001 2.4169336259365082e-001</leafValues></_>
        <_>
          <internalNodes>
            0 -1 152 5.9625897556543350e-003</internalNodes>
          <leafValues>
            -4.6229663491249084e-001 2.3429603874683380e-001</leafValues></_>
        <_>
          <internalNodes>
            0 -1 27 1.8434794619679451e-003</internalNodes>
          <leafValues>
            6.0070854425430298e-001 -2.2716350853443146e-001</leafValues></_>
        <_>
          <internalNodes>
            0 -1 394 3.3299736678600311e-002</internalNodes>
          <leafValues>
            2.1284295618534088e-001 -5.3224909305572510e-001</leafValues></_>
        <_>
          <internalNodes>
            0 -1 349 1.3501175679266453e-002</internalNodes>
          <leafValues>
            -3.1340390443801880e-001 3.0902987718582153e-001</leafValues></_>
        <_>
          <internalNodes>
            0 -1 259 6.5189483575522900e-003</internalNodes>
          <leafValues>
            3.5528346896171570e-001 -2.0898821949958801e-001</leafValues></_>
        <_>
          <internalNodes>
            0 -1 291 1.4044237323105335e-002</internalNodes>
          <leafValues>
            -3.9888432621955872e-001 2.1466210484504700e-001</leafValues></_></weakClassifiers></_>
    <!-- stage 4 -->
    <_>
      <maxWeakCount>10</maxWeakCount>
      <stageThreshold>4.4060852378606796e-002</stageThreshold>
      <weakClassifiers>
        <_>
          <internalNodes>
            0 -1 46 3.7088731914991513e-005</internalNodes>
          <leafValues>
            -7.3863637447357178e-001 9.4004601240158081e-001</leafValues></_>
        <_>
          <internalNodes>
            0 -1 384 2.2245230153203011e-002</internalNodes>
          <leafValues>
            8.5393911600112915e-001 -6.6726721823215485e-002</leafValues></_>
        <_>
          <internalNodes>
            0 -1 307 1.8893633037805557e-002</internalNodes>
          <leafValues>
            6.2123870849609375e-001 -3.9688381552696228e-001</leafValues></_>
        <_>
          <internalNodes>
            0 -1 309 4.3939869850873947e-002</internalNodes>
          <leafValues>
            -4.4156453013420105e-001 4.8918825387954712e-001</leafValues></_>
        <_>
          <internalNodes>
            0 -1 404 5.0320085138082504e-003</internalNodes>
          <leafValues>
            -8.1330364942550659e-001 2.3131343722343445e-001</leafValues></_>
        <_>
          <internalNodes>
            0 -1 27 1.3129686936736107e-002</internalNodes>
          <leafValues>
            3.3296200633049011e-001 -5.3616857528686523e-001</leafValues></_>
        <_>
          <internalNodes>
            0 -1 394 2.0449446514248848e-002</internalNodes>
          <leafValues>
            3.6565732955932617e-001 -3.9646729826927185e-001</leafValues></_>
        <_>
          <internalNodes>
            0 -1 315 6.5808966755867004e-003</internalNodes>
          <leafValues>
            -6.7118984460830688e-001 2.1998073160648346e-001</leafValues></_>
        <_>
          <internalNodes>
            0 -1 306 1.8137611448764801e-002</internalNodes>
          <leafValues>
            2.5531938672065735e-001 -4.5500960946083069e-001</leafValues></_>
        <_>
          <internalNodes>
            0 -1 331 4.2690830305218697e-003</internalNodes>
          <leafValues>
            -6.8178713321685791e-001 1.6077965497970581e-001</leafValues></_></weakClassifiers></_>
    <!-- stage 5 -->
    <_>
      <maxWeakCount>5</maxWeakCount>
      <stageThreshold>1.4038693904876709e-001</stageThreshold>
      <weakClassifiers>
        <_>
          <internalNodes>
            0 -1 329 1.9336283206939697e-002</internalNodes>
          <leafValues>
            9.7597622871398926e-001 6.3584709167480469e-001</leafValues></_>
        <_>
          <internalNodes>
            0 -1 3 6.6985012963414192e-003</internalNodes>
          <leafValues>
            9.4301563501358032e-001 1.4662961661815643e-001</leafValues></_>
        <_>
          <internalNodes>
            0 -1 383 1.5341721475124359e-002</internalNodes>
          <leafValues>
            8.1327688694000244e-001 -3.5325068235397339e-001</leafValues></_>
        <_>
          <internalNodes>
            0 -1 78 7.1327583864331245e-003</internalNodes>
          <leafValues>
            8.0170482397079468e-001 -3.0970358848571777e-001</leafValues></_>
        <_>
          <internalNodes>
            0 -1 4 4.5106476172804832e-003</internalNodes>
          <leafValues>
            7.4419951438903809e-001 -3.1926459074020386e-001</leafValues></_></weakClassifiers></_>
    <!-- stage 6 -->
    <_>
      <maxWeakCount>9</maxWeakCount>
      <stageThreshold>-2.6490157470107079e-002</stageThreshold>
      <weakClassifiers>
        <_>
          <internalNodes>
            0 -1 3 4.3268408626317978e-003</internalNodes>
          <leafValues>
            9.8552531003952026e-001 7.9633158445358276e-001</leafValues></_>
        <_>
          <internalNodes>
            0 -1 384 1.4399616979062557e-002</internalNodes>
          <leafValues>
            8.7938326597213745e-001 1.9270379841327667e-001</leafValues></_>
        <_>
          <internalNodes>
            0 -1 3 3.0674487352371216e-003</internalNodes>
          <leafValues>
            7.9208540916442871e-001 -2.1590796113014221e-001</leafValues></_>
        <_>
          <internalNodes>
            0 -1 344 5.2214186638593674e-002</internalNodes>
          <leafValues>
            -3.4787881374359131e-001 7.0406025648117065e-001</leafValues></_>
        <_>
          <internalNodes>
            0 -1 159 2.6007965207099915e-003</internalNodes>
          <leafValues>
            7.7663326263427734e-001 -2.4207308888435364e-001</leafValues></_>
        <_>
          <internalNodes>
            0 -1 397 5.0015594810247421e-002</internalNodes>
          <leafValues>
            -2.8169855475425720e-001 5.4748660326004028e-001</leafValues></_>
        <_>
          <internalNodes>
            0 -1 79 1.3074649032205343e-003</internalNodes>
          <leafValues>
            7.7658540010452271e-001 -1.8104551732540131e-001</leafValues></_>
        <_>
          <internalNodes>
            0 -1 10 3.6809556186199188e-002</internalNodes>
          <leafValues>
            -2.0927289128303528e-001 5.6701886653900146e-001</leafValues></_>
        <_>
          <internalNodes>
            0 -1 351 1.7227016389369965e-002</internalNodes>
          <leafValues>
            2.9485157132148743e-001 -3.6683389544487000e-001</leafValues></_></weakClassifiers></_>
    <!-- stage 7 -->
    <_>
      <maxWeakCount>19</maxWeakCount>
      <stageThreshold>-1.1481166630983353e-001</stageThreshold>
      <weakClassifiers>
        <_>
          <internalNodes>
            0 -1 4 4.2505441233515739e-003</internalNodes>
          <leafValues>
            9.8178082704544067e-001 8.2478815317153931e-001</leafValues></_>
        <_>
          <internalNodes>
            0 -1 27 5.0122169777750969e-003</internalNodes>
          <leafValues>
            9.0656650066375732e-001 3.2586553692817688e-001</leafValues></_>
        <_>
          <internalNodes>
            0 -1 110 4.5406124554574490e-003</internalNodes>
          <leafValues>
            6.9865018129348755e-001 -1.4854261279106140e-001</leafValues></_>
        <_>
          <internalNodes>
            0 -1 159 2.3993472568690777e-003</internalNodes>
          <leafValues>
            6.7777097225189209e-001 -2.1275737881660461e-001</leafValues></_>
        <_>
          <internalNodes>
            0 -1 9 3.1249675899744034e-002</internalNodes>
          <leafValues>
            -2.5597858428955078e-001 5.4114830493927002e-001</leafValues></_>
        <_>
          <internalNodes>
            0 -1 211 7.7660195529460907e-003</internalNodes>
          <leafValues>
            4.6579787135124207e-001 -2.7899420261383057e-001</leafValues></_>
        <_>
          <internalNodes>
            0 -1 4 4.3665958219207823e-004</internalNodes>
          <leafValues>
            5.2516007423400879e-001 -2.1609325706958771e-001</leafValues></_>
        <_>
          <internalNodes>
            0 -1 344 2.9877554625272751e-002</internalNodes>
          <leafValues>
            -4.8390293121337891e-001 2.1665850281715393e-001</leafValues></_>
        <_>
          <internalNodes>
            0 -1 153 3.2509453594684601e-002</internalNodes>
          <leafValues>
            -1.9847157597541809e-001 4.5732337236404419e-001</leafValues></_>
        <_>
          <internalNodes>
            0 -1 397 3.3591713756322861e-002</internalNodes>
          <leafValues>
            -3.8296970725059509e-001 2.4132488667964935e-001</leafValues></_>
        <_>
          <internalNodes>
            0 -1 3 1.7751315608620644e-003</internalNodes>
          <leafValues>
            3.1721690297126770e-001 -1.9885039329528809e-001</leafValues></_>
        <_>
          <internalNodes>
            0 -1 302 6.6967178136110306e-003</internalNodes>
          <leafValues>
            -4.4711783528327942e-001 1.4197850227355957e-001</leafValues></_>
        <_>
          <internalNodes>
            0 -1 403 4.1920036077499390e-002</internalNodes>
          <leafValues>
            -3.4867364168167114e-001 2.3592223227024078e-001</leafValues></_>
        <_>
          <internalNodes>
            0 -1 137 1.1426672339439392e-002</internalNodes>
          <leafValues>
            2.8150579333305359e-001 -2.1456463634967804e-001</leafValues></_>
        <_>
          <internalNodes>
            0 -1 68 6.4326566644012928e-004</internalNodes>
          <leafValues>
            6.5880948305130005e-001 -7.6798960566520691e-002</leafValues></_>
        <_>
          <internalNodes>
            0 -1 363 2.8281242121011019e-003</internalNodes>
          <leafValues>
            -5.7782483100891113e-001 1.0740713030099869e-001</leafValues></_>
        <_>
          <internalNodes>
            0 -1 160 1.2708846479654312e-002</internalNodes>
          <leafValues>
            2.2786091268062592e-001 -2.6699501276016235e-001</leafValues></_>
        <_>
          <internalNodes>
            0 -1 130 7.2877988219261169e-002</internalNodes>
          <leafValues>
            -9.6137948334217072e-002 5.4502850770950317e-001</leafValues></_>
        <_>
          <internalNodes>
            0 -1 280 6.4742930233478546e-002</internalNodes>
          <leafValues>
            -1.4450213313102722e-001 2.6631864905357361e-001</leafValues></_></weakClassifiers></_>
    <!-- stage 8 -->
    <_>
      <maxWeakCount>37</maxWeakCount>
      <stageThreshold>9.8620824515819550e-002</stageThreshold>
      <weakClassifiers>
        <_>
          <internalNodes>
            0 -1 355 7.0146808866411448e-004</internalNodes>
          <leafValues>
            -5.6204378604888916e-001 9.3687707185745239e-001</leafValues></_>
        <_>
          <internalNodes>
            0 -1 4 1.9365635234862566e-003</internalNodes>
          <leafValues>
            8.6545121669769287e-001 3.5988640785217285e-001</leafValues></_>
        <_>
          <internalNodes>
            0 -1 43 6.1367161106318235e-004</internalNodes>
          <leafValues>
            7.5375950336456299e-001 -1.2089594965800643e-003</leafValues></_>
        <_>
          <internalNodes>
            0 -1 10 1.8719170242547989e-002</internalNodes>
          <leafValues>
            -3.1941136717796326e-001 3.2133504748344421e-001</leafValues></_>
        <_>
          <internalNodes>
            0 -1 159 1.5811892226338387e-003</internalNodes>
          <leafValues>
            4.0090718865394592e-001 -2.6479718089103699e-001</leafValues></_>
        <_>
          <internalNodes>
            0 -1 291 9.1526925098150969e-004</internalNodes>
          <leafValues>
            -7.7606546878814697e-001 1.3947062194347382e-001</leafValues></_>
        <_>
          <internalNodes>
            0 -1 330 1.3033968396484852e-002</internalNodes>
          <leafValues>
            1.8473756313323975e-001 -3.7958618998527527e-001</leafValues></_>
        <_>
          <internalNodes>
            0 -1 3 3.0322477687150240e-004</internalNodes>
          <leafValues>
            3.6468917131423950e-001 -1.9577224552631378e-001</leafValues></_>
        <_>
          <internalNodes>
            0 -1 371 1.2771934270858765e-003</internalNodes>
          <leafValues>
            -8.3703953027725220e-001 8.5719585418701172e-002</leafValues></_>
        <_>
          <internalNodes>
            0 -1 223 7.4370985385030508e-004</internalNodes>
          <leafValues>
            4.9544546008110046e-001 -1.3277344405651093e-001</leafValues></_>
        <_>
          <internalNodes>
            0 -1 366 1.5543331205844879e-001</internalNodes>
          <leafValues>
            6.9262139499187469e-002 -8.5534799098968506e-001</leafValues></_>
        <_>
          <internalNodes>
            0 -1 332 4.2065065354108810e-002</internalNodes>
          <leafValues>
            -3.0670928955078125e-001 1.7993175983428955e-001</leafValues></_>
        <_>
          <internalNodes>
            0 -1 134 7.2560235857963562e-002</internalNodes>
          <leafValues>
            -1.0675407201051712e-001 5.8224141597747803e-001</leafValues></_>
        <_>
          <internalNodes>
            0 -1 152 1.4089161530137062e-002</internalNodes>
          <leafValues>
            -2.1895489096641541e-001 2.3429960012435913e-001</leafValues></_>
        <_>
          <internalNodes>
            0 -1 27 1.1157495900988579e-003</internalNodes>
          <leafValues>
            3.4848687052726746e-001 -1.3745051622390747e-001</leafValues></_>
        <_>
          <internalNodes>
            0 -1 424 4.7315342817455530e-004</internalNodes>
          <leafValues>
            -8.6844640970230103e-001 5.7673078030347824e-002</leafValues></_>
        <_>
          <internalNodes>
            0 -1 283 2.0933382213115692e-002</internalNodes>
          <leafValues>
            -1.7096114158630371e-001 2.3242771625518799e-001</leafValues></_>
        <_>
          <internalNodes>
            0 -1 126 5.5413700640201569e-002</internalNodes>
          <leafValues>
            -1.9251297414302826e-001 2.4010309576988220e-001</leafValues></_>
        <_>
          <internalNodes>
            0 -1 22 2.9572393745183945e-002</internalNodes>
          <leafValues>
            -1.2620493769645691e-001 3.2540065050125122e-001</leafValues></_>
        <_>
          <internalNodes>
            0 -1 407 2.5994015857577324e-002</internalNodes>
          <leafValues>
            1.0649914294481277e-001 -3.9270246028900146e-001</leafValues></_>
        <_>
          <internalNodes>
            0 -1 5 7.1370094083249569e-003</internalNodes>
          <leafValues>
            2.6781144738197327e-001 -1.3726733624935150e-001</leafValues></_>
        <_>
          <internalNodes>
            0 -1 323 4.0767617523670197e-002</internalNodes>
          <leafValues>
            -2.6404380798339844e-001 1.9044172763824463e-001</leafValues></_>
        <_>
          <internalNodes>
            0 -1 11 3.0527753755450249e-002</internalNodes>
          <leafValues>
            -1.1299700289964676e-001 3.4461995959281921e-001</leafValues></_>
        <_>
          <internalNodes>
            0 -1 185 1.6561046242713928e-002</internalNodes>
          <leafValues>
            1.6127759218215942e-001 -2.3021157085895538e-001</leafValues></_>
        <_>
          <internalNodes>
            0 -1 163 1.2496778368949890e-001</internalNodes>
          <leafValues>
            7.1455009281635284e-002 -5.6199961900711060e-001</leafValues></_>
        <_>
          <internalNodes>
            0 -1 157 2.4385266442550346e-005</internalNodes>
          <leafValues>
            -8.7972885370254517e-001 3.1480316072702408e-002</leafValues></_>
        <_>
          <internalNodes>
            0 -1 333 7.0519313216209412e-002</internalNodes>
          <leafValues>
            -8.5705965757369995e-002 4.2541012167930603e-001</leafValues></_>
        <_>
          <internalNodes>
            0 -1 412 1.9781231880187988e-002</internalNodes>
          <leafValues>
            -1.4410866796970367e-001 2.4822385609149933e-001</leafValues></_>
        <_>
          <internalNodes>
            0 -1 318 1.7717439681291580e-002</internalNodes>
          <leafValues>
            1.1823622882366180e-001 -2.7181923389434814e-001</leafValues></_>
        <_>
          <internalNodes>
            0 -1 146 1.0434604249894619e-002</internalNodes>
          <leafValues>
            -2.2389271855354309e-001 1.3578541576862335e-001</leafValues></_>
        <_>
          <internalNodes>
            0 -1 160 2.2115525789558887e-003</internalNodes>
          <leafValues>
            2.7198958396911621e-001 -1.0996010154485703e-001</leafValues></_>
        <_>
          <internalNodes>
            0 -1 8 3.7642087787389755e-002</internalNodes>
          <leafValues>
            -8.7086796760559082e-002 3.8879498839378357e-001</leafValues></_>
        <_>
          <internalNodes>
            0 -1 308 7.6497637201100588e-004</internalNodes>
          <leafValues>
            -7.3018562793731689e-001 4.8230063170194626e-002</leafValues></_>
        <_>
          <internalNodes>
            0 -1 153 6.6568963229656219e-002</internalNodes>
          <leafValues>
            -5.8768939226865768e-002 5.9926408529281616e-001</leafValues></_>
        <_>
          <internalNodes>
            0 -1 245 1.6469066031277180e-003</internalNodes>
          <leafValues>
            -8.2646918296813965e-001 4.2095165699720383e-002</leafValues></_>
        <_>
          <internalNodes>
            0 -1 207 5.1827868446707726e-004</internalNodes>
          <leafValues>
            5.0425398349761963e-001 -6.8195335566997528e-002</leafValues></_>
        <_>
          <internalNodes>
            0 -1 157 1.6304296255111694e-001</internalNodes>
          <leafValues>
            4.4775303453207016e-002 -6.8349915742874146e-001</leafValues></_></weakClassifiers></_>
    <!-- stage 9 -->
    <_>
      <maxWeakCount>12</maxWeakCount>
      <stageThreshold>1.6051219403743744e-001</stageThreshold>
      <weakClassifiers>
        <_>
          <internalNodes>
            0 -1 407 6.9107569754123688e-002</internalNodes>
          <leafValues>
            9.4183033704757690e-001 -3.3088234066963196e-001</leafValues></_>
        <_>
          <internalNodes>
            0 -1 424 6.6039860248565674e-003</internalNodes>
          <leafValues>
            -1.2826514244079590e-001 7.5245106220245361e-001</leafValues></_>
        <_>
          <internalNodes>
            0 -1 315 1.8111206591129303e-002</internalNodes>
          <leafValues>
            -3.2198306918144226e-001 5.0659853219985962e-001</leafValues></_>
        <_>
          <internalNodes>
            0 -1 356 3.5657212138175964e-002</internalNodes>
          <leafValues>
            -2.8368088603019714e-001 5.1139432191848755e-001</leafValues></_>
        <_>
          <internalNodes>
            0 -1 27 6.8505562376230955e-004</internalNodes>
          <leafValues>
            6.0213667154312134e-001 -2.2306644916534424e-001</leafValues></_>
        <_>
          <internalNodes>
            0 -1 396 1.5586007386445999e-002</internalNodes>
          <leafValues>
            -4.4596171379089355e-001 2.3820225894451141e-001</leafValues></_>
        <_>
          <internalNodes>
            0 -1 150 1.1430742219090462e-002</internalNodes>
          <leafValues>
            -3.9029181003570557e-001 2.6521751284599304e-001</leafValues></_>
        <_>
          <internalNodes>
            0 -1 60 9.2553475406020880e-004</internalNodes>
          <leafValues>
            5.7678741216659546e-001 -2.0253284275531769e-001</leafValues></_>
        <_>
          <internalNodes>
            0 -1 308 1.5722535550594330e-002</internalNodes>
          <leafValues>
            -4.0049609541893005e-001 2.3515646159648895e-001</leafValues></_>
        <_>
          <internalNodes>
            0 -1 324 1.7769802361726761e-002</internalNodes>
          <leafValues>
            -4.0094360709190369e-001 2.1568121016025543e-001</leafValues></_>
        <_>
          <internalNodes>
            0 -1 350 2.4471845477819443e-002</internalNodes>
          <leafValues>
            -2.3356263339519501e-001 3.7004348635673523e-001</leafValues></_>
        <_>
          <internalNodes>
            0 -1 394 3.4270942211151123e-002</internalNodes>
          <leafValues>
            1.3311442732810974e-001 -5.2110666036605835e-001</leafValues></_></weakClassifiers></_>
    <!-- stage 10 -->
    <_>
      <maxWeakCount>57</maxWeakCount>
      <stageThreshold>-1.3224318623542786e-001</stageThreshold>
      <weakClassifiers>
        <_>
          <internalNodes>
            0 -1 294 7.4830755591392517e-002</internalNodes>
          <leafValues>
            9.3378746509552002e-001 -2.6530611515045166e-001</leafValues></_>
        <_>
          <internalNodes>
            0 -1 319 1.8541228026151657e-002</internalNodes>
          <leafValues>
            7.5585877895355225e-001 1.7130114138126373e-001</leafValues></_>
        <_>
          <internalNodes>
            0 -1 4 4.9535138532519341e-004</internalNodes>
          <leafValues>
            5.8883857727050781e-001 -1.1219720542430878e-001</leafValues></_>
        <_>
          <internalNodes>
            0 -1 259 3.9206235669553280e-003</internalNodes>
          <leafValues>
            4.8531833291053772e-001 -2.3731058835983276e-001</leafValues></_>
        <_>
          <internalNodes>
            0 -1 110 7.4697076342999935e-004</internalNodes>
          <leafValues>
            5.5378228425979614e-001 -1.5905754268169403e-001</leafValues></_>
        <_>
          <internalNodes>
            0 -1 303 2.4400446563959122e-002</internalNodes>
          <leafValues>
            -2.6374271512031555e-001 3.0504652857780457e-001</leafValues></_>
        <_>
          <internalNodes>
            0 -1 151 1.3703349977731705e-002</internalNodes>
          <leafValues>
            -2.8862786293029785e-001 2.5182041525840759e-001</leafValues></_>
        <_>
          <internalNodes>
            0 -1 185 2.9093811754137278e-003</internalNodes>
          <leafValues>
            4.6983355283737183e-001 -1.5826849639415741e-001</leafValues></_>
        <_>
          <internalNodes>
            0 -1 353 2.4947909638285637e-002</internalNodes>
          <leafValues>
            1.3904714584350586e-001 -4.4253471493721008e-001</leafValues></_>
        <_>
          <internalNodes>
            0 -1 357 2.1529430523514748e-003</internalNodes>
          <leafValues>
            -5.4359376430511475e-001 1.1333782970905304e-001</leafValues></_>
        <_>
          <internalNodes>
            0 -1 272 1.4863092452287674e-002</internalNodes>
          <leafValues>
            2.3594501614570618e-001 -2.6616281270980835e-001</leafValues></_>
        <_>
          <internalNodes>
            0 -1 10 2.8558060526847839e-002</internalNodes>
          <leafValues>
            -2.0615836977958679e-001 2.0731569826602936e-001</leafValues></_>
        <_>
          <internalNodes>
            0 -1 159 9.3784707132726908e-004</internalNodes>
          <leafValues>
            3.6089751124382019e-001 -1.2840196490287781e-001</leafValues></_>
        <_>
          <internalNodes>
            0 -1 380 4.7719394788146019e-003</internalNodes>
          <leafValues>
            -6.6216808557510376e-001 6.6648811101913452e-002</leafValues></_>
        <_>
          <internalNodes>
            0 -1 27 8.2017882959917188e-004</internalNodes>
          <leafValues>
            3.9028584957122803e-001 -1.3743863999843597e-001</leafValues></_>
        <_>
          <internalNodes>
            0 -1 363 4.6709086745977402e-003</internalNodes>
          <leafValues>
            -5.0612992048263550e-001 1.1739629507064819e-001</leafValues></_>
        <_>
          <internalNodes>
            0 -1 277 6.1012074351310730e-002</internalNodes>
          <leafValues>
            -1.0032509267330170e-001 4.4302749633789063e-001</leafValues></_>
        <_>
          <internalNodes>
            0 -1 263 5.6181382387876511e-002</internalNodes>
          <leafValues>
            -1.0496027767658234e-001 4.1613391041755676e-001</leafValues></_>
        <_>
          <internalNodes>
            0 -1 397 2.5370605289936066e-002</internalNodes>
          <leafValues>
            -3.7278276681900024e-001 9.9866181612014771e-002</leafValues></_>
        <_>
          <internalNodes>
            0 -1 361 2.6336582377552986e-002</internalNodes>
          <leafValues>
            -1.5643697977066040e-001 2.3363739252090454e-001</leafValues></_>
        <_>
          <internalNodes>
            0 -1 66 1.0649594478309155e-003</internalNodes>
          <leafValues>
            3.7326639890670776e-001 -9.7833894193172455e-002</leafValues></_>
        <_>
          <internalNodes>
            0 -1 285 1.4536510407924652e-001</internalNodes>
          <leafValues>
            7.1334451436996460e-002 -5.4628509283065796e-001</leafValues></_>
        <_>
          <internalNodes>
            0 -1 308 1.1757904663681984e-002</internalNodes>
          <leafValues>
            -3.4627389907836914e-001 9.1961011290550232e-002</leafValues></_>
        <_>
          <internalNodes>
            0 -1 329 2.5571182370185852e-002</internalNodes>
          <leafValues>
            7.7025778591632843e-002 -4.2136356234550476e-001</leafValues></_>
        <_>
          <internalNodes>
            0 -1 344 1.7583015561103821e-001</internalNodes>
          <leafValues>
            4.8616100102663040e-002 -6.5719795227050781e-001</leafValues></_>
        <_>
          <internalNodes>
            0 -1 48 9.0638478286564350e-004</internalNodes>
          <leafValues>
            5.6988334655761719e-001 -6.2755972146987915e-002</leafValues></_>
        <_>
          <internalNodes>
            0 -1 372 1.4292249083518982e-001</internalNodes>
          <leafValues>
            4.7416139394044876e-002 -6.3956469297409058e-001</leafValues></_>
        <_>
          <internalNodes>
            0 -1 394 2.6920162141323090e-002</internalNodes>
          <leafValues>
            1.0006229579448700e-001 -2.8018218278884888e-001</leafValues></_>
        <_>
          <internalNodes>
            0 -1 131 7.4916862649843097e-004</internalNodes>
          <leafValues>
            5.0258398056030273e-001 -5.5581111460924149e-002</leafValues></_>
        <_>
          <internalNodes>
            0 -1 163 2.8678901799139567e-005</internalNodes>
          <leafValues>
            -7.3872983455657959e-001 4.0780451148748398e-002</leafValues></_>
        <_>
          <internalNodes>
            0 -1 160 7.1140739601105452e-004</internalNodes>
          <leafValues>
            3.5922271013259888e-001 -9.6180655062198639e-002</leafValues></_>
        <_>
          <internalNodes>
            0 -1 2 4.1512171737849712e-003</internalNodes>
          <leafValues>
            2.2515697777271271e-001 -1.1968734115362167e-001</leafValues></_>
        <_>
          <internalNodes>
            0 -1 302 1.6950134187936783e-002</internalNodes>
          <leafValues>
            -1.8108113110065460e-001 1.5330119431018829e-001</leafValues></_>
        <_>
          <internalNodes>
            0 -1 30 5.6099660694599152e-002</internalNodes>
          <leafValues>
            -6.9807775318622589e-002 4.2354518175125122e-001</leafValues></_>
        <_>
          <internalNodes>
            0 -1 130 5.3370125591754913e-002</internalNodes>
          <leafValues>
            -9.8243959248065948e-002 2.5307700037956238e-001</leafValues></_>
        <_>
          <internalNodes>
            0 -1 376 3.5516833886504173e-003</internalNodes>
          <leafValues>
            -3.0606821179389954e-001 8.1777609884738922e-002</leafValues></_>
        <_>
          <internalNodes>
            0 -1 309 4.3853215873241425e-002</internalNodes>
          <leafValues>
            -2.1206966042518616e-001 1.2323074787855148e-001</leafValues></_>
        <_>
          <internalNodes>
            0 -1 84 7.3443561792373657e-002</internalNodes>
          <leafValues>
            -5.1432505249977112e-002 4.8582988977432251e-001</leafValues></_>
        <_>
          <internalNodes>
            0 -1 9 5.3021050989627838e-002</internalNodes>
          <leafValues>
            -6.3785798847675323e-002 3.5186237096786499e-001</leafValues></_>
        <_>
          <internalNodes>
            0 -1 193 8.7529957294464111e-002</internalNodes>
          <leafValues>
            2.8277680277824402e-002 -9.1880834102630615e-001</leafValues></_>
        <_>
          <internalNodes>
            0 -1 387 1.6233608126640320e-002</internalNodes>
          <leafValues>
            -4.3106666207313538e-001 4.1550341993570328e-002</leafValues></_>
        <_>
          <internalNodes>
            0 -1 255 4.0816256660036743e-004</internalNodes>
          <leafValues>
            4.8751345276832581e-001 -5.3061861544847488e-002</leafValues></_>
        <_>
          <internalNodes>
            0 -1 319 5.7147949934005737e-002</internalNodes>
          <leafValues>
            2.9062956571578979e-002 -7.7269530296325684e-001</leafValues></_>
        <_>
          <internalNodes>
            0 -1 137 2.0142588764429092e-003</internalNodes>
          <leafValues>
            3.0310040712356567e-001 -7.7651754021644592e-002</leafValues></_>
        <_>
          <internalNodes>
            0 -1 216 4.0971159934997559e-002</internalNodes>
          <leafValues>
            -4.9163665622472763e-002 3.9389970898628235e-001</leafValues></_>
        <_>
          <internalNodes>
            0 -1 392 5.1989618688821793e-002</internalNodes>
          <leafValues>
            -7.3738209903240204e-002 2.7859011292457581e-001</leafValues></_>
        <_>
          <internalNodes>
            0 -1 427 1.2693769531324506e-004</internalNodes>
          <leafValues>
            -5.2596223354339600e-001 4.2383506894111633e-002</leafValues></_>
        <_>
          <internalNodes>
            0 -1 385 4.9401096999645233e-002</internalNodes>
          <leafValues>
            -3.6114722490310669e-002 5.8977502584457397e-001</leafValues></_>
        <_>
          <internalNodes>
            0 -1 427 2.1846683695912361e-002</internalNodes>
          <leafValues>
            9.5531150698661804e-002 -2.0383694767951965e-001</leafValues></_>
        <_>
          <internalNodes>
            0 -1 173 6.4685501158237457e-002</internalNodes>
          <leafValues>
            -4.2053505778312683e-002 5.2271628379821777e-001</leafValues></_>
        <_>
          <internalNodes>
            0 -1 31 4.7183856368064880e-002</internalNodes>
          <leafValues>
            -1.1510911583900452e-001 1.7248250544071198e-001</leafValues></_>
        <_>
          <internalNodes>
            0 -1 412 8.0940183252096176e-003</internalNodes>
          <leafValues>
            -2.2850306332111359e-001 1.0965632647275925e-001</leafValues></_>
        <_>
          <internalNodes>
            0 -1 3 2.8066406957805157e-004</internalNodes>
          <leafValues>
            2.1726512908935547e-001 -9.0955898165702820e-002</leafValues></_>
        <_>
          <internalNodes>
            0 -1 211 1.4384032227098942e-002</internalNodes>
          <leafValues>
            1.1920083314180374e-001 -1.6633081436157227e-001</leafValues></_>
        <_>
          <internalNodes>
            0 -1 10 8.5047762840986252e-003</internalNodes>
          <leafValues>
            -2.6888412237167358e-001 7.4220418930053711e-002</leafValues></_>
        <_>
          <internalNodes>
            0 -1 144 3.2599918544292450e-002</internalNodes>
          <leafValues>
            -6.8879269063472748e-002 2.9883274435997009e-001</leafValues></_>
        <_>
          <internalNodes>
            0 -1 318 2.6622615754604340e-002</internalNodes>
          <leafValues>
            6.6366359591484070e-002 -3.0462086200714111e-001</leafValues></_></weakClassifiers></_>
    <!-- stage 11 -->
    <_>
      <maxWeakCount>77</maxWeakCount>
      <stageThreshold>-1.1328876018524170e-002</stageThreshold>
      <weakClassifiers>
        <_>
          <internalNodes>
            0 -1 401 9.3273356556892395e-002</internalNodes>
          <leafValues>
            9.3186300992965698e-001 -4.0425533056259155e-001</leafValues></_>
        <_>
          <internalNodes>
            0 -1 4 4.7981541138142347e-004</internalNodes>
          <leafValues>
            8.6911016702651978e-001 3.9793875813484192e-001</leafValues></_>
        <_>
          <internalNodes>
            0 -1 159 4.2866638978011906e-004</internalNodes>
          <leafValues>
            6.0917502641677856e-001 -8.2009965553879738e-003</leafValues></_>
        <_>
          <internalNodes>
            0 -1 110 5.4969766642898321e-004</internalNodes>
          <leafValues>
            5.0404226779937744e-001 -1.3958674669265747e-001</leafValues></_>
        <_>
          <internalNodes>
            0 -1 9 1.0221939533948898e-002</internalNodes>
          <leafValues>
            -3.7897634506225586e-001 1.4880324900150299e-001</leafValues></_>
        <_>
          <internalNodes>
            0 -1 17 5.2415946265682578e-004</internalNodes>
          <leafValues>
            4.8383316397666931e-001 -1.3685037195682526e-001</leafValues></_>
        <_>
          <internalNodes>
            0 -1 62 1.7174011096358299e-002</internalNodes>
          <leafValues>
            -5.4937052726745605e-001 9.3428365886211395e-002</leafValues></_>
        <_>
          <internalNodes>
            0 -1 366 1.2869732081890106e-001</internalNodes>
          <leafValues>
            6.3766948878765106e-002 -7.5257736444473267e-001</leafValues></_>
        <_>
          <internalNodes>
            0 -1 184 8.6994953453540802e-003</internalNodes>
          <leafValues>
            2.2621212899684906e-001 -2.4844738841056824e-001</leafValues></_>
        <_>
          <internalNodes>
            0 -1 163 1.3581621646881104e-001</internalNodes>
          <leafValues>
            7.0762261748313904e-002 -7.0070469379425049e-001</leafValues></_>
        <_>
          <internalNodes>
            0 -1 407 2.9070887714624405e-002</internalNodes>
          <leafValues>
            9.0234018862247467e-002 -5.4280740022659302e-001</leafValues></_>
        <_>
          <internalNodes>
            0 -1 3 5.9121358208358288e-004</internalNodes>
          <leafValues>
            2.6809254288673401e-001 -1.7948348820209503e-001</leafValues></_>
        <_>
          <internalNodes>
            0 -1 291 8.4515928756445646e-004</internalNodes>
          <leafValues>
            -7.2839075326919556e-001 6.1719276010990143e-002</leafValues></_>
        <_>
          <internalNodes>
            0 -1 107 7.1684099733829498e-002</internalNodes>
          <leafValues>
            -9.0711243450641632e-002 4.8505833745002747e-001</leafValues></_>
        <_>
          <internalNodes>
            0 -1 102 5.5061783641576767e-002</internalNodes>
          <leafValues>
            -1.2520593404769897e-001 3.1755146384239197e-001</leafValues></_>
        <_>
          <internalNodes>
            0 -1 242 6.9445342523977160e-004</internalNodes>
          <leafValues>
            3.9034876227378845e-001 -8.4650397300720215e-002</leafValues></_>
        <_>
          <internalNodes>
            0 -1 302 1.9508384168148041e-002</internalNodes>
          <leafValues>
            -1.7945414781570435e-001 1.8085065484046936e-001</leafValues></_>
        <_>
          <internalNodes>
            0 -1 141 9.6137207001447678e-003</internalNodes>
          <leafValues>
            -4.1583150625228882e-001 6.8796172738075256e-002</leafValues></_>
        <_>
          <internalNodes>
            0 -1 309 2.0568215847015381e-001</internalNodes>
          <leafValues>
            3.2102864235639572e-002 -7.7172774076461792e-001</leafValues></_>
        <_>
          <internalNodes>
            0 -1 27 3.7327478639781475e-003</internalNodes>
          <leafValues>
            2.1870175004005432e-001 -1.4827561378479004e-001</leafValues></_>
        <_>
          <internalNodes>
            0 -1 364 1.6887266188859940e-002</internalNodes>
          <leafValues>
            -2.3293167352676392e-001 1.5256986021995544e-001</leafValues></_>
        <_>
          <internalNodes>
            0 -1 21 6.1370083130896091e-004</internalNodes>
          <leafValues>
            5.5261510610580444e-001 -5.6076034903526306e-002</leafValues></_>
        <_>
          <internalNodes>
            0 -1 330 2.8434082865715027e-002</internalNodes>
          <leafValues>
            6.7869313061237335e-002 -4.4025549292564392e-001</leafValues></_>
        <_>
          <internalNodes>
            0 -1 148 1.4409336447715759e-001</internalNodes>
          <leafValues>
            5.4714813828468323e-002 -4.9036794900894165e-001</leafValues></_>
        <_>
          <internalNodes>
            0 -1 371 1.4263396151363850e-003</internalNodes>
          <leafValues>
            -6.8966901302337646e-001 3.4805554896593094e-002</leafValues></_>
        <_>
          <internalNodes>
            0 -1 160 4.8542013973928988e-004</internalNodes>
          <leafValues>
            3.3108019828796387e-001 -1.0351945459842682e-001</leafValues></_>
        <_>
          <internalNodes>
            0 -1 7 4.6270545572042465e-002</internalNodes>
          <leafValues>
            -7.5674526393413544e-002 3.6079457402229309e-001</leafValues></_>
        <_>
          <internalNodes>
            0 -1 280 4.8404246568679810e-002</internalNodes>
          <leafValues>
            -1.6040055453777313e-001 1.4723992347717285e-001</leafValues></_>
        <_>
          <internalNodes>
            0 -1 372 1.7712721228599548e-001</internalNodes>
          <leafValues>
            3.3217918127775192e-002 -8.0036771297454834e-001</leafValues></_>
        <_>
          <internalNodes>
            0 -1 180 2.7598196640610695e-002</internalNodes>
          <leafValues>
            -2.2526456415653229e-001 1.0657370090484619e-001</leafValues></_>
        <_>
          <internalNodes>
            0 -1 201 4.9869466572999954e-002</internalNodes>
          <leafValues>
            -8.2067564129829407e-002 2.7900287508964539e-001</leafValues></_>
        <_>
          <internalNodes>
            0 -1 328 3.2143561838893220e-005</internalNodes>
          <leafValues>
            -8.0524808168411255e-001 2.8188785538077354e-002</leafValues></_>
        <_>
          <internalNodes>
            0 -1 127 3.9398649823851883e-004</internalNodes>
          <leafValues>
            4.2531991004943848e-001 -6.4946457743644714e-002</leafValues></_>
        <_>
          <internalNodes>
            0 -1 358 7.1630077436566353e-003</internalNodes>
          <leafValues>
            -2.8298243880271912e-001 8.9272126555442810e-002</leafValues></_>
        <_>
          <internalNodes>
            0 -1 116 2.3816718021407723e-004</internalNodes>
          <leafValues>
            4.4586753845214844e-001 -4.9298360943794250e-002</leafValues></_>
        <_>
          <internalNodes>
            0 -1 72 1.0811071097850800e-001</internalNodes>
          <leafValues>
            2.9417242854833603e-002 -7.9938888549804688e-001</leafValues></_>
        <_>
          <internalNodes>
            0 -1 69 8.6203068494796753e-002</internalNodes>
          <leafValues>
            -4.1292507201433182e-002 5.9154194593429565e-001</leafValues></_>
        <_>
          <internalNodes>
            0 -1 5 3.4284545108675957e-003</internalNodes>
          <leafValues>
            2.4217042326927185e-001 -9.2757120728492737e-002</leafValues></_>
        <_>
          <internalNodes>
            0 -1 409 1.1139749549329281e-003</internalNodes>
          <leafValues>
            -6.6651469469070435e-001 3.6547478288412094e-002</leafValues></_>
        <_>
          <internalNodes>
            0 -1 364 6.1350371688604355e-003</internalNodes>
          <leafValues>
            -3.6681297421455383e-001 5.4171852767467499e-002</leafValues></_>
        <_>
          <internalNodes>
            0 -1 185 9.7067877650260925e-003</internalNodes>
          <leafValues>
            1.8737077713012695e-001 -1.2404109537601471e-001</leafValues></_>
        <_>
          <internalNodes>
            0 -1 373 5.8715306222438812e-002</internalNodes>
          <leafValues>
            -7.4931710958480835e-002 3.0182006955146790e-001</leafValues></_>
        <_>
          <internalNodes>
            0 -1 300 2.5274494662880898e-002</internalNodes>
          <leafValues>
            -1.2965914607048035e-001 1.7846292257308960e-001</leafValues></_>
        <_>
          <internalNodes>
            0 -1 245 3.8084771484136581e-002</internalNodes>
          <leafValues>
            -1.8368725478649139e-001 1.1846569180488586e-001</leafValues></_>
        <_>
          <internalNodes>
            0 -1 197 4.0404975414276123e-002</internalNodes>
          <leafValues>
            -8.1608869135379791e-002 2.8923010826110840e-001</leafValues></_>
        <_>
          <internalNodes>
            0 -1 309 5.2924957126379013e-002</internalNodes>
          <leafValues>
            -1.6001902520656586e-001 1.3672389090061188e-001</leafValues></_>
        <_>
          <internalNodes>
            0 -1 29 3.3008947968482971e-002</internalNodes>
          <leafValues>
            -6.0198921710252762e-002 3.7855011224746704e-001</leafValues></_>
        <_>
          <internalNodes>
            0 -1 2 5.3691281937062740e-004</internalNodes>
          <leafValues>
            3.1990873813629150e-001 -7.0581629872322083e-002</leafValues></_>
        <_>
          <internalNodes>
            0 -1 415 7.2157613933086395e-002</internalNodes>
          <leafValues>
            -4.2789846658706665e-002 5.1072061061859131e-001</leafValues></_>
        <_>
          <internalNodes>
            0 -1 205 5.5333159863948822e-002</internalNodes>
          <leafValues>
            -4.3634172528982162e-002 4.5120665431022644e-001</leafValues></_>
        <_>
          <internalNodes>
            0 -1 174 3.9238762110471725e-003</internalNodes>
          <leafValues>
            -6.1087799072265625e-001 3.6375891417264938e-002</leafValues></_>
        <_>
          <internalNodes>
            0 -1 199 4.3906558305025101e-002</internalNodes>
          <leafValues>
            -5.2759345620870590e-002 4.2813608050346375e-001</leafValues></_>
        <_>
          <internalNodes>
            0 -1 120 9.6191670745611191e-003</internalNodes>
          <leafValues>
            1.2998090684413910e-001 -1.3641126453876495e-001</leafValues></_>
        <_>
          <internalNodes>
            0 -1 149 6.2295916723087430e-004</internalNodes>
          <leafValues>
            -4.5064407587051392e-001 4.3185643851757050e-002</leafValues></_>
        <_>
          <internalNodes>
            0 -1 430 1.8597990274429321e-001</internalNodes>
          <leafValues>
            2.7450904250144958e-002 -7.0550698041915894e-001</leafValues></_>
        <_>
          <internalNodes>
            0 -1 341 3.4998256713151932e-002</internalNodes>
          <leafValues>
            3.7337366491556168e-002 -4.3788629770278931e-001</leafValues></_>
        <_>
          <internalNodes>
            0 -1 10 3.8146547973155975e-002</internalNodes>
          <leafValues>
            -1.0392575711011887e-001 1.8343551456928253e-001</leafValues></_>
        <_>
          <internalNodes>
            0 -1 159 1.1873845010995865e-002</internalNodes>
          <leafValues>
            1.3552805781364441e-001 -1.4172978699207306e-001</leafValues></_>
        <_>
          <internalNodes>
            0 -1 366 1.7981579899787903e-001</internalNodes>
          <leafValues>
            2.4868642911314964e-002 -7.9358786344528198e-001</leafValues></_>
        <_>
          <internalNodes>
            0 -1 66 2.2393073886632919e-003</internalNodes>
          <leafValues>
            2.4271798133850098e-001 -8.0899156630039215e-002</leafValues></_>
        <_>
          <internalNodes>
            0 -1 340 5.2997586317360401e-004</internalNodes>
          <leafValues>
            -7.0130789279937744e-001 2.4491198360919952e-002</leafValues></_>
        <_>
          <internalNodes>
            0 -1 4 9.2231258749961853e-003</internalNodes>
          <leafValues>
            1.1941389739513397e-001 -1.5791563689708710e-001</leafValues></_>
        <_>
          <internalNodes>
            0 -1 286 8.8682711124420166e-002</internalNodes>
          <leafValues>
            2.1064700558781624e-002 -7.6591008901596069e-001</leafValues></_>
        <_>
          <internalNodes>
            0 -1 145 9.2789977788925171e-003</internalNodes>
          <leafValues>
            -1.6271591186523438e-001 9.7883738577365875e-002</leafValues></_>
        <_>
          <internalNodes>
            0 -1 61 3.1077867606654763e-004</internalNodes>
          <leafValues>
            3.9017596840858459e-001 -4.1823957115411758e-002</leafValues></_>
        <_>
          <internalNodes>
            0 -1 92 1.7094312608242035e-001</internalNodes>
          <leafValues>
            4.0192101150751114e-002 -4.7349712252616882e-001</leafValues></_>
        <_>
          <internalNodes>
            0 -1 185 5.8733813464641571e-002</internalNodes>
          <leafValues>
            3.4775659441947937e-002 -4.6731916069984436e-001</leafValues></_>
        <_>
          <internalNodes>
            0 -1 277 5.5838271975517273e-002</internalNodes>
          <leafValues>
            -8.0926328897476196e-002 2.3216739296913147e-001</leafValues></_>
        <_>
          <internalNodes>
            0 -1 324 5.8234348893165588e-002</internalNodes>
          <leafValues>
            -5.2629832178354263e-002 2.8083884716033936e-001</leafValues></_>
        <_>
          <internalNodes>
            0 -1 327 2.1286609768867493e-001</internalNodes>
          <leafValues>
            2.1449739113450050e-002 -7.5495302677154541e-001</leafValues></_>
        <_>
          <internalNodes>
            0 -1 250 3.9508598274551332e-004</internalNodes>
          <leafValues>
            3.7762522697448730e-001 -4.8862479627132416e-002</leafValues></_>
        <_>
          <internalNodes>
            0 -1 308 4.3021957390010357e-004</internalNodes>
          <leafValues>
            -8.0023294687271118e-001 2.0665120333433151e-002</leafValues></_>
        <_>
          <internalNodes>
            0 -1 133 6.2710605561733246e-002</internalNodes>
          <leafValues>
            -3.8360252976417542e-002 4.8648643493652344e-001</leafValues></_>
        <_>
          <internalNodes>
            0 -1 100 6.2565680127590895e-004</internalNodes>
          <leafValues>
            2.8267845511436462e-001 -4.9537658691406250e-002</leafValues></_>
        <_>
          <internalNodes>
            0 -1 376 5.9463512152433395e-003</internalNodes>
          <leafValues>
            -2.1560151875019073e-001 7.1008786559104919e-002</leafValues></_>
        <_>
          <internalNodes>
            0 -1 225 4.0927365422248840e-002</internalNodes>
          <leafValues>
            -8.0912053585052490e-002 2.0547139644622803e-001</leafValues></_>
        <_>
          <internalNodes>
            0 -1 23 5.3787813521921635e-004</internalNodes>
          <leafValues>
            4.0925124287605286e-001 -3.5281170159578323e-002</leafValues></_></weakClassifiers></_>
    <!-- stage 12 -->
    <_>
      <maxWeakCount>100</maxWeakCount>
      <stageThreshold>-2.9716452583670616e-002</stageThreshold>
      <weakClassifiers>
        <_>
          <internalNodes>
            0 -1 4 1.5712884487584233e-003</internalNodes>
          <leafValues>
            9.6768707036972046e-001 8.6748218536376953e-001</leafValues></_>
        <_>
          <internalNodes>
            0 -1 27 1.6361444722861052e-003</internalNodes>
          <leafValues>
            8.4438633918762207e-001 4.4935268163681030e-001</leafValues></_>
        <_>
          <internalNodes>
            0 -1 223 1.6710872296243906e-003</internalNodes>
          <leafValues>
            6.3503688573837280e-001 -2.5002837181091309e-002</leafValues></_>
        <_>
          <internalNodes>
            0 -1 160 2.2769472561776638e-003</internalNodes>
          <leafValues>
            3.0703684687614441e-001 -2.2425729036331177e-001</leafValues></_>
        <_>
          <internalNodes>
            0 -1 9 1.8085749819874763e-002</internalNodes>
          <leafValues>
            -2.6425907015800476e-001 2.2170625627040863e-001</leafValues></_>
        <_>
          <internalNodes>
            0 -1 330 1.2573640793561935e-002</internalNodes>
          <leafValues>
            1.9521491229534149e-001 -3.0761039257049561e-001</leafValues></_>
        <_>
          <internalNodes>
            0 -1 4 3.1050178222358227e-004</internalNodes>
          <leafValues>
            2.8262680768966675e-001 -1.9076476991176605e-001</leafValues></_>
        <_>
          <internalNodes>
            0 -1 370 2.9551894403994083e-003</internalNodes>
          <leafValues>
            -5.8415055274963379e-001 9.5879212021827698e-002</leafValues></_>
        <_>
          <internalNodes>
            0 -1 184 1.8504172563552856e-002</internalNodes>
          <leafValues>
            1.4055193960666656e-001 -3.2074108719825745e-001</leafValues></_>
        <_>
          <internalNodes>
            0 -1 92 1.8541427329182625e-002</internalNodes>
          <leafValues>
            -4.6704071760177612e-001 8.5777737200260162e-002</leafValues></_>
        <_>
          <internalNodes>
            0 -1 109 4.2982169543392956e-004</internalNodes>
          <leafValues>
            3.3701285719871521e-001 -1.2215341627597809e-001</leafValues></_>
        <_>
          <internalNodes>
            0 -1 350 5.9063069056719542e-004</internalNodes>
          <leafValues>
            -7.8822261095046997e-001 5.0923224538564682e-002</leafValues></_>
        <_>
          <internalNodes>
            0 -1 10 3.0312426388263702e-002</internalNodes>
          <leafValues>
            -1.7968834936618805e-001 1.9598935544490814e-001</leafValues></_>
        <_>
          <internalNodes>
            0 -1 250 4.1886488907039165e-003</internalNodes>
          <leafValues>
            2.6137679815292358e-001 -1.3269861042499542e-001</leafValues></_>
        <_>
          <internalNodes>
            0 -1 366 1.1961323022842407e-001</internalNodes>
          <leafValues>
            5.5905979126691818e-002 -5.8016729354858398e-001</leafValues></_>
        <_>
          <internalNodes>
            0 -1 66 4.7381472541019320e-004</internalNodes>
          <leafValues>
            3.8366854190826416e-001 -9.8951391875743866e-002</leafValues></_>
        <_>
          <internalNodes>
            0 -1 31 2.6142972274101339e-005</internalNodes>
          <leafValues>
            -8.2480967044830322e-001 4.3783541768789291e-002</leafValues></_>
        <_>
          <internalNodes>
            0 -1 159 5.3900247439742088e-004</internalNodes>
          <leafValues>
            3.1197145581245422e-001 -1.1748580634593964e-001</leafValues></_>
        <_>
          <internalNodes>
            0 -1 145 6.5152440220117569e-003</internalNodes>
          <leafValues>
            -2.3885771632194519e-001 1.1811723560094833e-001</leafValues></_>
        <_>
          <internalNodes>
            0 -1 310 5.2800580859184265e-002</internalNodes>
          <leafValues>
            -1.0902316868305206e-001 2.7916231751441956e-001</leafValues></_>
        <_>
          <internalNodes>
            0 -1 362 2.0715801045298576e-002</internalNodes>
          <leafValues>
            -1.5812034904956818e-001 1.8269070982933044e-001</leafValues></_>
        <_>
          <internalNodes>
            0 -1 402 4.4201210141181946e-002</internalNodes>
          <leafValues>
            -1.0538644343614578e-001 2.7807959914207458e-001</leafValues></_>
        <_>
          <internalNodes>
            0 -1 2 3.8076657801866531e-003</internalNodes>
          <leafValues>
            2.4339853227138519e-001 -1.5231975913047791e-001</leafValues></_>
        <_>
          <internalNodes>
            0 -1 308 3.7021894968347624e-005</internalNodes>
          <leafValues>
            -8.6637139320373535e-001 3.2120786607265472e-002</leafValues></_>
        <_>
          <internalNodes>
            0 -1 157 5.9133468312211335e-005</internalNodes>
          <leafValues>
            -8.3040982484817505e-001 2.0798746496438980e-002</leafValues></_>
        <_>
          <internalNodes>
            0 -1 59 6.0432660393416882e-004</internalNodes>
          <leafValues>
            4.2072489857673645e-001 -7.3856733739376068e-002</leafValues></_>
        <_>
          <internalNodes>
            0 -1 372 1.4653542637825012e-001</internalNodes>
          <leafValues>
            3.8129802793264389e-002 -6.6626638174057007e-001</leafValues></_>
        <_>
          <internalNodes>
            0 -1 387 2.6522547006607056e-002</internalNodes>
          <leafValues>
            -3.3504721522331238e-001 7.9001240432262421e-002</leafValues></_>
        <_>
          <internalNodes>
            0 -1 394 5.1421802490949631e-002</internalNodes>
          <leafValues>
            3.9423748850822449e-002 -6.0149723291397095e-001</leafValues></_>
        <_>
          <internalNodes>
            0 -1 205 6.0524277389049530e-002</internalNodes>
          <leafValues>
            -4.7083929181098938e-002 5.1031243801116943e-001</leafValues></_>
        <_>
          <internalNodes>
            0 -1 332 4.6469248831272125e-002</internalNodes>
          <leafValues>
            -1.6988025605678558e-001 1.2288628518581390e-001</leafValues></_>
        <_>
          <internalNodes>
            0 -1 412 1.3441646471619606e-002</internalNodes>
          <leafValues>
            -1.5995836257934570e-001 1.4201271533966064e-001</leafValues></_>
        <_>
          <internalNodes>
            0 -1 185 1.3659042306244373e-003</internalNodes>
          <leafValues>
            3.4767395257949829e-001 -6.7729666829109192e-002</leafValues></_>
        <_>
          <internalNodes>
            0 -1 416 5.9096631594002247e-004</internalNodes>
          <leafValues>
            -7.7936631441116333e-001 2.9773939400911331e-002</leafValues></_>
        <_>
          <internalNodes>
            0 -1 322 8.2081355154514313e-002</internalNodes>
          <leafValues>
            -3.7218213081359863e-002 6.6297328472137451e-001</leafValues></_>
        <_>
          <internalNodes>
            0 -1 54 4.3243938125669956e-004</internalNodes>
          <leafValues>
            3.5455179214477539e-001 -5.9243679046630859e-002</leafValues></_>
        <_>
          <internalNodes>
            0 -1 364 6.7184418439865112e-003</internalNodes>
          <leafValues>
            -3.4276071190834045e-001 7.2190806269645691e-002</leafValues></_>
        <_>
          <internalNodes>
            0 -1 263 9.7344681620597839e-002</internalNodes>
          <leafValues>
            -4.1621878743171692e-002 4.8723933100700378e-001</leafValues></_>
        <_>
          <internalNodes>
            0 -1 107 8.3305358886718750e-002</internalNodes>
          <leafValues>
            -4.5466154813766479e-002 4.5374703407287598e-001</leafValues></_>
        <_>
          <internalNodes>
            0 -1 27 1.0220064781606197e-002</internalNodes>
          <leafValues>
            1.1828831583261490e-001 -1.5714778006076813e-001</leafValues></_>
        <_>
          <internalNodes>
            0 -1 297 1.6871759295463562e-001</internalNodes>
          <leafValues>
            2.6373628526926041e-002 -7.1051508188247681e-001</leafValues></_>
        <_>
          <internalNodes>
            0 -1 340 7.3472713120281696e-004</internalNodes>
          <leafValues>
            -6.8667179346084595e-001 2.5225572288036346e-002</leafValues></_>
        <_>
          <internalNodes>
            0 -1 89 1.2946010101586580e-003</internalNodes>
          <leafValues>
            2.4840676784515381e-001 -9.0816728770732880e-002</leafValues></_>
        <_>
          <internalNodes>
            0 -1 189 4.3316069059073925e-004</internalNodes>
          <leafValues>
            -7.2127526998519897e-001 2.2844007238745689e-002</leafValues></_>
        <_>
          <internalNodes>
            0 -1 427 4.7518638893961906e-005</internalNodes>
          <leafValues>
            -4.6875032782554626e-001 2.8650213032960892e-002</leafValues></_>
        <_>
          <internalNodes>
            0 -1 260 6.5424619242548943e-004</internalNodes>
          <leafValues>
            2.8812405467033386e-001 -6.9279372692108154e-002</leafValues></_>
        <_>
          <internalNodes>
            0 -1 14 1.8508642911911011e-001</internalNodes>
          <leafValues>
            2.1928101778030396e-002 -6.7678314447402954e-001</leafValues></_>
        <_>
          <internalNodes>
            0 -1 294 5.6930005550384521e-002</internalNodes>
          <leafValues>
            1.8047461286187172e-002 -7.7271145582199097e-001</leafValues></_>
        <_>
          <internalNodes>
            0 -1 266 1.0745538771152496e-001</internalNodes>
          <leafValues>
            1.3815019279718399e-002 -8.5201686620712280e-001</leafValues></_>
        <_>
          <internalNodes>
            0 -1 355 1.3740423321723938e-001</internalNodes>
          <leafValues>
            3.7186037749052048e-002 -3.5350200533866882e-001</leafValues></_>
        <_>
          <internalNodes>
            0 -1 33 1.2428292538970709e-003</internalNodes>
          <leafValues>
            4.0065816044807434e-001 -3.9189666509628296e-002</leafValues></_>
        <_>
          <internalNodes>
            0 -1 313 6.6657669842243195e-002</internalNodes>
          <leafValues>
            2.4921765550971031e-002 -6.0290700197219849e-001</leafValues></_>
        <_>
          <internalNodes>
            0 -1 413 1.9233588129281998e-002</internalNodes>
          <leafValues>
            -1.1781419813632965e-001 1.4024923741817474e-001</leafValues></_>
        <_>
          <internalNodes>
            0 -1 3 3.7007592618465424e-004</internalNodes>
          <leafValues>
            1.8829885125160217e-001 -8.8396675884723663e-002</leafValues></_>
        <_>
          <internalNodes>
            0 -1 150 3.7771416828036308e-003</internalNodes>
          <leafValues>
            -2.7201789617538452e-001 5.8333884924650192e-002</leafValues></_>
        <_>
          <internalNodes>
            0 -1 43 2.2435680031776428e-002</internalNodes>
          <leafValues>
            6.4751468598842621e-002 -2.3013177514076233e-001</leafValues></_>
        <_>
          <internalNodes>
            0 -1 245 9.2761078849434853e-004</internalNodes>
          <leafValues>
            -7.6811283826828003e-001 1.5610992908477783e-002</leafValues></_>
        <_>
          <internalNodes>
            0 -1 137 1.2046406045556068e-003</internalNodes>
          <leafValues>
            2.9098325967788696e-001 -5.6276854127645493e-002</leafValues></_>
        <_>
          <internalNodes>
            0 -1 354 7.0517545100301504e-004</internalNodes>
          <leafValues>
            -6.6890215873718262e-001 2.6636902242898941e-002</leafValues></_>
        <_>
          <internalNodes>
            0 -1 158 1.2033168226480484e-002</internalNodes>
          <leafValues>
            1.5711756050586700e-001 -9.9591597914695740e-002</leafValues></_>
        <_>
          <internalNodes>
            0 -1 382 2.0522531121969223e-002</internalNodes>
          <leafValues>
            7.2035372257232666e-002 -1.9372734427452087e-001</leafValues></_>
        <_>
          <internalNodes>
            0 -1 334 1.2951375916600227e-002</internalNodes>
          <leafValues>
            -1.7651449143886566e-001 9.4458743929862976e-002</leafValues></_>
        <_>
          <internalNodes>
            0 -1 116 4.7004176303744316e-004</internalNodes>
          <leafValues>
            3.7639847397804260e-001 -4.6262133866548538e-002</leafValues></_>
        <_>
          <internalNodes>
            0 -1 177 9.0560831129550934e-002</internalNodes>
          <leafValues>
            2.4337695911526680e-002 -5.3190362453460693e-001</leafValues></_>
        <_>
          <internalNodes>
            0 -1 16 2.8666999423876405e-004</internalNodes>
          <leafValues>
            3.4131950139999390e-001 -4.2075276374816895e-002</leafValues></_>
        <_>
          <internalNodes>
            0 -1 322 3.4302163840038702e-005</internalNodes>
          <leafValues>
            -6.8378788232803345e-001 2.9019294306635857e-002</leafValues></_>
        <_>
          <internalNodes>
            0 -1 224 5.8654733002185822e-002</internalNodes>
          <leafValues>
            -3.6493398249149323e-002 4.3471059203147888e-001</leafValues></_>
        <_>
          <internalNodes>
            0 -1 121 3.0651618726551533e-003</internalNodes>
          <leafValues>
            2.2238159179687500e-001 -5.7677853852510452e-002</leafValues></_>
        <_>
          <internalNodes>
            0 -1 376 4.8506865277886391e-003</internalNodes>
          <leafValues>
            -2.2696477174758911e-001 6.9955416023731232e-002</leafValues></_>
        <_>
          <internalNodes>
            0 -1 329 3.8371179252862930e-002</internalNodes>
          <leafValues>
            3.1866598874330521e-002 -4.7892218828201294e-001</leafValues></_>
        <_>
          <internalNodes>
            0 -1 141 2.8606452979147434e-003</internalNodes>
          <leafValues>
            -5.1876735687255859e-001 2.4348268285393715e-002</leafValues></_>
        <_>
          <internalNodes>
            0 -1 112 3.6401418037712574e-004</internalNodes>
          <leafValues>
            3.1920519471168518e-001 -4.7267924994230270e-002</leafValues></_>
        <_>
          <internalNodes>
            0 -1 70 1.9303782284259796e-001</internalNodes>
          <leafValues>
            2.6374028995633125e-002 -5.5121386051177979e-001</leafValues></_>
        <_>
          <internalNodes>
            0 -1 49 7.0939496159553528e-002</internalNodes>
          <leafValues>
            2.2870982065796852e-002 -5.2050828933715820e-001</leafValues></_>
        <_>
          <internalNodes>
            0 -1 131 5.6642346316948533e-004</internalNodes>
          <leafValues>
            3.9465788006782532e-001 -3.6938823759555817e-002</leafValues></_>
        <_>
          <internalNodes>
            0 -1 283 1.5838848426938057e-002</internalNodes>
          <leafValues>
            -1.1645977944135666e-001 1.0537172853946686e-001</leafValues></_>
        <_>
          <internalNodes>
            0 -1 135 3.9399892091751099e-002</internalNodes>
          <leafValues>
            -1.7166034877300262e-001 8.7663501501083374e-002</leafValues></_>
        <_>
          <internalNodes>
            0 -1 4 9.1700069606304169e-004</internalNodes>
          <leafValues>
            1.8239255249500275e-001 -7.5981624424457550e-002</leafValues></_>
        <_>
          <internalNodes>
            0 -1 391 3.9990872144699097e-002</internalNodes>
          <leafValues>
            -7.9845324158668518e-002 1.6939695179462433e-001</leafValues></_>
        <_>
          <internalNodes>
            0 -1 153 3.9975598454475403e-002</internalNodes>
          <leafValues>
            -6.5392121672630310e-002 1.8177410960197449e-001</leafValues></_>
        <_>
          <internalNodes>
            0 -1 294 2.3365575820207596e-002</internalNodes>
          <leafValues>
            6.3549868762493134e-002 -2.3230051994323730e-001</leafValues></_>
        <_>
          <internalNodes>
            0 -1 226 7.2068898589350283e-005</internalNodes>
          <leafValues>
            -9.0250968933105469e-001 1.2277739122509956e-002</leafValues></_>
        <_>
          <internalNodes>
            0 -1 16 6.1984762549400330e-002</internalNodes>
          <leafValues>
            -3.4979272633790970e-002 3.9186948537826538e-001</leafValues></_>
        <_>
          <internalNodes>
            0 -1 178 2.0075175911188126e-002</internalNodes>
          <leafValues>
            -7.7245004475116730e-002 1.4628630876541138e-001</leafValues></_>
        <_>
          <internalNodes>
            0 -1 181 4.4107399880886078e-002</internalNodes>
          <leafValues>
            -7.2720229625701904e-002 1.9086822867393494e-001</leafValues></_>
        <_>
          <internalNodes>
            0 -1 313 3.1479117460548878e-003</internalNodes>
          <leafValues>
            -2.8648537397384644e-001 3.7242759019136429e-002</leafValues></_>
        <_>
          <internalNodes>
            0 -1 94 6.1248149722814560e-003</internalNodes>
          <leafValues>
            1.9950538873672485e-001 -6.5527983009815216e-002</leafValues></_>
        <_>
          <internalNodes>
            0 -1 396 6.0446400195360184e-002</internalNodes>
          <leafValues>
            -3.6227840930223465e-002 3.4225860238075256e-001</leafValues></_>
        <_>
          <internalNodes>
            0 -1 211 3.8314659148454666e-002</internalNodes>
          <leafValues>
            3.3947788178920746e-002 -3.1774190068244934e-001</leafValues></_>
        <_>
          <internalNodes>
            0 -1 279 3.7336237728595734e-002</internalNodes>
          <leafValues>
            -3.6157805472612381e-002 3.3910760283470154e-001</leafValues></_>
        <_>
          <internalNodes>
            0 -1 301 1.7970439046621323e-002</internalNodes>
          <leafValues>
            -1.3859774172306061e-001 8.0865621566772461e-002</leafValues></_>
        <_>
          <internalNodes>
            0 -1 36 1.4725469052791595e-002</internalNodes>
          <leafValues>
            1.3914330303668976e-001 -8.4855079650878906e-002</leafValues></_>
        <_>
          <internalNodes>
            0 -1 165 4.6753220260143280e-002</internalNodes>
          <leafValues>
            -4.2054500430822372e-002 2.7580663561820984e-001</leafValues></_>
        <_>
          <internalNodes>
            0 -1 409 4.7509231080766767e-005</internalNodes>
          <leafValues>
            -8.0265891551971436e-001 1.6993520781397820e-002</leafValues></_>
        <_>
          <internalNodes>
            0 -1 27 1.2431925861164927e-003</internalNodes>
          <leafValues>
            1.9606773555278778e-001 -5.5597551167011261e-002</leafValues></_>
        <_>
          <internalNodes>
            0 -1 320 2.7958945793216117e-005</internalNodes>
          <leafValues>
            -3.7516149878501892e-001 3.7102945148944855e-002</leafValues></_>
        <_>
          <internalNodes>
            0 -1 19 9.1623805463314056e-002</internalNodes>
          <leafValues>
            -3.2112985849380493e-002 3.1854122877120972e-001</leafValues></_>
        <_>
          <internalNodes>
            0 -1 136 1.4159742742776871e-002</internalNodes>
          <leafValues>
            1.4021533727645874e-001 -7.6175607740879059e-002</leafValues></_>
        <_>
          <internalNodes>
            0 -1 270 1.5136285219341516e-003</internalNodes>
          <leafValues>
            -6.2361675500869751e-001 1.8323270604014397e-002</leafValues></_>
        <_>
          <internalNodes>
            0 -1 119 8.7670295033603907e-004</internalNodes>
          <leafValues>
            3.0594533681869507e-001 -4.3472114950418472e-002</leafValues></_></weakClassifiers></_>
    <!-- stage 13 -->
    <_>
      <maxWeakCount>100</maxWeakCount>
      <stageThreshold>-6.2869139015674591e-002</stageThreshold>
      <weakClassifiers>
        <_>
          <internalNodes>
            0 -1 4 4.3768435716629028e-003</internalNodes>
          <leafValues>
            9.6452736854553223e-001 8.5341250896453857e-001</leafValues></_>
        <_>
          <internalNodes>
            0 -1 28 6.2783237081021070e-004</internalNodes>
          <leafValues>
            8.3579474687576294e-001 4.4314184784889221e-001</leafValues></_>
        <_>
          <internalNodes>
            0 -1 159 8.3334214286878705e-004</internalNodes>
          <leafValues>
            6.3315904140472412e-001 -6.4763508737087250e-002</leafValues></_>
        <_>
          <internalNodes>
            0 -1 88 7.6438399264588952e-004</internalNodes>
          <leafValues>
            4.8100343346595764e-001 -1.9528333842754364e-001</leafValues></_>
        <_>
          <internalNodes>
            0 -1 233 3.6504387389868498e-004</internalNodes>
          <leafValues>
            5.5414497852325439e-001 -9.9731609225273132e-002</leafValues></_>
        <_>
          <internalNodes>
            0 -1 150 2.4640470743179321e-002</internalNodes>
          <leafValues>
            -1.9767080247402191e-001 2.8184953331947327e-001</leafValues></_>
        <_>
          <internalNodes>
            0 -1 407 2.0357334986329079e-002</internalNodes>
          <leafValues>
            1.2242735922336578e-001 -3.6431753635406494e-001</leafValues></_>
        <_>
          <internalNodes>
            0 -1 10 2.3885011672973633e-002</internalNodes>
          <leafValues>
            -2.3603749275207520e-001 1.7752155661582947e-001</leafValues></_>
        <_>
          <internalNodes>
            0 -1 309 5.6434724479913712e-002</internalNodes>
          <leafValues>
            -2.1503221988677979e-001 1.8908329308032990e-001</leafValues></_>
        <_>
          <internalNodes>
            0 -1 360 5.8935299515724182e-002</internalNodes>
          <leafValues>
            -9.0023636817932129e-002 4.3666607141494751e-001</leafValues></_>
        <_>
          <internalNodes>
            0 -1 4 2.6077521033585072e-004</internalNodes>
          <leafValues>
            2.9619729518890381e-001 -1.4047485589981079e-001</leafValues></_>
        <_>
          <internalNodes>
            0 -1 303 3.5428863018751144e-002</internalNodes>
          <leafValues>
            -1.2200223654508591e-001 3.2302397489547729e-001</leafValues></_>
        <_>
          <internalNodes>
            0 -1 333 2.7864295989274979e-002</internalNodes>
          <leafValues>
            -2.3490519821643829e-001 1.6653850674629211e-001</leafValues></_>
        <_>
          <internalNodes>
            0 -1 24 5.1148810598533601e-005</internalNodes>
          <leafValues>
            -5.2555596828460693e-001 6.5812349319458008e-002</leafValues></_>
        <_>
          <internalNodes>
            0 -1 27 9.8695047199726105e-004</internalNodes>
          <leafValues>
            2.7917191386222839e-001 -1.1923430114984512e-001</leafValues></_>
        <_>
          <internalNodes>
            0 -1 152 1.8039185553789139e-002</internalNodes>
          <leafValues>
            -1.8355530500411987e-001 1.9704875349998474e-001</leafValues></_>
        <_>
          <internalNodes>
            0 -1 185 2.9777172021567822e-003</internalNodes>
          <leafValues>
            2.8599539399147034e-001 -9.5150612294673920e-002</leafValues></_>
        <_>
          <internalNodes>
            0 -1 157 1.2286891043186188e-001</internalNodes>
          <leafValues>
            5.3491782397031784e-002 -6.0363316535949707e-001</leafValues></_>
        <_>
          <internalNodes>
            0 -1 330 2.2489445284008980e-002</internalNodes>
          <leafValues>
            6.8209044635295868e-002 -3.3217844367027283e-001</leafValues></_>
        <_>
          <internalNodes>
            0 -1 2 4.0470898966304958e-004</internalNodes>
          <leafValues>
            3.0132105946540833e-001 -8.9672677218914032e-002</leafValues></_>
        <_>
          <internalNodes>
            0 -1 308 2.4671538267284632e-003</internalNodes>
          <leafValues>
            -6.3171410560607910e-001 4.3737221509218216e-002</leafValues></_>
        <_>
          <internalNodes>
            0 -1 189 1.6817511641420424e-004</internalNodes>
          <leafValues>
            -8.7928706407546997e-001 2.1467993035912514e-002</leafValues></_>
        <_>
          <internalNodes>
            0 -1 160 3.6070756614208221e-003</internalNodes>
          <leafValues>
            2.2382541000843048e-001 -1.3039681315422058e-001</leafValues></_>
        <_>
          <internalNodes>
            0 -1 372 1.3065746426582336e-001</internalNodes>
          <leafValues>
            4.5978505164384842e-002 -5.5561399459838867e-001</leafValues></_>
        <_>
          <internalNodes>
            0 -1 223 4.9138092435896397e-003</internalNodes>
          <leafValues>
            2.3456637561321259e-001 -1.2193400412797928e-001</leafValues></_>
        <_>
          <internalNodes>
            0 -1 369 2.8048290405422449e-003</internalNodes>
          <leafValues>
            -4.1139489412307739e-001 7.4248015880584717e-002</leafValues></_>
        <_>
          <internalNodes>
            0 -1 99 1.5342020196840167e-003</internalNodes>
          <leafValues>
            2.6176071166992188e-001 -8.2237228751182556e-002</leafValues></_>
        <_>
          <internalNodes>
            0 -1 357 3.6941780708730221e-003</internalNodes>
          <leafValues>
            -3.4203177690505981e-001 6.7353479564189911e-002</leafValues></_>
        <_>
          <internalNodes>
            0 -1 343 7.9828619956970215e-002</internalNodes>
          <leafValues>
            -3.4377478063106537e-002 5.6976109743118286e-001</leafValues></_>
        <_>
          <internalNodes>
            0 -1 3 3.7830899236723781e-004</internalNodes>
          <leafValues>
            2.1233956515789032e-001 -1.0618161410093307e-001</leafValues></_>
        <_>
          <internalNodes>
            0 -1 377 7.6530724763870239e-002</internalNodes>
          <leafValues>
            2.4569379165768623e-002 -8.2530021667480469e-001</leafValues></_>
        <_>
          <internalNodes>
            0 -1 362 1.5801327303051949e-002</internalNodes>
          <leafValues>
            -1.7087249457836151e-001 1.2087848037481308e-001</leafValues></_>
        <_>
          <internalNodes>
            0 -1 387 3.8175284862518311e-002</internalNodes>
          <leafValues>
            -2.3222041130065918e-001 1.1298570781946182e-001</leafValues></_>
        <_>
          <internalNodes>
            0 -1 275 7.3450192809104919e-002</internalNodes>
          <leafValues>
            -6.6091075539588928e-002 3.3175069093704224e-001</leafValues></_>
        <_>
          <internalNodes>
            0 -1 179 4.5156411826610565e-002</internalNodes>
          <leafValues>
            -8.3790712058544159e-002 2.5999963283538818e-001</leafValues></_>
        <_>
          <internalNodes>
            0 -1 124 2.5373342214152217e-004</internalNodes>
          <leafValues>
            4.9797397851943970e-001 -3.4658964723348618e-002</leafValues></_>
        <_>
          <internalNodes>
            0 -1 326 8.8113367557525635e-002</internalNodes>
          <leafValues>
            3.0014244839549065e-002 -7.1366798877716064e-001</leafValues></_>
        <_>
          <internalNodes>
            0 -1 10 6.0356304049491882e-002</internalNodes>
          <leafValues>
            -6.7803069949150085e-002 2.8150805830955505e-001</leafValues></_>
        <_>
          <internalNodes>
            0 -1 185 2.2728908807039261e-002</internalNodes>
          <leafValues>
            1.0203093290328979e-001 -2.0131492614746094e-001</leafValues></_>
        <_>
          <internalNodes>
            0 -1 301 1.1853327974677086e-002</internalNodes>
          <leafValues>
            -2.6063835620880127e-001 7.3582731187343597e-002</leafValues></_>
        <_>
          <internalNodes>
            0 -1 39 5.7550556957721710e-002</internalNodes>
          <leafValues>
            -1.0995244979858398e-001 1.6641269624233246e-001</leafValues></_>
        <_>
          <internalNodes>
            0 -1 378 5.5213771760463715e-002</internalNodes>
          <leafValues>
            -6.8110950291156769e-002 2.9526641964912415e-001</leafValues></_>
        <_>
          <internalNodes>
            0 -1 283 3.0211638659238815e-002</internalNodes>
          <leafValues>
            -8.9589118957519531e-002 2.1471880376338959e-001</leafValues></_>
        <_>
          <internalNodes>
            0 -1 345 7.6928898692131042e-002</internalNodes>
          <leafValues>
            -4.5092009007930756e-002 3.8824030756950378e-001</leafValues></_>
        <_>
          <internalNodes>
            0 -1 41 5.6791655719280243e-002</internalNodes>
          <leafValues>
            -3.7593804299831390e-002 4.2920717597007751e-001</leafValues></_>
        <_>
          <internalNodes>
            0 -1 138 4.8827357590198517e-002</internalNodes>
          <leafValues>
            3.7316709756851196e-002 -5.1438826322555542e-001</leafValues></_>
        <_>
          <internalNodes>
            0 -1 148 1.5576800704002380e-001</internalNodes>
          <leafValues>
            3.2011676579713821e-002 -4.4762849807739258e-001</leafValues></_>
        <_>
          <internalNodes>
            0 -1 270 6.1306755989789963e-002</internalNodes>
          <leafValues>
            -1.1010164767503738e-001 1.4826656877994537e-001</leafValues></_>
        <_>
          <internalNodes>
            0 -1 20 2.7399720624089241e-002</internalNodes>
          <leafValues>
            -9.4553045928478241e-002 1.9440974295139313e-001</leafValues></_>
        <_>
          <internalNodes>
            0 -1 203 5.4323644144460559e-004</internalNodes>
          <leafValues>
            3.1473103165626526e-001 -5.5378179997205734e-002</leafValues></_>
        <_>
          <internalNodes>
            0 -1 396 2.0860251970589161e-003</internalNodes>
          <leafValues>
            -6.4385056495666504e-001 2.9823513701558113e-002</leafValues></_>
        <_>
          <internalNodes>
            0 -1 202 5.4244972765445709e-002</internalNodes>
          <leafValues>
            -4.0490504354238510e-002 3.9270788431167603e-001</leafValues></_>
        <_>
          <internalNodes>
            0 -1 213 7.9592660069465637e-002</internalNodes>
          <leafValues>
            -2.9621828347444534e-002 4.4897025823593140e-001</leafValues></_>
        <_>
          <internalNodes>
            0 -1 141 1.4137595891952515e-001</internalNodes>
          <leafValues>
            4.2921941727399826e-002 -3.7336283922195435e-001</leafValues></_>
        <_>
          <internalNodes>
            0 -1 137 9.9232895299792290e-003</internalNodes>
          <leafValues>
            1.5065771341323853e-001 -1.1589790880680084e-001</leafValues></_>
        <_>
          <internalNodes>
            0 -1 354 4.8108078772202134e-004</internalNodes>
          <leafValues>
            -7.2671973705291748e-001 2.3658849298954010e-002</leafValues></_>
        <_>
          <internalNodes>
            0 -1 413 3.0455769971013069e-002</internalNodes>
          <leafValues>
            -7.8672021627426147e-002 2.2126889228820801e-001</leafValues></_>
        <_>
          <internalNodes>
            0 -1 319 1.7012026160955429e-002</internalNodes>
          <leafValues>
            9.1484673321247101e-002 -1.8699973821640015e-001</leafValues></_>
        <_>
          <internalNodes>
            0 -1 74 2.3793737636879086e-004</internalNodes>
          <leafValues>
            3.9999663829803467e-001 -3.9706394076347351e-002</leafValues></_>
        <_>
          <internalNodes>
            0 -1 390 1.4030352234840393e-002</internalNodes>
          <leafValues>
            -1.6705711185932159e-001 1.0364238172769547e-001</leafValues></_>
        <_>
          <internalNodes>
            0 -1 112 9.1730952262878418e-003</internalNodes>
          <leafValues>
            1.4671102166175842e-001 -1.0281402617692947e-001</leafValues></_>
        <_>
          <internalNodes>
            0 -1 14 1.8448312580585480e-001</internalNodes>
          <leafValues>
            2.1863309666514397e-002 -7.0053714513778687e-001</leafValues></_>
        <_>
          <internalNodes>
            0 -1 162 9.6627912716940045e-004</internalNodes>
          <leafValues>
            3.5313254594802856e-001 -4.4958818703889847e-002</leafValues></_>
        <_>
          <internalNodes>
            0 -1 180 1.1471529724076390e-003</internalNodes>
          <leafValues>
            -6.4484214782714844e-001 2.5205794721841812e-002</leafValues></_>
        <_>
          <internalNodes>
            0 -1 4 2.3419859353452921e-003</internalNodes>
          <leafValues>
            1.6822858154773712e-001 -1.1346551775932312e-001</leafValues></_>
        <_>
          <internalNodes>
            0 -1 208 2.5940776686184108e-004</internalNodes>
          <leafValues>
            -5.3046441078186035e-001 3.1891480088233948e-002</leafValues></_>
        <_>
          <internalNodes>
            0 -1 205 6.8386986851692200e-002</internalNodes>
          <leafValues>
            -3.2167408615350723e-002 4.5694518089294434e-001</leafValues></_>
        <_>
          <internalNodes>
            0 -1 9 2.2104365751147270e-002</internalNodes>
          <leafValues>
            -1.1509008705615997e-001 1.2385816127061844e-001</leafValues></_>
        <_>
          <internalNodes>
            0 -1 31 2.9167663305997849e-002</internalNodes>
          <leafValues>
            -1.4251706004142761e-001 1.0669660568237305e-001</leafValues></_>
        <_>
          <internalNodes>
            0 -1 363 9.0500764548778534e-002</internalNodes>
          <leafValues>
            2.0709224045276642e-002 -7.5241219997406006e-001</leafValues></_>
        <_>
          <internalNodes>
            0 -1 210 3.3188151428475976e-004</internalNodes>
          <leafValues>
            2.9000130295753479e-001 -5.3368132561445236e-002</leafValues></_>
        <_>
          <internalNodes>
            0 -1 376 4.4280076399445534e-003</internalNodes>
          <leafValues>
            -2.3714397847652435e-001 6.3288711011409760e-002</leafValues></_>
        <_>
          <internalNodes>
            0 -1 254 4.0253711631521583e-004</internalNodes>
          <leafValues>
            2.9845696687698364e-001 -4.9581658095121384e-002</leafValues></_>
        <_>
          <internalNodes>
            0 -1 274 2.9863379895687103e-003</internalNodes>
          <leafValues>
            -5.5124425888061523e-001 2.4721037596464157e-002</leafValues></_>
        <_>
          <internalNodes>
            0 -1 47 5.5240362882614136e-002</internalNodes>
          <leafValues>
            -7.0789203047752380e-002 2.0280212163925171e-001</leafValues></_>
        <_>
          <internalNodes>
            0 -1 75 9.1287627816200256e-002</internalNodes>
          <leafValues>
            -2.6532463729381561e-002 5.1024222373962402e-001</leafValues></_>
        <_>
          <internalNodes>
            0 -1 309 2.2130910307168961e-002</internalNodes>
          <leafValues>
            -2.6774778962135315e-001 5.4096307605504990e-002</leafValues></_>
        <_>
          <internalNodes>
            0 -1 288 6.0663884505629539e-004</internalNodes>
          <leafValues>
            3.7872248888015747e-001 -3.6996621638536453e-002</leafValues></_>
        <_>
          <internalNodes>
            0 -1 394 5.2065193653106689e-002</internalNodes>
          <leafValues>
            2.7910219505429268e-002 -5.0530689954757690e-001</leafValues></_>
        <_>
          <internalNodes>
            0 -1 218 3.8528881967067719e-002</internalNodes>
          <leafValues>
            -5.0609424710273743e-002 3.1774172186851501e-001</leafValues></_>
        <_>
          <internalNodes>
            0 -1 298 3.8910340517759323e-002</internalNodes>
          <leafValues>
            -5.9368964284658432e-002 2.1196529269218445e-001</leafValues></_>
        <_>
          <internalNodes>
            0 -1 158 1.6203749924898148e-002</internalNodes>
          <leafValues>
            1.2762539088726044e-001 -9.9951326847076416e-002</leafValues></_>
        <_>
          <internalNodes>
            0 -1 397 3.6717969924211502e-002</internalNodes>
          <leafValues>
            -1.7734892666339874e-001 9.5144063234329224e-002</leafValues></_>
        <_>
          <internalNodes>
            0 -1 425 9.5510552637279034e-004</internalNodes>
          <leafValues>
            -5.1356208324432373e-001 2.4495422840118408e-002</leafValues></_>
        <_>
          <internalNodes>
            0 -1 77 4.8763997619971633e-004</internalNodes>
          <leafValues>
            3.0973231792449951e-001 -4.7912083566188812e-002</leafValues></_>
        <_>
          <internalNodes>
            0 -1 214 1.4266374707221985e-001</internalNodes>
          <leafValues>
            4.2101692408323288e-002 -3.2186844944953918e-001</leafValues></_>
        <_>
          <internalNodes>
            0 -1 410 6.4514398574829102e-002</internalNodes>
          <leafValues>
            -9.2439383268356323e-002 1.5469782054424286e-001</leafValues></_>
        <_>
          <internalNodes>
            0 -1 289 2.1947644650936127e-002</internalNodes>
          <leafValues>
            1.1175747215747833e-001 -1.1402653157711029e-001</leafValues></_>
        <_>
          <internalNodes>
            0 -1 352 6.8021565675735474e-002</internalNodes>
          <leafValues>
            1.7402315512299538e-002 -8.3591467142105103e-001</leafValues></_>
        <_>
          <internalNodes>
            0 -1 352 1.7617479898035526e-003</internalNodes>
          <leafValues>
            -2.5616043806076050e-001 4.5778144150972366e-002</leafValues></_>
        <_>
          <internalNodes>
            0 -1 137 4.6120272600091994e-004</internalNodes>
          <leafValues>
            3.5800108313560486e-001 -4.2047016322612762e-002</leafValues></_>
        <_>
          <internalNodes>
            0 -1 58 7.5568407773971558e-002</internalNodes>
          <leafValues>
            -3.4642655402421951e-002 3.3905887603759766e-001</leafValues></_>
        <_>
          <internalNodes>
            0 -1 252 9.5134526491165161e-002</internalNodes>
          <leafValues>
            -2.3769577965140343e-002 5.3760188817977905e-001</leafValues></_>
        <_>
          <internalNodes>
            0 -1 113 7.0265561342239380e-002</internalNodes>
          <leafValues>
            -3.5327680408954620e-002 3.1225922703742981e-001</leafValues></_>
        <_>
          <internalNodes>
            0 -1 297 1.7782151699066162e-001</internalNodes>
          <leafValues>
            1.9886484369635582e-002 -6.1121237277984619e-001</leafValues></_>
        <_>
          <internalNodes>
            0 -1 2 1.4140075072646141e-003</internalNodes>
          <leafValues>
            2.0030744373798370e-001 -6.6350668668746948e-002</leafValues></_>
        <_>
          <internalNodes>
            0 -1 343 9.4762170920148492e-004</internalNodes>
          <leafValues>
            -5.6521213054656982e-001 2.5597378611564636e-002</leafValues></_>
        <_>
          <internalNodes>
            0 -1 66 1.7617922276258469e-003</internalNodes>
          <leafValues>
            2.3264212906360626e-001 -6.5460748970508575e-002</leafValues></_>
        <_>
          <internalNodes>
            0 -1 364 1.7669502645730972e-002</internalNodes>
          <leafValues>
            -1.5022999048233032e-001 1.0363188385963440e-001</leafValues></_>
        <_>
          <internalNodes>
            0 -1 124 5.3694598376750946e-002</internalNodes>
          <leafValues>
            -3.4809514880180359e-002 3.5859811305999756e-001</leafValues></_></weakClassifiers></_>
    <!-- stage 14 -->
    <_>
      <maxWeakCount>100</maxWeakCount>
      <stageThreshold>1.3657058589160442e-002</stageThreshold>
      <weakClassifiers>
        <_>
          <internalNodes>
            0 -1 366 2.2674641013145447e-001</internalNodes>
          <leafValues>
            9.3208158016204834e-001 -6.3636362552642822e-001</leafValues></_>
        <_>
          <internalNodes>
            0 -1 4 3.8935348857194185e-004</internalNodes>
          <leafValues>
            8.2712280750274658e-001 4.3887633085250854e-001</leafValues></_>
        <_>
          <internalNodes>
            0 -1 66 3.1803175806999207e-004</internalNodes>
          <leafValues>
            6.4276498556137085e-001 -1.0957154445350170e-002</leafValues></_>
        <_>
          <internalNodes>
            0 -1 259 4.5641907490789890e-004</internalNodes>
          <leafValues>
            5.1968073844909668e-001 -1.0265947133302689e-001</leafValues></_>
        <_>
          <internalNodes>
            0 -1 150 1.3410370796918869e-002</internalNodes>
          <leafValues>
            -3.2988676428794861e-001 1.7075519263744354e-001</leafValues></_>
        <_>
          <internalNodes>
            0 -1 159 3.4941761987283826e-004</internalNodes>
          <leafValues>
            3.8422137498855591e-001 -1.7407988011837006e-001</leafValues></_>
        <_>
          <internalNodes>
            0 -1 348 6.1394922435283661e-002</internalNodes>
          <leafValues>
            8.2318618893623352e-002 -6.0309106111526489e-001</leafValues></_>
        <_>
          <internalNodes>
            0 -1 11 1.6252078115940094e-002</internalNodes>
          <leafValues>
            -2.3153032362461090e-001 1.9068138301372528e-001</leafValues></_>
        <_>
          <internalNodes>
            0 -1 3 2.8077096212655306e-003</internalNodes>
          <leafValues>
            2.2037257254123688e-001 -2.3360918462276459e-001</leafValues></_>
        <_>
          <internalNodes>
            0 -1 128 1.3263587607070804e-003</internalNodes>
          <leafValues>
            3.5164326429367065e-001 -1.4387610554695129e-001</leafValues></_>
        <_>
          <internalNodes>
            0 -1 214 1.0939375497400761e-002</internalNodes>
          <leafValues>
            -5.6860953569412231e-001 8.0689243972301483e-002</leafValues></_>
        <_>
          <internalNodes>
            0 -1 308 2.3412398993968964e-002</internalNodes>
          <leafValues>
            -2.0508083701133728e-001 1.4100056886672974e-001</leafValues></_>
        <_>
          <internalNodes>
            0 -1 297 1.4601463079452515e-001</internalNodes>
          <leafValues>
            5.2905775606632233e-002 -6.1999297142028809e-001</leafValues></_>
        <_>
          <internalNodes>
            0 -1 27 3.0366061255335808e-003</internalNodes>
          <leafValues>
            2.2038964927196503e-001 -1.5822720527648926e-001</leafValues></_>
        <_>
          <internalNodes>
            0 -1 291 4.0825590258464217e-004</internalNodes>
          <leafValues>
            -7.5523704290390015e-001 5.1642872393131256e-002</leafValues></_>
        <_>
          <internalNodes>
            0 -1 356 3.0055578798055649e-002</internalNodes>
          <leafValues>
            -2.0413069427013397e-001 1.5027010440826416e-001</leafValues></_>
        <_>
          <internalNodes>
            0 -1 153 2.7102500200271606e-002</internalNodes>
          <leafValues>
            -1.5757049620151520e-001 2.0342977344989777e-001</leafValues></_>
        <_>
          <internalNodes>
            0 -1 2 6.7963870242238045e-004</internalNodes>
          <leafValues>
            3.1905236840248108e-001 -9.8240010440349579e-002</leafValues></_>
        <_>
          <internalNodes>
            0 -1 125 7.3623761534690857e-002</internalNodes>
          <leafValues>
            -6.7349769175052643e-002 4.6437361836433411e-001</leafValues></_>
        <_>
          <internalNodes>
            0 -1 185 7.5608293991535902e-004</internalNodes>
          <leafValues>
            3.5873374342918396e-001 -6.7563667893409729e-002</leafValues></_>
        <_>
          <internalNodes>
            0 -1 363 1.3034516945481300e-002</internalNodes>
          <leafValues>
            -2.2034895420074463e-001 1.1174844950437546e-001</leafValues></_>
        <_>
          <internalNodes>
            0 -1 336 4.6239253133535385e-002</internalNodes>
          <leafValues>
            5.4366637021303177e-002 -4.9573954939842224e-001</leafValues></_>
        <_>
          <internalNodes>
            0 -1 282 4.4323233887553215e-003</internalNodes>
          <leafValues>
            -2.5418245792388916e-001 9.4475366175174713e-002</leafValues></_>
        <_>
          <internalNodes>
            0 -1 318 2.1522540599107742e-002</internalNodes>
          <leafValues>
            8.2847528159618378e-002 -3.0523020029067993e-001</leafValues></_>
        <_>
          <internalNodes>
            0 -1 352 3.4185133874416351e-002</internalNodes>
          <leafValues>
            4.0120422840118408e-002 -5.7443904876708984e-001</leafValues></_>
        <_>
          <internalNodes>
            0 -1 94 3.0284741660580039e-004</internalNodes>
          <leafValues>
            4.0561404824256897e-001 -6.4184933900833130e-002</leafValues></_>
        <_>
          <internalNodes>
            0 -1 23 4.0967226028442383e-002</internalNodes>
          <leafValues>
            -8.7129868566989899e-002 2.8942504525184631e-001</leafValues></_>
        <_>
          <internalNodes>
            0 -1 304 1.4136084914207458e-001</internalNodes>
          <leafValues>
            3.9553627371788025e-002 -5.9309524297714233e-001</leafValues></_>
        <_>
          <internalNodes>
            0 -1 308 7.6637655729427934e-004</internalNodes>
          <leafValues>
            -6.8209952116012573e-001 2.2769154980778694e-002</leafValues></_>
        <_>
          <internalNodes>
            0 -1 61 2.6811339193955064e-004</internalNodes>
          <leafValues>
            3.7038657069206238e-001 -6.7000068724155426e-002</leafValues></_>
        <_>
          <internalNodes>
            0 -1 95 8.8101789355278015e-002</internalNodes>
          <leafValues>
            -3.4934923052787781e-002 5.1336920261383057e-001</leafValues></_>
        <_>
          <internalNodes>
            0 -1 275 1.2217811495065689e-001</internalNodes>
          <leafValues>
            -2.9624711722135544e-002 5.3293144702911377e-001</leafValues></_>
        <_>
          <internalNodes>
            0 -1 13 5.3193182684481144e-003</internalNodes>
          <leafValues>
            -2.7749243378639221e-001 7.0630095899105072e-002</leafValues></_>
        <_>
          <internalNodes>
            0 -1 198 3.9733979851007462e-002</internalNodes>
          <leafValues>
            -6.0044590383768082e-002 3.2408770918846130e-001</leafValues></_>
        <_>
          <internalNodes>
            0 -1 34 1.7596581019461155e-003</internalNodes>
          <leafValues>
            3.3492347598075867e-001 -6.8001747131347656e-002</leafValues></_>
        <_>
          <internalNodes>
            0 -1 343 3.3577056456124410e-005</internalNodes>
          <leafValues>
            -7.6366037130355835e-001 2.1834107115864754e-002</leafValues></_>
        <_>
          <internalNodes>
            0 -1 103 4.6856200788170099e-004</internalNodes>
          <leafValues>
            4.0512552857398987e-001 -4.5045901089906693e-002</leafValues></_>
        <_>
          <internalNodes>
            0 -1 380 1.0898460168391466e-003</internalNodes>
          <leafValues>
            -7.2764843702316284e-001 2.9900997877120972e-002</leafValues></_>
        <_>
          <internalNodes>
            0 -1 376 1.5764910494908690e-003</internalNodes>
          <leafValues>
            -3.6051553487777710e-001 4.7768954187631607e-002</leafValues></_>
        <_>
          <internalNodes>
            0 -1 200 3.3052224898710847e-004</internalNodes>
          <leafValues>
            4.5902293920516968e-001 -4.6650823205709457e-002</leafValues></_>
        <_>
          <internalNodes>
            0 -1 108 4.4035870814695954e-004</internalNodes>
          <leafValues>
            3.3377432823181152e-001 -5.5674839764833450e-002</leafValues></_>
        <_>
          <internalNodes>
            0 -1 366 1.5913659334182739e-001</internalNodes>
          <leafValues>
            2.4021575227379799e-002 -6.4874482154846191e-001</leafValues></_>
        <_>
          <internalNodes>
            0 -1 355 5.3510122001171112e-002</internalNodes>
          <leafValues>
            -1.3492591679096222e-001 1.3967196643352509e-001</leafValues></_>
        <_>
          <internalNodes>
            0 -1 55 9.6899479627609253e-002</internalNodes>
          <leafValues>
            -3.1741578131914139e-002 5.9681725502014160e-001</leafValues></_>
        <_>
          <internalNodes>
            0 -1 56 2.4690374732017517e-002</internalNodes>
          <leafValues>
            -9.0586528182029724e-002 1.9158282876014709e-001</leafValues></_>
        <_>
          <internalNodes>
            0 -1 374 4.3078460730612278e-003</internalNodes>
          <leafValues>
            -3.2445296645164490e-001 4.9460459500551224e-002</leafValues></_>
        <_>
          <internalNodes>
            0 -1 189 3.2424360513687134e-002</internalNodes>
          <leafValues>
            -1.5480598807334900e-001 1.0551825165748596e-001</leafValues></_>
        <_>
          <internalNodes>
            0 -1 43 6.0884140431880951e-002</internalNodes>
          <leafValues>
            1.9371487200260162e-002 -6.6383808851242065e-001</leafValues></_>
        <_>
          <internalNodes>
            0 -1 4 1.3934859307482839e-003</internalNodes>
          <leafValues>
            1.6841031610965729e-001 -9.6748456358909607e-002</leafValues></_>
        <_>
          <internalNodes>
            0 -1 155 3.6971293389797211e-002</internalNodes>
          <leafValues>
            -6.7295938730239868e-002 3.1114929914474487e-001</leafValues></_>
        <_>
          <internalNodes>
            0 -1 91 6.3514620065689087e-002</internalNodes>
          <leafValues>
            -4.5380163937807083e-002 3.0874875187873840e-001</leafValues></_>
        <_>
          <internalNodes>
            0 -1 9 3.0749663710594177e-002</internalNodes>
          <leafValues>
            -9.4978585839271545e-002 1.5548975765705109e-001</leafValues></_>
        <_>
          <internalNodes>
            0 -1 406 1.7623092979192734e-002</internalNodes>
          <leafValues>
            8.4226079285144806e-002 -1.9038519263267517e-001</leafValues></_>
        <_>
          <internalNodes>
            0 -1 427 3.8730780943296850e-005</internalNodes>
          <leafValues>
            -5.2108097076416016e-001 2.8075892478227615e-002</leafValues></_>
        <_>
          <internalNodes>
            0 -1 160 8.3691522013396025e-004</internalNodes>
          <leafValues>
            2.2460271418094635e-001 -7.3225542902946472e-002</leafValues></_>
        <_>
          <internalNodes>
            0 -1 182 5.4699286818504333e-002</internalNodes>
          <leafValues>
            -4.1000977158546448e-002 4.4961595535278320e-001</leafValues></_>
        <_>
          <internalNodes>
            0 -1 353 4.8753965646028519e-002</internalNodes>
          <leafValues>
            2.7230953797698021e-002 -5.7591611146926880e-001</leafValues></_>
        <_>
          <internalNodes>
            0 -1 413 2.6174766942858696e-002</internalNodes>
          <leafValues>
            -8.1094749271869659e-002 1.5952074527740479e-001</leafValues></_>
        <_>
          <internalNodes>
            0 -1 21 1.0909587889909744e-001</internalNodes>
          <leafValues>
            2.8216298669576645e-002 -6.0798466205596924e-001</leafValues></_>
        <_>
          <internalNodes>
            0 -1 1 1.5446625184267759e-003</internalNodes>
          <leafValues>
            1.8936559557914734e-001 -8.2849413156509399e-002</leafValues></_>
        <_>
          <internalNodes>
            0 -1 62 1.4738138765096664e-002</internalNodes>
          <leafValues>
            -3.0195856094360352e-001 4.3889850378036499e-002</leafValues></_>
        <_>
          <internalNodes>
            0 -1 75 1.0119859129190445e-001</internalNodes>
          <leafValues>
            -2.6240866631269455e-002 5.8520042896270752e-001</leafValues></_>
        <_>
          <internalNodes>
            0 -1 310 4.3097957968711853e-002</internalNodes>
          <leafValues>
            -9.2066884040832520e-002 1.5092422068119049e-001</leafValues></_>
        <_>
          <internalNodes>
            0 -1 276 3.0066826730035245e-004</internalNodes>
          <leafValues>
            3.7013384699821472e-001 -3.8116116076707840e-002</leafValues></_>
        <_>
          <internalNodes>
            0 -1 422 7.7201798558235168e-003</internalNodes>
          <leafValues>
            -2.3100449144840240e-001 7.7856257557868958e-002</leafValues></_>
        <_>
          <internalNodes>
            0 -1 180 3.1385026872158051e-002</internalNodes>
          <leafValues>
            -1.5482269227504730e-001 8.9832037687301636e-002</leafValues></_>
        <_>
          <internalNodes>
            0 -1 301 1.6490412876009941e-002</internalNodes>
          <leafValues>
            -2.0086993277072906e-001 8.4263697266578674e-002</leafValues></_>
        <_>
          <internalNodes>
            0 -1 72 3.5673775710165501e-003</internalNodes>
          <leafValues>
            2.5044625997543335e-001 -5.7361502200365067e-002</leafValues></_>
        <_>
          <internalNodes>
            0 -1 369 2.6448757125763223e-005</internalNodes>
          <leafValues>
            -5.1289021968841553e-001 2.4367284029722214e-002</leafValues></_>
        <_>
          <internalNodes>
            0 -1 158 1.0521096177399158e-002</internalNodes>
          <leafValues>
            1.6080078482627869e-001 -9.0248093008995056e-002</leafValues></_>
        <_>
          <internalNodes>
            0 -1 285 1.3487344980239868e-001</internalNodes>
          <leafValues>
            3.7123773247003555e-002 -3.5957375168800354e-001</leafValues></_>
        <_>
          <internalNodes>
            0 -1 272 9.0981752146035433e-004</internalNodes>
          <leafValues>
            3.5966759920120239e-001 -3.8944814354181290e-002</leafValues></_>
        <_>
          <internalNodes>
            0 -1 299 3.3262439072132111e-002</internalNodes>
          <leafValues>
            -6.5209425985813141e-002 2.1390581130981445e-001</leafValues></_>
        <_>
          <internalNodes>
            0 -1 36 7.9669021070003510e-003</internalNodes>
          <leafValues>
            2.1197441220283508e-001 -6.5264955163002014e-002</leafValues></_>
        <_>
          <internalNodes>
            0 -1 358 3.6914106458425522e-003</internalNodes>
          <leafValues>
            -3.4369856119155884e-001 4.3037306517362595e-002</leafValues></_>
        <_>
          <internalNodes>
            0 -1 137 1.1365560814738274e-002</internalNodes>
          <leafValues>
            1.1835801601409912e-001 -1.1396782845258713e-001</leafValues></_>
        <_>
          <internalNodes>
            0 -1 285 1.1783032678067684e-003</internalNodes>
          <leafValues>
            -5.6185710430145264e-001 2.5099596008658409e-002</leafValues></_>
        <_>
          <internalNodes>
            0 -1 269 6.9919216912239790e-004</internalNodes>
          <leafValues>
            3.9621436595916748e-001 -4.3302293866872787e-002</leafValues></_>
        <_>
          <internalNodes>
            0 -1 430 1.7732948064804077e-001</internalNodes>
          <leafValues>
            2.4063710123300552e-002 -6.5157717466354370e-001</leafValues></_>
        <_>
          <internalNodes>
            0 -1 286 6.6877737641334534e-002</internalNodes>
          <leafValues>
            2.1260319277644157e-002 -5.2304261922836304e-001</leafValues></_>
        <_>
          <internalNodes>
            0 -1 363 3.5334648564457893e-003</internalNodes>
          <leafValues>
            -3.3220687508583069e-001 3.6630216985940933e-002</leafValues></_>
        <_>
          <internalNodes>
            0 -1 177 5.8441632427275181e-004</internalNodes>
          <leafValues>
            4.2504069209098816e-001 -3.7870593369007111e-002</leafValues></_>
        <_>
          <internalNodes>
            0 -1 387 5.8088310062885284e-002</internalNodes>
          <leafValues>
            -9.9859863519668579e-002 1.2135116010904312e-001</leafValues></_>
        <_>
          <internalNodes>
            0 -1 390 1.4355190098285675e-002</internalNodes>
          <leafValues>
            -1.4453542232513428e-001 9.2207297682762146e-002</leafValues></_>
        <_>
          <internalNodes>
            0 -1 76 5.0415448844432831e-002</internalNodes>
          <leafValues>
            -6.1039604246616364e-002 2.2282740473747253e-001</leafValues></_>
        <_>
          <internalNodes>
            0 -1 169 5.8297347277402878e-002</internalNodes>
          <leafValues>
            -5.4976586252450943e-002 2.1915109455585480e-001</leafValues></_>
        <_>
          <internalNodes>
            0 -1 218 4.5803762972354889e-002</internalNodes>
          <leafValues>
            -3.2204147428274155e-002 3.6000272631645203e-001</leafValues></_>
        <_>
          <internalNodes>
            0 -1 344 5.4346993565559387e-002</internalNodes>
          <leafValues>
            -1.1331123858690262e-001 1.1463732272386551e-001</leafValues></_>
        <_>
          <internalNodes>
            0 -1 347 9.9930111318826675e-003</internalNodes>
          <leafValues>
            -1.5508551895618439e-001 7.7688157558441162e-002</leafValues></_>
        <_>
          <internalNodes>
            0 -1 134 7.8596577048301697e-002</internalNodes>
          <leafValues>
            -4.2443327605724335e-002 3.0221256613731384e-001</leafValues></_>
        <_>
          <internalNodes>
            0 -1 333 8.5601411759853363e-002</internalNodes>
          <leafValues>
            -3.4416861832141876e-002 3.5541981458663940e-001</leafValues></_>
        <_>
          <internalNodes>
            0 -1 147 4.1958607733249664e-002</internalNodes>
          <leafValues>
            -3.5618875175714493e-002 3.4482017159461975e-001</leafValues></_>
        <_>
          <internalNodes>
            0 -1 161 8.5782095789909363e-002</internalNodes>
          <leafValues>
            2.2130036726593971e-002 -5.7737666368484497e-001</leafValues></_>
        <_>
          <internalNodes>
            0 -1 153 5.1807839423418045e-002</internalNodes>
          <leafValues>
            -5.7709630578756332e-002 2.4228374660015106e-001</leafValues></_>
        <_>
          <internalNodes>
            0 -1 295 1.2242475524544716e-002</internalNodes>
          <leafValues>
            1.2076945602893829e-001 -1.2734849750995636e-001</leafValues></_>
        <_>
          <internalNodes>
            0 -1 377 6.0840297490358353e-002</internalNodes>
          <leafValues>
            2.2749494761228561e-002 -5.2785664796829224e-001</leafValues></_>
        <_>
          <internalNodes>
            0 -1 288 9.4782952219247818e-003</internalNodes>
          <leafValues>
            1.3746413588523865e-001 -1.0145872086286545e-001</leafValues></_>
        <_>
          <internalNodes>
            0 -1 6 1.7224234342575073e-001</internalNodes>
          <leafValues>
            2.3714369162917137e-002 -5.4404628276824951e-001</leafValues></_>
        <_>
          <internalNodes>
            0 -1 194 7.1027696132659912e-002</internalNodes>
          <leafValues>
            -2.6477793231606483e-002 4.8082396388053894e-001</leafValues></_>
        <_>
          <internalNodes>
            0 -1 2 9.6303239464759827e-002</internalNodes>
          <leafValues>
            2.0385611802339554e-002 -6.7649894952774048e-001</leafValues></_></weakClassifiers></_>
    <!-- stage 15 -->
    <_>
      <maxWeakCount>100</maxWeakCount>
      <stageThreshold>-1.0198579548159614e-004</stageThreshold>
      <weakClassifiers>
        <_>
          <internalNodes>
            0 -1 28 7.3920568684116006e-004</internalNodes>
          <leafValues>
            9.6972393989562988e-001 8.8008499145507813e-001</leafValues></_>
        <_>
          <internalNodes>
            0 -1 87 5.7397643104195595e-004</internalNodes>
          <leafValues>
            8.5704219341278076e-001 4.8376035690307617e-001</leafValues></_>
        <_>
          <internalNodes>
            0 -1 244 4.4481790973804891e-004</internalNodes>
          <leafValues>
            7.2001773118972778e-001 2.0158500410616398e-003</leafValues></_>
        <_>
          <internalNodes>
            0 -1 159 1.6262496355921030e-003</internalNodes>
          <leafValues>
            3.3210530877113342e-001 -2.0807494223117828e-001</leafValues></_>
        <_>
          <internalNodes>
            0 -1 3 3.4605659311637282e-004</internalNodes>
          <leafValues>
            3.0279502272605896e-001 -2.0456318557262421e-001</leafValues></_>
        <_>
          <internalNodes>
            0 -1 152 4.0788734331727028e-003</internalNodes>
          <leafValues>
            -4.1221362352371216e-001 1.3196566700935364e-001</leafValues></_>
        <_>
          <internalNodes>
            0 -1 119 5.4473648779094219e-003</internalNodes>
          <leafValues>
            2.3338179290294647e-001 -1.7453733086585999e-001</leafValues></_>
        <_>
          <internalNodes>
            0 -1 234 2.7862093411386013e-003</internalNodes>
          <leafValues>
            -7.6737093925476074e-001 5.4571796208620071e-002</leafValues></_>
        <_>
          <internalNodes>
            0 -1 361 3.2708842307329178e-002</internalNodes>
          <leafValues>
            -1.5232773125171661e-001 2.6917535066604614e-001</leafValues></_>
        <_>
          <internalNodes>
            0 -1 53 4.3934816494584084e-004</internalNodes>
          <leafValues>
            3.5342592000961304e-001 -1.1322019249200821e-001</leafValues></_>
        <_>
          <internalNodes>
            0 -1 371 6.6928286105394363e-003</internalNodes>
          <leafValues>
            -4.8193958401679993e-001 6.8348802626132965e-002</leafValues></_>
        <_>
          <internalNodes>
            0 -1 183 5.2245525876060128e-004</internalNodes>
          <leafValues>
            3.6497023701667786e-001 -1.1199773102998734e-001</leafValues></_>
        <_>
          <internalNodes>
            0 -1 407 2.4676315486431122e-002</internalNodes>
          <leafValues>
            8.4100067615509033e-002 -3.9067625999450684e-001</leafValues></_>
        <_>
          <internalNodes>
            0 -1 10 1.9505236297845840e-002</internalNodes>
          <leafValues>
            -2.2505620121955872e-001 1.1999002844095230e-001</leafValues></_>
        <_>
          <internalNodes>
            0 -1 102 6.9281287491321564e-002</internalNodes>
          <leafValues>
            -8.2021296024322510e-002 3.3556795120239258e-001</leafValues></_>
        <_>
          <internalNodes>
            0 -1 282 5.9607294388115406e-003</internalNodes>
          <leafValues>
            -2.3382650315761566e-001 1.1638963967561722e-001</leafValues></_>
        <_>
          <internalNodes>
            0 -1 257 6.2997866189107299e-004</internalNodes>
          <leafValues>
            4.1975182294845581e-001 -6.4210668206214905e-002</leafValues></_>
        <_>
          <internalNodes>
            0 -1 213 5.4137199185788631e-005</internalNodes>
          <leafValues>
            -6.0509943962097168e-001 5.0549659878015518e-002</leafValues></_>
        <_>
          <internalNodes>
            0 -1 4 7.5280829332768917e-004</internalNodes>
          <leafValues>
            2.1090771257877350e-001 -1.5141266584396362e-001</leafValues></_>
        <_>
          <internalNodes>
            0 -1 402 4.4474683701992035e-002</internalNodes>
          <leafValues>
            -1.1409393697977066e-001 2.6692333817481995e-001</leafValues></_>
        <_>
          <internalNodes>
            0 -1 305 6.7229956388473511e-002</internalNodes>
          <leafValues>
            -6.5234102308750153e-002 3.5686302185058594e-001</leafValues></_>
        <_>
          <internalNodes>
            0 -1 185 7.7974088490009308e-003</internalNodes>
          <leafValues>
            1.8506871163845062e-001 -1.1951296776533127e-001</leafValues></_>
        <_>
          <internalNodes>
            0 -1 302 2.3103497922420502e-002</internalNodes>
          <leafValues>
            -1.4864698052406311e-001 1.8530799448490143e-001</leafValues></_>
        <_>
          <internalNodes>
            0 -1 339 6.2326624989509583e-002</internalNodes>
          <leafValues>
            -1.4013555645942688e-001 1.6697981953620911e-001</leafValues></_>
        <_>
          <internalNodes>
            0 -1 304 1.3197728991508484e-001</internalNodes>
          <leafValues>
            4.1468601673841476e-002 -5.4739809036254883e-001</leafValues></_>
        <_>
          <internalNodes>
            0 -1 227 4.9359793774783611e-004</internalNodes>
          <leafValues>
            4.1581627726554871e-001 -5.9063404798507690e-002</leafValues></_>
        <_>
          <internalNodes>
            0 -1 21 1.2592804431915283e-001</internalNodes>
          <leafValues>
            3.0504519119858742e-002 -8.3193975687026978e-001</leafValues></_>
        <_>
          <internalNodes>
            0 -1 331 2.8570222202688456e-003</internalNodes>
          <leafValues>
            -5.6434541940689087e-001 2.4840978905558586e-002</leafValues></_>
        <_>
          <internalNodes>
            0 -1 1 6.4930349588394165e-002</internalNodes>
          <leafValues>
            2.4684861302375793e-002 -6.6745334863662720e-001</leafValues></_>
        <_>
          <internalNodes>
            0 -1 74 2.2619876835960895e-004</internalNodes>
          <leafValues>
            4.4567483663558960e-001 -4.4917006045579910e-002</leafValues></_>
        <_>
          <internalNodes>
            0 -1 363 1.3683274388313293e-002</internalNodes>
          <leafValues>
            -1.8895499408245087e-001 1.0431922972202301e-001</leafValues></_>
        <_>
          <internalNodes>
            0 -1 26 1.1642850935459137e-002</internalNodes>
          <leafValues>
            1.1582698673009872e-001 -2.0720753073692322e-001</leafValues></_>
        <_>
          <internalNodes>
            0 -1 205 5.3450908511877060e-002</internalNodes>
          <leafValues>
            -5.1833070814609528e-002 3.7876993417739868e-001</leafValues></_>
        <_>
          <internalNodes>
            0 -1 380 2.2635618224740028e-003</internalNodes>
          <leafValues>
            -6.3729000091552734e-001 3.0664945021271706e-002</leafValues></_>
        <_>
          <internalNodes>
            0 -1 251 7.6643296051770449e-004</internalNodes>
          <leafValues>
            3.9678516983985901e-001 -5.3000498563051224e-002</leafValues></_>
        <_>
          <internalNodes>
            0 -1 391 2.7838822454214096e-002</internalNodes>
          <leafValues>
            -1.4610870182514191e-001 1.4019614458084106e-001</leafValues></_>
        <_>
          <internalNodes>
            0 -1 297 1.6101416945457458e-001</internalNodes>
          <leafValues>
            2.8436873108148575e-002 -6.6538041830062866e-001</leafValues></_>
        <_>
          <internalNodes>
            0 -1 38 3.5187770845368505e-004</internalNodes>
          <leafValues>
            4.7824463248252869e-001 -4.0354847908020020e-002</leafValues></_>
        <_>
          <internalNodes>
            0 -1 335 7.5506404042243958e-002</internalNodes>
          <leafValues>
            1.9882908090949059e-002 -8.3055317401885986e-001</leafValues></_>
        <_>
          <internalNodes>
            0 -1 337 3.9222287014126778e-003</internalNodes>
          <leafValues>
            -2.7551212906837463e-001 5.7929717004299164e-002</leafValues></_>
        <_>
          <internalNodes>
            0 -1 110 6.2128668650984764e-004</internalNodes>
          <leafValues>
            2.6569983363151550e-001 -6.1045825481414795e-002</leafValues></_>
        <_>
          <internalNodes>
            0 -1 245 1.9914408028125763e-001</internalNodes>
          <leafValues>
            2.3675154894590378e-002 -6.0264617204666138e-001</leafValues></_>
        <_>
          <internalNodes>
            0 -1 211 6.9754198193550110e-004</internalNodes>
          <leafValues>
            3.1222966313362122e-001 -5.3853407502174377e-002</leafValues></_>
        <_>
          <internalNodes>
            0 -1 195 3.0546311754733324e-003</internalNodes>
          <leafValues>
            -3.7941318750381470e-001 4.1514523327350616e-002</leafValues></_>
        <_>
          <internalNodes>
            0 -1 288 5.0596974324434996e-004</internalNodes>
          <leafValues>
            4.1362303495407104e-001 -4.0051072835922241e-002</leafValues></_>
        <_>
          <internalNodes>
            0 -1 198 1.6182880848646164e-002</internalNodes>
          <leafValues>
            -1.1663369834423065e-001 1.2667806446552277e-001</leafValues></_>
        <_>
          <internalNodes>
            0 -1 140 1.9280774518847466e-002</internalNodes>
          <leafValues>
            9.6768252551555634e-002 -1.5264762938022614e-001</leafValues></_>
        <_>
          <internalNodes>
            0 -1 2 2.1883705630898476e-003</internalNodes>
          <leafValues>
            1.7387780547142029e-001 -9.0817637741565704e-002</leafValues></_>
        <_>
          <internalNodes>
            0 -1 153 4.5839659869670868e-002</internalNodes>
          <leafValues>
            -7.8295722603797913e-002 2.5022163987159729e-001</leafValues></_>
        <_>
          <internalNodes>
            0 -1 328 8.8329383288510144e-005</internalNodes>
          <leafValues>
            -7.6460677385330200e-001 2.2978821769356728e-002</leafValues></_>
        <_>
          <internalNodes>
            0 -1 160 4.8698124010115862e-004</internalNodes>
          <leafValues>
            2.2565215826034546e-001 -6.8156577646732330e-002</leafValues></_>
        <_>
          <internalNodes>
            0 -1 182 3.6245640367269516e-002</internalNodes>
          <leafValues>
            -7.0376791059970856e-002 2.8572025895118713e-001</leafValues></_>
        <_>
          <internalNodes>
            0 -1 307 4.8960853368043900e-002</internalNodes>
          <leafValues>
            2.5375960394740105e-002 -6.7925441265106201e-001</leafValues></_>
        <_>
          <internalNodes>
            0 -1 368 6.8722456693649292e-002</internalNodes>
          <leafValues>
            1.5253908000886440e-002 -6.9356358051300049e-001</leafValues></_>
        <_>
          <internalNodes>
            0 -1 243 1.5177016146481037e-002</internalNodes>
          <leafValues>
            8.1663817167282104e-002 -1.5826962888240814e-001</leafValues></_>
        <_>
          <internalNodes>
            0 -1 238 1.7735743522644043e-001</internalNodes>
          <leafValues>
            2.8406003490090370e-002 -4.5664769411087036e-001</leafValues></_>
        <_>
          <internalNodes>
            0 -1 319 1.5461595728993416e-002</internalNodes>
          <leafValues>
            8.1759676337242126e-002 -1.6678202152252197e-001</leafValues></_>
        <_>
          <internalNodes>
            0 -1 413 2.4964703246951103e-002</internalNodes>
          <leafValues>
            -8.6940206587314606e-002 1.7257268726825714e-001</leafValues></_>
        <_>
          <internalNodes>
            0 -1 153 2.4580753233749419e-005</internalNodes>
          <leafValues>
            -4.6116140484809875e-001 2.9126547276973724e-002</leafValues></_>
        <_>
          <internalNodes>
            0 -1 19 6.0382246971130371e-002</internalNodes>
          <leafValues>
            -6.8745575845241547e-002 2.1059325337409973e-001</leafValues></_>
        <_>
          <internalNodes>
            0 -1 41 3.2779516186565161e-004</internalNodes>
          <leafValues>
            3.2181307673454285e-001 -4.1419498622417450e-002</leafValues></_>
        <_>
          <internalNodes>
            0 -1 343 3.5113105695927516e-005</internalNodes>
          <leafValues>
            -8.3161872625350952e-001 1.9956920295953751e-002</leafValues></_>
        <_>
          <internalNodes>
            0 -1 141 3.8474902510643005e-002</internalNodes>
          <leafValues>
            -1.2938155233860016e-001 9.8540641367435455e-002</leafValues></_>
        <_>
          <internalNodes>
            0 -1 137 8.0750249326229095e-003</internalNodes>
          <leafValues>
            1.4309769868850708e-001 -9.3565374612808228e-002</leafValues></_>
        <_>
          <internalNodes>
            0 -1 285 1.1154310405254364e-001</internalNodes>
          <leafValues>
            5.1074702292680740e-002 -2.9211965203285217e-001</leafValues></_>
        <_>
          <internalNodes>
            0 -1 158 3.6545537412166595e-002</internalNodes>
          <leafValues>
            6.7875184118747711e-002 -1.8411113321781158e-001</leafValues></_>
        <_>
          <internalNodes>
            0 -1 397 4.5930020511150360e-002</internalNodes>
          <leafValues>
            -1.2799422442913055e-001 1.1197835206985474e-001</leafValues></_>
        <_>
          <internalNodes>
            0 -1 290 1.6318333148956299e-001</internalNodes>
          <leafValues>
            2.8767518699169159e-002 -5.0983929634094238e-001</leafValues></_>
        <_>
          <internalNodes>
            0 -1 151 3.5458009690046310e-002</internalNodes>
          <leafValues>
            -6.2516205012798309e-002 2.1986044943332672e-001</leafValues></_>
        <_>
          <internalNodes>
            0 -1 290 2.9076931532472372e-003</internalNodes>
          <leafValues>
            -4.6885836124420166e-001 2.6118995621800423e-002</leafValues></_>
        <_>
          <internalNodes>
            0 -1 29 2.4734059115871787e-004</internalNodes>
          <leafValues>
            2.2729104757308960e-001 -5.9634543955326080e-002</leafValues></_>
        <_>
          <internalNodes>
            0 -1 179 1.2573599815368652e-002</internalNodes>
          <leafValues>
            -2.1290037035942078e-001 8.6416147649288177e-002</leafValues></_>
        <_>
          <internalNodes>
            0 -1 309 5.5700227618217468e-002</internalNodes>
          <leafValues>
            -1.2061965465545654e-001 1.0255219787359238e-001</leafValues></_>
        <_>
          <internalNodes>
            0 -1 163 2.0050993561744690e-001</internalNodes>
          <leafValues>
            1.3868347741663456e-002 -7.8033554553985596e-001</leafValues></_>
        <_>
          <internalNodes>
            0 -1 221 8.8423520326614380e-002</internalNodes>
          <leafValues>
            -3.2352857291698456e-002 3.8546079397201538e-001</leafValues></_>
        <_>
          <internalNodes>
            0 -1 312 2.5089702103286982e-003</internalNodes>
          <leafValues>
            -2.6671767234802246e-001 4.5002948492765427e-002</leafValues></_>
        <_>
          <internalNodes>
            0 -1 123 1.1133325751870871e-003</internalNodes>
          <leafValues>
            3.4404063224792480e-001 -3.8489680737257004e-002</leafValues></_>
        <_>
          <internalNodes>
            0 -1 358 3.6274585872888565e-003</internalNodes>
          <leafValues>
            -3.2574149966239929e-001 3.9204400032758713e-002</leafValues></_>
        <_>
          <internalNodes>
            0 -1 236 6.4280792139470577e-004</internalNodes>
          <leafValues>
            2.8657984733581543e-001 -4.7754429280757904e-002</leafValues></_>
        <_>
          <internalNodes>
            0 -1 132 9.2985652387142181e-002</internalNodes>
          <leafValues>
            1.7628090456128120e-002 -6.3187384605407715e-001</leafValues></_>
        <_>
          <internalNodes>
            0 -1 23 2.8466423973441124e-002</internalNodes>
          <leafValues>
            -9.2322424054145813e-002 1.3850636780261993e-001</leafValues></_>
        <_>
          <internalNodes>
            0 -1 322 8.1671968102455139e-002</internalNodes>
          <leafValues>
            -2.5544885545969009e-002 4.8984903097152710e-001</leafValues></_>
        <_>
          <internalNodes>
            0 -1 300 2.9915807768702507e-002</internalNodes>
          <leafValues>
            -8.3001911640167236e-002 1.5567545592784882e-001</leafValues></_>
        <_>
          <internalNodes>
            0 -1 314 8.2243755459785461e-002</internalNodes>
          <leafValues>
            -7.8927487134933472e-002 1.9338141381740570e-001</leafValues></_>
        <_>
          <internalNodes>
            0 -1 412 7.9845063388347626e-002</internalNodes>
          <leafValues>
            1.6431162133812904e-002 -7.3802167177200317e-001</leafValues></_>
        <_>
          <internalNodes>
            0 -1 14 3.1756511889398098e-003</internalNodes>
          <leafValues>
            -3.9554870128631592e-001 2.7001563459634781e-002</leafValues></_>
        <_>
          <internalNodes>
            0 -1 216 5.9851095080375671e-002</internalNodes>
          <leafValues>
            -2.4673998355865479e-002 4.7800657153129578e-001</leafValues></_>
        <_>
          <internalNodes>
            0 -1 139 1.0787181556224823e-001</internalNodes>
          <leafValues>
            1.4456816948950291e-002 -8.9138102531433105e-001</leafValues></_>
        <_>
          <internalNodes>
            0 -1 7 4.2586587369441986e-004</internalNodes>
          <leafValues>
            3.5055306553840637e-001 -3.7013631314039230e-002</leafValues></_>
        <_>
          <internalNodes>
            0 -1 369 2.2693850100040436e-002</internalNodes>
          <leafValues>
            -6.8815201520919800e-002 1.6680501401424408e-001</leafValues></_>
        <_>
          <internalNodes>
            0 -1 186 7.1057491004467010e-003</internalNodes>
          <leafValues>
            1.5760768949985504e-001 -8.7942361831665039e-002</leafValues></_>
        <_>
          <internalNodes>
            0 -1 248 2.7117967605590820e-001</internalNodes>
          <leafValues>
            1.3170802034437656e-002 -8.4675252437591553e-001</leafValues></_>
        <_>
          <internalNodes>
            0 -1 209 2.0205430686473846e-002</internalNodes>
          <leafValues>
            8.2759521901607513e-002 -1.2980870902538300e-001</leafValues></_>
        <_>
          <internalNodes>
            0 -1 311 1.1148212477564812e-002</internalNodes>
          <leafValues>
            -2.0465627312660217e-001 7.7223248779773712e-002</leafValues></_>
        <_>
          <internalNodes>
            0 -1 260 7.3453516233712435e-004</internalNodes>
          <leafValues>
            2.2855289280414581e-001 -5.1506958901882172e-002</leafValues></_>
        <_>
          <internalNodes>
            0 -1 406 3.9279020711546764e-005</internalNodes>
          <leafValues>
            -4.1426998376846313e-001 2.6639064773917198e-002</leafValues></_>
        <_>
          <internalNodes>
            0 -1 405 4.6517733484506607e-002</internalNodes>
          <leafValues>
            3.1847693026065826e-002 -3.6918264627456665e-001</leafValues></_>
        <_>
          <internalNodes>
            0 -1 250 5.1732640713453293e-004</internalNodes>
          <leafValues>
            3.0197510123252869e-001 -3.7789933383464813e-002</leafValues></_>
        <_>
          <internalNodes>
            0 -1 94 8.1591352820396423e-002</internalNodes>
          <leafValues>
            -1.9512997940182686e-002 5.9367668628692627e-001</leafValues></_>
        <_>
          <internalNodes>
            0 -1 315 5.4887111764401197e-004</internalNodes>
          <leafValues>
            -6.0298603773117065e-001 1.9924981519579887e-002</leafValues></_></weakClassifiers></_>
    <!-- stage 16 -->
    <_>
      <maxWeakCount>100</maxWeakCount>
      <stageThreshold>-1.0775327682495117e-002</stageThreshold>
      <weakClassifiers>
        <_>
          <internalNodes>
            0 -1 259 5.8155297301709652e-003</internalNodes>
          <leafValues>
            9.6133226156234741e-001 8.7868219614028931e-001</leafValues></_>
        <_>
          <internalNodes>
            0 -1 4 3.7069834070280194e-004</internalNodes>
          <leafValues>
            8.0295449495315552e-001 4.5413926243782043e-001</leafValues></_>
        <_>
          <internalNodes>
            0 -1 183 1.2862950097769499e-003</internalNodes>
          <leafValues>
            5.3375923633575439e-001 -6.0542341321706772e-002</leafValues></_>
        <_>
          <internalNodes>
            0 -1 66 7.3295284528285265e-004</internalNodes>
          <leafValues>
            3.5365942120552063e-001 -1.6820827126502991e-001</leafValues></_>
        <_>
          <internalNodes>
            0 -1 151 1.2280718423426151e-002</internalNodes>
          <leafValues>
            -2.5238645076751709e-001 1.6730122268199921e-001</leafValues></_>
        <_>
          <internalNodes>
            0 -1 74 3.2936560455709696e-004</internalNodes>
          <leafValues>
            5.0821137428283691e-001 -7.7744737267494202e-002</leafValues></_>
        <_>
          <internalNodes>
            0 -1 370 1.2707166373729706e-002</internalNodes>
          <leafValues>
            -2.8873887658119202e-001 1.3979832828044891e-001</leafValues></_>
        <_>
          <internalNodes>
            0 -1 402 5.6265056133270264e-002</internalNodes>
          <leafValues>
            -9.2416055500507355e-002 4.1157135367393494e-001</leafValues></_>
        <_>
          <internalNodes>
            0 -1 27 4.6396520338021219e-004</internalNodes>
          <leafValues>
            3.2772290706634521e-001 -1.1250448226928711e-001</leafValues></_>
        <_>
          <internalNodes>
            0 -1 232 1.6458408907055855e-002</internalNodes>
          <leafValues>
            1.2166538089513779e-001 -3.0112114548683167e-001</leafValues></_>
        <_>
          <internalNodes>
            0 -1 159 5.4232368711382151e-004</internalNodes>
          <leafValues>
            3.1057497859001160e-001 -1.1256220191717148e-001</leafValues></_>
        <_>
          <internalNodes>
            0 -1 281 5.2702613174915314e-002</internalNodes>
          <leafValues>
            -9.5285549759864807e-002 3.5971823334693909e-001</leafValues></_>
        <_>
          <internalNodes>
            0 -1 366 8.9528083801269531e-002</internalNodes>
          <leafValues>
            7.6889783143997192e-002 -3.9323559403419495e-001</leafValues></_>
        <_>
          <internalNodes>
            0 -1 291 1.1573276715353131e-003</internalNodes>
          <leafValues>
            -6.4198178052902222e-001 4.3511863797903061e-002</leafValues></_>
        <_>
          <internalNodes>
            0 -1 3 4.1325832717120647e-004</internalNodes>
          <leafValues>
            1.9782090187072754e-001 -1.4675892889499664e-001</leafValues></_>
        <_>
          <internalNodes>
            0 -1 386 5.2472427487373352e-002</internalNodes>
          <leafValues>
            -7.8609488904476166e-002 3.5895171761512756e-001</leafValues></_>
        <_>
          <internalNodes>
            0 -1 282 2.3948862217366695e-003</internalNodes>
          <leafValues>
            -2.9139643907546997e-001 8.9255124330520630e-002</leafValues></_>
        <_>
          <internalNodes>
            0 -1 330 1.0240210220217705e-002</internalNodes>
          <leafValues>
            1.5044376254081726e-001 -1.9461196660995483e-001</leafValues></_>
        <_>
          <internalNodes>
            0 -1 10 3.9219781756401062e-002</internalNodes>
          <leafValues>
            -1.3238984346389771e-001 2.1158243715763092e-001</leafValues></_>
        <_>
          <internalNodes>
            0 -1 185 1.6382738947868347e-002</internalNodes>
          <leafValues>
            1.3971060514450073e-001 -1.9331538677215576e-001</leafValues></_>
        <_>
          <internalNodes>
            0 -1 372 1.2484854459762573e-001</internalNodes>
          <leafValues>
            4.0208000689744949e-002 -5.5443936586380005e-001</leafValues></_>
        <_>
          <internalNodes>
            0 -1 350 3.5979476524516940e-004</internalNodes>
          <leafValues>
            -7.0705461502075195e-001 3.0541414394974709e-002</leafValues></_>
        <_>
          <internalNodes>
            0 -1 77 3.8108363514766097e-004</internalNodes>
          <leafValues>
            3.6467245221138000e-001 -7.4329175055027008e-002</leafValues></_>
        <_>
          <internalNodes>
            0 -1 305 1.5793782658874989e-003</internalNodes>
          <leafValues>
            -6.0835367441177368e-001 3.9464917033910751e-002</leafValues></_>
        <_>
          <internalNodes>
            0 -1 233 5.3673301590606570e-004</internalNodes>
          <leafValues>
            3.4902143478393555e-001 -7.1394771337509155e-002</leafValues></_>
        <_>
          <internalNodes>
            0 -1 13 1.9838146865367889e-002</internalNodes>
          <leafValues>
            -1.7249299585819244e-001 1.3422358036041260e-001</leafValues></_>
        <_>
          <internalNodes>
            0 -1 301 8.8511388748884201e-003</internalNodes>
          <leafValues>
            -3.2670837640762329e-001 5.7558733969926834e-002</leafValues></_>
        <_>
          <internalNodes>
            0 -1 223 2.3572952486574650e-003</internalNodes>
          <leafValues>
            2.9095396399497986e-001 -8.5704796016216278e-002</leafValues></_>
        <_>
          <internalNodes>
            0 -1 389 6.7062377929687500e-002</internalNodes>
          <leafValues>
            3.4517575055360794e-002 -5.5926197767257690e-001</leafValues></_>
        <_>
          <internalNodes>
            0 -1 4 4.6777445822954178e-003</internalNodes>
          <leafValues>
            1.3068363070487976e-001 -1.4783810079097748e-001</leafValues></_>
        <_>
          <internalNodes>
            0 -1 420 5.8487728238105774e-002</internalNodes>
          <leafValues>
            2.6787061244249344e-002 -7.1492916345596313e-001</leafValues></_>
        <_>
          <internalNodes>
            0 -1 387 2.3079249262809753e-001</internalNodes>
          <leafValues>
            1.7559083178639412e-002 -8.6647957563400269e-001</leafValues></_>
        <_>
          <internalNodes>
            0 -1 160 7.9566729255020618e-004</internalNodes>
          <leafValues>
            2.4078176915645599e-001 -8.3966836333274841e-002</leafValues></_>
        <_>
          <internalNodes>
            0 -1 9 2.2167481482028961e-002</internalNodes>
          <leafValues>
            -1.3726322352886200e-001 1.2614251673221588e-001</leafValues></_>
        <_>
          <internalNodes>
            0 -1 271 6.0248690715525299e-005</internalNodes>
          <leafValues>
            -5.5113327503204346e-001 3.1872119754552841e-002</leafValues></_>
        <_>
          <internalNodes>
            0 -1 180 3.1679190695285797e-002</internalNodes>
          <leafValues>
            -1.7166310548782349e-001 1.0198233276605606e-001</leafValues></_>
        <_>
          <internalNodes>
            0 -1 6 1.2653739750385284e-001</internalNodes>
          <leafValues>
            3.7605952471494675e-002 -4.8229965567588806e-001</leafValues></_>
        <_>
          <internalNodes>
            0 -1 80 3.7894892739132047e-004</internalNodes>
          <leafValues>
            3.2164943218231201e-001 -6.1363287270069122e-002</leafValues></_>
        <_>
          <internalNodes>
            0 -1 308 9.0797129087150097e-004</internalNodes>
          <leafValues>
            -6.9752383232116699e-001 2.6518918573856354e-002</leafValues></_>
        <_>
          <internalNodes>
            0 -1 404 2.8390534222126007e-002</internalNodes>
          <leafValues>
            -1.2874262034893036e-001 1.2221094220876694e-001</leafValues></_>
        <_>
          <internalNodes>
            0 -1 91 8.4559351205825806e-002</internalNodes>
          <leafValues>
            -3.2527554780244827e-002 5.1172977685928345e-001</leafValues></_>
        <_>
          <internalNodes>
            0 -1 283 1.1253163218498230e-002</internalNodes>
          <leafValues>
            -1.5426740050315857e-001 9.8249547183513641e-002</leafValues></_>
        <_>
          <internalNodes>
            0 -1 137 4.6664991532452404e-004</internalNodes>
          <leafValues>
            3.3670181035995483e-001 -4.8989720642566681e-002</leafValues></_>
        <_>
          <internalNodes>
            0 -1 272 1.4643535017967224e-002</internalNodes>
          <leafValues>
            1.1272167414426804e-001 -1.3699671626091003e-001</leafValues></_>
        <_>
          <internalNodes>
            0 -1 2 4.2309621348977089e-003</internalNodes>
          <leafValues>
            1.3604322075843811e-001 -9.9887415766716003e-002</leafValues></_>
        <_>
          <internalNodes>
            0 -1 154 2.1242251619696617e-002</internalNodes>
          <leafValues>
            -8.9819259941577911e-002 1.8844805657863617e-001</leafValues></_>
        <_>
          <internalNodes>
            0 -1 239 2.1532326354645193e-004</internalNodes>
          <leafValues>
            -4.8873427510261536e-001 3.1292695552110672e-002</leafValues></_>
        <_>
          <internalNodes>
            0 -1 258 1.0270907077938318e-003</internalNodes>
          <leafValues>
            2.6003402471542358e-001 -6.5283581614494324e-002</leafValues></_>
        <_>
          <internalNodes>
            0 -1 427 4.6287085860967636e-003</internalNodes>
          <leafValues>
            -2.2424429655075073e-001 7.4457123875617981e-002</leafValues></_>
        <_>
          <internalNodes>
            0 -1 330 2.4643709883093834e-002</internalNodes>
          <leafValues>
            5.1038853824138641e-002 -2.7765163779258728e-001</leafValues></_>
        <_>
          <internalNodes>
            0 -1 117 1.1461537331342697e-002</internalNodes>
          <leafValues>
            2.2275578975677490e-001 -7.0038281381130219e-002</leafValues></_>
        <_>
          <internalNodes>
            0 -1 313 6.5302297472953796e-002</internalNodes>
          <leafValues>
            2.3361226543784142e-002 -6.1643940210342407e-001</leafValues></_>
        <_>
          <internalNodes>
            0 -1 313 7.7881519682705402e-003</internalNodes>
          <leafValues>
            -1.9744031131267548e-001 7.7753856778144836e-002</leafValues></_>
        <_>
          <internalNodes>
            0 -1 134 9.0782366693019867e-002</internalNodes>
          <leafValues>
            -3.3990908414125443e-002 3.8365167379379272e-001</leafValues></_>
        <_>
          <internalNodes>
            0 -1 309 4.5671790838241577e-002</internalNodes>
          <leafValues>
            -1.6147668659687042e-001 9.0844750404357910e-002</leafValues></_>
        <_>
          <internalNodes>
            0 -1 70 1.9002197682857513e-001</internalNodes>
          <leafValues>
            2.3766608908772469e-002 -5.5512672662734985e-001</leafValues></_>
        <_>
          <internalNodes>
            0 -1 25 6.1942636966705322e-003</internalNodes>
          <leafValues>
            1.3777628540992737e-001 -1.1327449232339859e-001</leafValues></_>
        <_>
          <internalNodes>
            0 -1 362 2.1194417029619217e-002</internalNodes>
          <leafValues>
            -1.1948578059673309e-001 1.4203152060508728e-001</leafValues></_>
        <_>
          <internalNodes>
            0 -1 223 1.3918627053499222e-002</internalNodes>
          <leafValues>
            1.1231476068496704e-001 -1.4524880051612854e-001</leafValues></_>
        <_>
          <internalNodes>
            0 -1 224 4.4209983199834824e-002</internalNodes>
          <leafValues>
            -4.6348899602890015e-002 3.0454936623573303e-001</leafValues></_>
        <_>
          <internalNodes>
            0 -1 329 4.1904054582118988e-002</internalNodes>
          <leafValues>
            2.4597721174359322e-002 -5.7005268335342407e-001</leafValues></_>
        <_>
          <internalNodes>
            0 -1 65 3.8988597225397825e-004</internalNodes>
          <leafValues>
            3.0888789892196655e-001 -4.5043203979730606e-002</leafValues></_>
        <_>
          <internalNodes>
            0 -1 374 5.0982693210244179e-003</internalNodes>
          <leafValues>
            -3.1214573979377747e-001 5.3944416344165802e-002</leafValues></_>
        <_>
          <internalNodes>
            0 -1 246 6.1009172350168228e-004</internalNodes>
          <leafValues>
            3.5173687338829041e-001 -3.7409625947475433e-002</leafValues></_>
        <_>
          <internalNodes>
            0 -1 226 2.3433561436831951e-003</internalNodes>
          <leafValues>
            -6.7313718795776367e-001 2.0531019195914268e-002</leafValues></_>
        <_>
          <internalNodes>
            0 -1 284 1.8529064953327179e-002</internalNodes>
          <leafValues>
            -8.6825579404830933e-002 1.5013717114925385e-001</leafValues></_>
        <_>
          <internalNodes>
            0 -1 427 2.2369924932718277e-002</internalNodes>
          <leafValues>
            6.3068591058254242e-002 -1.9980940222740173e-001</leafValues></_>
        <_>
          <internalNodes>
            0 -1 3 2.0623525604605675e-002</internalNodes>
          <leafValues>
            5.0798874348402023e-002 -2.5137180089950562e-001</leafValues></_>
        <_>
          <internalNodes>
            0 -1 29 2.2995408624410629e-002</internalNodes>
          <leafValues>
            -6.6636629402637482e-002 2.2099493443965912e-001</leafValues></_>
        <_>
          <internalNodes>
            0 -1 159 1.2736424803733826e-002</internalNodes>
          <leafValues>
            1.1097650229930878e-001 -1.1293315142393112e-001</leafValues></_>
        <_>
          <internalNodes>
            0 -1 7 5.5491946637630463e-002</internalNodes>
          <leafValues>
            -5.3602680563926697e-002 3.0578458309173584e-001</leafValues></_>
        <_>
          <internalNodes>
            0 -1 293 7.8451976180076599e-002</internalNodes>
          <leafValues>
            1.4357037842273712e-002 -9.4038653373718262e-001</leafValues></_>
        <_>
          <internalNodes>
            0 -1 409 4.6558573376387358e-004</internalNodes>
          <leafValues>
            -7.0296776294708252e-001 1.3367798179388046e-002</leafValues></_>
        <_>
          <internalNodes>
            0 -1 268 1.8807267770171165e-003</internalNodes>
          <leafValues>
            2.4882492423057556e-001 -5.8923445641994476e-002</leafValues></_>
        <_>
          <internalNodes>
            0 -1 334 1.2223813682794571e-002</internalNodes>
          <leafValues>
            -1.6114173829555511e-001 7.5161658227443695e-002</leafValues></_>
        <_>
          <internalNodes>
            0 -1 302 4.0160670876502991e-002</internalNodes>
          <leafValues>
            -5.0602074712514877e-002 2.5433880090713501e-001</leafValues></_>
        <_>
          <internalNodes>
            0 -1 36 4.8294826410710812e-004</internalNodes>
          <leafValues>
            4.2898741364479065e-001 -2.9979672282934189e-002</leafValues></_>
        <_>
          <internalNodes>
            0 -1 157 1.6822302341461182e-001</internalNodes>
          <leafValues>
            1.6986088827252388e-002 -7.1990448236465454e-001</leafValues></_>
        <_>
          <internalNodes>
            0 -1 209 4.4100964441895485e-004</internalNodes>
          <leafValues>
            3.2743877172470093e-001 -3.7938650697469711e-002</leafValues></_>
        <_>
          <internalNodes>
            0 -1 393 1.8835614901036024e-003</internalNodes>
          <leafValues>
            -3.0074808001518250e-001 4.1755557060241699e-002</leafValues></_>
        <_>
          <internalNodes>
            0 -1 31 6.1272062361240387e-002</internalNodes>
          <leafValues>
            -7.0957921445369720e-002 1.7300267517566681e-001</leafValues></_>
        <_>
          <internalNodes>
            0 -1 341 4.3913647532463074e-003</internalNodes>
          <leafValues>
            -1.5543827414512634e-001 7.8728958964347839e-002</leafValues></_>
        <_>
          <internalNodes>
            0 -1 2 4.3021060992032290e-004</internalNodes>
          <leafValues>
            2.2745668888092041e-001 -6.2948770821094513e-002</leafValues></_>
        <_>
          <internalNodes>
            0 -1 187 1.1104641482234001e-002</internalNodes>
          <leafValues>
            1.2868507206439972e-001 -9.0844631195068359e-002</leafValues></_>
        <_>
          <internalNodes>
            0 -1 188 6.5876847656909376e-005</internalNodes>
          <leafValues>
            -4.6404793858528137e-001 2.6387181133031845e-002</leafValues></_>
        <_>
          <internalNodes>
            0 -1 249 6.8388052750378847e-004</internalNodes>
          <leafValues>
            3.1440880894660950e-001 -3.6513172090053558e-002</leafValues></_>
        <_>
          <internalNodes>
            0 -1 381 2.0614652385120280e-005</internalNodes>
          <leafValues>
            -7.2259646654129028e-001 1.9180694594979286e-002</leafValues></_>
        <_>
          <internalNodes>
            0 -1 144 3.2270159572362900e-002</internalNodes>
          <leafValues>
            -5.3929049521684647e-002 2.2056682407855988e-001</leafValues></_>
        <_>
          <internalNodes>
            0 -1 345 6.6083937883377075e-002</internalNodes>
          <leafValues>
            -4.5471031218767166e-002 2.3371997475624084e-001</leafValues></_>
        <_>
          <internalNodes>
            0 -1 158 1.6197945922613144e-002</internalNodes>
          <leafValues>
            1.2602013349533081e-001 -1.0209009796380997e-001</leafValues></_>
        <_>
          <internalNodes>
            0 -1 326 8.6956262588500977e-002</internalNodes>
          <leafValues>
            1.7364678904414177e-002 -5.9552925825119019e-001</leafValues></_>
        <_>
          <internalNodes>
            0 -1 281 2.3694049566984177e-002</internalNodes>
          <leafValues>
            1.2242728471755981e-001 -9.7244545817375183e-002</leafValues></_>
        <_>
          <internalNodes>
            0 -1 430 1.3062940537929535e-001</internalNodes>
          <leafValues>
            3.6002364009618759e-002 -3.3574405312538147e-001</leafValues></_>
        <_>
          <internalNodes>
            0 -1 202 4.5803075772710145e-004</internalNodes>
          <leafValues>
            3.4656161069869995e-001 -3.6933459341526031e-002</leafValues></_>
        <_>
          <internalNodes>
            0 -1 300 1.5480673173442483e-003</internalNodes>
          <leafValues>
            -4.6469247341156006e-001 2.7229536324739456e-002</leafValues></_>
        <_>
          <internalNodes>
            0 -1 181 4.6417675912380219e-002</internalNodes>
          <leafValues>
            -6.8446867167949677e-002 1.9923110306262970e-001</leafValues></_>
        <_>
          <internalNodes>
            0 -1 270 7.2552338242530823e-002</internalNodes>
          <leafValues>
            -8.2083150744438171e-002 1.4057710766792297e-001</leafValues></_>
        <_>
          <internalNodes>
            0 -1 285 1.7405614256858826e-001</internalNodes>
          <leafValues>
            2.5329375639557838e-002 -4.8521891236305237e-001</leafValues></_>
        <_>
          <internalNodes>
            0 -1 245 5.2746653556823730e-002</internalNodes>
          <leafValues>
            -1.0323265194892883e-001 1.0871403664350510e-001</leafValues></_>
        <_>
          <internalNodes>
            0 -1 59 4.9645029008388519e-002</internalNodes>
          <leafValues>
            -3.3114977180957794e-002 3.5172641277313232e-001</leafValues></_></weakClassifiers></_>
    <!-- stage 17 -->
    <_>
      <maxWeakCount>100</maxWeakCount>
      <stageThreshold>-2.2501398343592882e-003</stageThreshold>
      <weakClassifiers>
        <_>
          <internalNodes>
            0 -1 4 2.0871418528258801e-003</internalNodes>
          <leafValues>
            9.6370726823806763e-001 8.6659979820251465e-001</leafValues></_>
        <_>
          <internalNodes>
            0 -1 28 7.4777123518288136e-004</internalNodes>
          <leafValues>
            8.2144463062286377e-001 4.3742662668228149e-001</leafValues></_>
        <_>
          <internalNodes>
            0 -1 110 1.0257349349558353e-003</internalNodes>
          <leafValues>
            5.7969921827316284e-001 -5.2930578589439392e-002</leafValues></_>
        <_>
          <internalNodes>
            0 -1 159 9.1160990996286273e-004</internalNodes>
          <leafValues>
            3.8942861557006836e-001 -1.5905728936195374e-001</leafValues></_>
        <_>
          <internalNodes>
            0 -1 259 1.5261077787727118e-003</internalNodes>
          <leafValues>
            3.2963919639587402e-001 -1.7485921084880829e-001</leafValues></_>
        <_>
          <internalNodes>
            0 -1 9 6.2743471935391426e-003</internalNodes>
          <leafValues>
            -3.8082537055015564e-001 1.0209880769252777e-001</leafValues></_>
        <_>
          <internalNodes>
            0 -1 333 5.5754534900188446e-002</internalNodes>
          <leafValues>
            -1.1749664694070816e-001 2.8129646182060242e-001</leafValues></_>
        <_>
          <internalNodes>
            0 -1 184 2.4134283885359764e-003</internalNodes>
          <leafValues>
            2.3832593858242035e-001 -1.2997210025787354e-001</leafValues></_>
        <_>
          <internalNodes>
            0 -1 315 2.9977867379784584e-003</internalNodes>
          <leafValues>
            -6.2973606586456299e-001 4.9337048083543777e-002</leafValues></_>
        <_>
          <internalNodes>
            0 -1 4 2.9719679150730371e-004</internalNodes>
          <leafValues>
            2.4284632503986359e-001 -1.5135848522186279e-001</leafValues></_>
        <_>
          <internalNodes>
            0 -1 12 1.9401494413614273e-002</internalNodes>
          <leafValues>
            -1.6830928623676300e-001 1.6775846481323242e-001</leafValues></_>
        <_>
          <internalNodes>
            0 -1 392 3.5559140087570995e-005</internalNodes>
          <leafValues>
            -8.2383453845977783e-001 3.2549493014812469e-002</leafValues></_>
        <_>
          <internalNodes>
            0 -1 191 1.3226017472334206e-004</internalNodes>
          <leafValues>
            4.9771705269813538e-001 -6.9800339639186859e-002</leafValues></_>
        <_>
          <internalNodes>
            0 -1 378 4.5667447149753571e-002</internalNodes>
          <leafValues>
            -1.1410266906023026e-001 2.4620439112186432e-001</leafValues></_>
        <_>
          <internalNodes>
            0 -1 21 9.3762904405593872e-002</internalNodes>
          <leafValues>
            4.3570708483457565e-002 -6.0820096731185913e-001</leafValues></_>
        <_>
          <internalNodes>
            0 -1 301 2.1144151687622070e-002</internalNodes>
          <leafValues>
            -1.9990970194339752e-001 1.2401465326547623e-001</leafValues></_>
        <_>
          <internalNodes>
            0 -1 27 9.6809153910726309e-004</internalNodes>
          <leafValues>
            2.4538464844226837e-001 -1.0209338366985321e-001</leafValues></_>
        <_>
          <internalNodes>
            0 -1 292 2.0678089931607246e-003</internalNodes>
          <leafValues>
            -4.2389014363288879e-001 5.7649452239274979e-002</leafValues></_>
        <_>
          <internalNodes>
            0 -1 282 5.1727560348808765e-003</internalNodes>
          <leafValues>
            -2.2294463217258453e-001 9.4369724392890930e-002</leafValues></_>
        <_>
          <internalNodes>
            0 -1 119 6.5119811333715916e-003</internalNodes>
          <leafValues>
            1.7033299803733826e-001 -1.3902656733989716e-001</leafValues></_>
        <_>
          <internalNodes>
            0 -1 160 3.2918043434619904e-003</internalNodes>
          <leafValues>
            1.8140517175197601e-001 -1.1827188730239868e-001</leafValues></_>
        <_>
          <internalNodes>
            0 -1 3 3.5493576433509588e-004</internalNodes>
          <leafValues>
            1.7846497893333435e-001 -1.1330689489841461e-001</leafValues></_>
        <_>
          <internalNodes>
            0 -1 354 1.6339848516508937e-003</internalNodes>
          <leafValues>
            -6.5009373426437378e-001 3.3287238329648972e-002</leafValues></_>
        <_>
          <internalNodes>
            0 -1 153 2.5200657546520233e-002</internalNodes>
          <leafValues>
            -1.3541768491268158e-001 1.6136685013771057e-001</leafValues></_>
        <_>
          <internalNodes>
            0 -1 319 3.4928448498249054e-002</internalNodes>
          <leafValues>
            4.1751787066459656e-002 -4.7348746657371521e-001</leafValues></_>
        <_>
          <internalNodes>
            0 -1 90 3.2620551064610481e-004</internalNodes>
          <leafValues>
            2.9286819696426392e-001 -6.1059907078742981e-002</leafValues></_>
        <_>
          <internalNodes>
            0 -1 308 3.2367854146286845e-005</internalNodes>
          <leafValues>
            -9.0220433473587036e-001 2.2285962477326393e-002</leafValues></_>
        <_>
          <internalNodes>
            0 -1 7 4.9810443073511124e-002</internalNodes>
          <leafValues>
            -6.4658701419830322e-002 2.7031764388084412e-001</leafValues></_>
        <_>
          <internalNodes>
            0 -1 179 9.3024112284183502e-003</internalNodes>
          <leafValues>
            -2.2909003496170044e-001 7.3236338794231415e-002</leafValues></_>
        <_>
          <internalNodes>
            0 -1 94 2.4513949756510556e-004</internalNodes>
          <leafValues>
            3.4510022401809692e-001 -4.4770162552595139e-002</leafValues></_>
        <_>
          <internalNodes>
            0 -1 418 1.0278142290189862e-003</internalNodes>
          <leafValues>
            -6.8788957595825195e-001 2.6513596996665001e-002</leafValues></_>
        <_>
          <internalNodes>
            0 -1 125 7.9054877161979675e-002</internalNodes>
          <leafValues>
            -4.8849105834960938e-002 3.6802160739898682e-001</leafValues></_>
        <_>
          <internalNodes>
            0 -1 275 1.1543840169906616e-001</internalNodes>
          <leafValues>
            -3.2753534615039825e-002 4.5814481377601624e-001</leafValues></_>
        <_>
          <internalNodes>
            0 -1 23 2.9662474989891052e-002</internalNodes>
          <leafValues>
            -1.0376317054033279e-001 1.6984134912490845e-001</leafValues></_>
        <_>
          <internalNodes>
            0 -1 224 8.4669067291542888e-004</internalNodes>
          <leafValues>
            3.2233676314353943e-001 -5.0758425146341324e-002</leafValues></_>
        <_>
          <internalNodes>
            0 -1 308 9.0212225914001465e-003</internalNodes>
          <leafValues>
            -3.0430424213409424e-001 5.4435662925243378e-002</leafValues></_>
        <_>
          <internalNodes>
            0 -1 362 2.3926809430122375e-002</internalNodes>
          <leafValues>
            -1.0175485163927078e-001 1.4182956516742706e-001</leafValues></_>
        <_>
          <internalNodes>
            0 -1 175 4.0648350841365755e-004</internalNodes>
          <leafValues>
            4.5154607295989990e-001 -3.8204949349164963e-002</leafValues></_>
        <_>
          <internalNodes>
            0 -1 380 4.7642824938520789e-004</internalNodes>
          <leafValues>
            -7.7105844020843506e-001 2.3406542837619781e-002</leafValues></_>
        <_>
          <internalNodes>
            0 -1 42 3.9189466042444110e-004</internalNodes>
          <leafValues>
            2.3911890387535095e-001 -6.5639123320579529e-002</leafValues></_>
        <_>
          <internalNodes>
            0 -1 190 9.0697091072797775e-003</internalNodes>
          <leafValues>
            -1.5493394434452057e-001 1.1348665505647659e-001</leafValues></_>
        <_>
          <internalNodes>
            0 -1 75 7.7102288603782654e-002</internalNodes>
          <leafValues>
            -3.8798701018095016e-002 3.6167436838150024e-001</leafValues></_>
        <_>
          <internalNodes>
            0 -1 251 3.8276967825368047e-004</internalNodes>
          <leafValues>
            3.5391101241111755e-001 -4.1841570287942886e-002</leafValues></_>
        <_>
          <internalNodes>
            0 -1 157 1.5268412232398987e-001</internalNodes>
          <leafValues>
            2.3000050336122513e-002 -6.9799470901489258e-001</leafValues></_>
        <_>
          <internalNodes>
            0 -1 265 2.7441509068012238e-002</internalNodes>
          <leafValues>
            -5.5120378732681274e-002 2.6991716027259827e-001</leafValues></_>
        <_>
          <internalNodes>
            0 -1 157 2.4385266442550346e-005</internalNodes>
          <leafValues>
            -7.6098716259002686e-001 2.0076336339116096e-002</leafValues></_>
        <_>
          <internalNodes>
            0 -1 36 1.7785746604204178e-003</internalNodes>
          <leafValues>
            3.4741580486297607e-001 -4.9535881727933884e-002</leafValues></_>
        <_>
          <internalNodes>
            0 -1 118 1.6303046140819788e-003</internalNodes>
          <leafValues>
            2.6894709467887878e-001 -5.3320236504077911e-002</leafValues></_>
        <_>
          <internalNodes>
            0 -1 401 6.0727044939994812e-002</internalNodes>
          <leafValues>
            2.5182869285345078e-002 -6.2736976146697998e-001</leafValues></_>
        <_>
          <internalNodes>
            0 -1 352 4.4838577741757035e-004</internalNodes>
          <leafValues>
            -3.4087291359901428e-001 4.0978956967592239e-002</leafValues></_>
        <_>
          <internalNodes>
            0 -1 9 3.8687672466039658e-002</internalNodes>
          <leafValues>
            -7.7335298061370850e-002 1.8768499791622162e-001</leafValues></_>
        <_>
          <internalNodes>
            0 -1 161 7.4577808380126953e-002</internalNodes>
          <leafValues>
            2.4327237159013748e-002 -5.7752466201782227e-001</leafValues></_>
        <_>
          <internalNodes>
            0 -1 270 6.4917832612991333e-002</internalNodes>
          <leafValues>
            -1.0247457027435303e-001 1.3758508861064911e-001</leafValues></_>
        <_>
          <internalNodes>
            0 -1 2 1.0164313716813922e-003</internalNodes>
          <leafValues>
            1.8470142781734467e-001 -7.3885425925254822e-002</leafValues></_>
        <_>
          <internalNodes>
            0 -1 372 1.9250971078872681e-001</internalNodes>
          <leafValues>
            1.4992901124060154e-002 -9.3372583389282227e-001</leafValues></_>
        <_>
          <internalNodes>
            0 -1 410 4.0941283106803894e-002</internalNodes>
          <leafValues>
            -1.6351236402988434e-001 8.5957296192646027e-002</leafValues></_>
        <_>
          <internalNodes>
            0 -1 358 3.2936027273535728e-003</internalNodes>
          <leafValues>
            -3.5989141464233398e-001 4.4144805520772934e-002</leafValues></_>
        <_>
          <internalNodes>
            0 -1 123 1.1949220206588507e-003</internalNodes>
          <leafValues>
            3.6762326955795288e-001 -4.7185074537992477e-002</leafValues></_>
        <_>
          <internalNodes>
            0 -1 304 8.7964102625846863e-002</internalNodes>
          <leafValues>
            5.5543091148138046e-002 -2.3521237075328827e-001</leafValues></_>
        <_>
          <internalNodes>
            0 -1 43 1.1559358099475503e-003</internalNodes>
          <leafValues>
            2.1696735918521881e-001 -6.4141780138015747e-002</leafValues></_>
        <_>
          <internalNodes>
            0 -1 151 8.9950472116470337e-002</internalNodes>
          <leafValues>
            1.9317062571644783e-002 -6.2398058176040649e-001</leafValues></_>
        <_>
          <internalNodes>
            0 -1 343 3.6619352613342926e-005</internalNodes>
          <leafValues>
            -7.7399408817291260e-001 1.3552280142903328e-002</leafValues></_>
        <_>
          <internalNodes>
            0 -1 212 1.4925745315849781e-002</internalNodes>
          <leafValues>
            1.0685873031616211e-001 -1.1977054178714752e-001</leafValues></_>
        <_>
          <internalNodes>
            0 -1 56 2.5884915143251419e-002</internalNodes>
          <leafValues>
            -8.9422740042209625e-002 1.7400081455707550e-001</leafValues></_>
        <_>
          <internalNodes>
            0 -1 185 6.2776892445981503e-003</internalNodes>
          <leafValues>
            1.6905477643013000e-001 -8.6809664964675903e-002</leafValues></_>
        <_>
          <internalNodes>
            0 -1 297 1.7167052626609802e-001</internalNodes>
          <leafValues>
            1.5895236283540726e-002 -7.3406618833541870e-001</leafValues></_>
        <_>
          <internalNodes>
            0 -1 245 2.1299748122692108e-001</internalNodes>
          <leafValues>
            1.7454925924539566e-002 -5.5622363090515137e-001</leafValues></_>
        <_>
          <internalNodes>
            0 -1 344 4.1010502725839615e-002</internalNodes>
          <leafValues>
            -1.4540952444076538e-001 7.8663282096385956e-002</leafValues></_>
        <_>
          <internalNodes>
            0 -1 345 6.1874113976955414e-002</internalNodes>
          <leafValues>
            -5.5689949542284012e-002 2.1747367084026337e-001</leafValues></_>
        <_>
          <internalNodes>
            0 -1 194 7.1977451443672180e-002</internalNodes>
          <leafValues>
            -2.4783115833997726e-002 4.7507947683334351e-001</leafValues></_>
        <_>
          <internalNodes>
            0 -1 143 3.1211571767926216e-002</internalNodes>
          <leafValues>
            -6.5753243863582611e-002 1.7986486852169037e-001</leafValues></_>
        <_>
          <internalNodes>
            0 -1 158 2.9732396826148033e-002</internalNodes>
          <leafValues>
            7.5585715472698212e-002 -1.4650015532970428e-001</leafValues></_>
        <_>
          <internalNodes>
            0 -1 26 2.4184675421565771e-003</internalNodes>
          <leafValues>
            1.5694877505302429e-001 -7.7320970594882965e-002</leafValues></_>
        <_>
          <internalNodes>
            0 -1 363 5.3766844794154167e-003</internalNodes>
          <leafValues>
            -2.8324466943740845e-001 4.2905557900667191e-002</leafValues></_>
        <_>
          <internalNodes>
            0 -1 132 1.1360055208206177e-001</internalNodes>
          <leafValues>
            1.6576375812292099e-002 -7.6561009883880615e-001</leafValues></_>
        <_>
          <internalNodes>
            0 -1 121 9.5617175102233887e-003</internalNodes>
          <leafValues>
            1.1988184601068497e-001 -1.0098561644554138e-001</leafValues></_>
        <_>
          <internalNodes>
            0 -1 163 6.9786852691322565e-005</internalNodes>
          <leafValues>
            -6.1951261758804321e-001 1.8520211800932884e-002</leafValues></_>
        <_>
          <internalNodes>
            0 -1 192 1.0658575594425201e-001</internalNodes>
          <leafValues>
            -1.9603902474045753e-002 6.0797715187072754e-001</leafValues></_>
        <_>
          <internalNodes>
            0 -1 5 2.4541364982724190e-003</internalNodes>
          <leafValues>
            1.6663181781768799e-001 -6.7322030663490295e-002</leafValues></_>
        <_>
          <internalNodes>
            0 -1 166 1.1890773475170135e-001</internalNodes>
          <leafValues>
            1.6239946708083153e-002 -6.5721386671066284e-001</leafValues></_>
        <_>
          <internalNodes>
            0 -1 307 4.9163181334733963e-002</internalNodes>
          <leafValues>
            1.3615855015814304e-002 -6.3471323251724243e-001</leafValues></_>
        <_>
          <internalNodes>
            0 -1 137 8.1676319241523743e-003</internalNodes>
          <leafValues>
            1.2833526730537415e-001 -8.8884718716144562e-002</leafValues></_>
        <_>
          <internalNodes>
            0 -1 347 9.0007886290550232e-002</internalNodes>
          <leafValues>
            1.4042157679796219e-002 -7.9243779182434082e-001</leafValues></_>
        <_>
          <internalNodes>
            0 -1 413 2.7863238006830215e-002</internalNodes>
          <leafValues>
            -7.3186889290809631e-002 1.7208220064640045e-001</leafValues></_>
        <_>
          <internalNodes>
            0 -1 223 9.0943835675716400e-004</internalNodes>
          <leafValues>
            2.3359113931655884e-001 -4.4987924396991730e-002</leafValues></_>
        <_>
          <internalNodes>
            0 -1 232 5.6847140513127670e-005</internalNodes>
          <leafValues>
            -3.4220597147941589e-001 3.3718772232532501e-002</leafValues></_>
        <_>
          <internalNodes>
            0 -1 141 2.9720636084675789e-002</internalNodes>
          <leafValues>
            -1.4330287277698517e-001 8.1687092781066895e-002</leafValues></_>
        <_>
          <internalNodes>
            0 -1 147 2.0451862365007401e-002</internalNodes>
          <leafValues>
            -8.2161173224449158e-002 1.6147926449775696e-001</leafValues></_>
        <_>
          <internalNodes>
            0 -1 288 1.5264721587300301e-002</internalNodes>
          <leafValues>
            1.0619656741619110e-001 -1.2227851897478104e-001</leafValues></_>
        <_>
          <internalNodes>
            0 -1 214 8.3830319344997406e-003</internalNodes>
          <leafValues>
            -3.8766893744468689e-001 2.7807569131255150e-002</leafValues></_>
        <_>
          <internalNodes>
            0 -1 230 7.8021665103733540e-004</internalNodes>
          <leafValues>
            2.7046459913253784e-001 -4.0028534829616547e-002</leafValues></_>
        <_>
          <internalNodes>
            0 -1 346 1.4673341065645218e-002</internalNodes>
          <leafValues>
            -1.6262656450271606e-001 7.4269808828830719e-002</leafValues></_>
        <_>
          <internalNodes>
            0 -1 313 5.9440061450004578e-002</internalNodes>
          <leafValues>
            2.4748871102929115e-002 -4.8316955566406250e-001</leafValues></_>
        <_>
          <internalNodes>
            0 -1 153 4.8174552619457245e-002</internalNodes>
          <leafValues>
            -5.8101031929254532e-002 1.9875936210155487e-001</leafValues></_>
        <_>
          <internalNodes>
            0 -1 1 5.6358329951763153e-002</internalNodes>
          <leafValues>
            2.5502949953079224e-002 -5.4182052612304688e-001</leafValues></_>
        <_>
          <internalNodes>
            0 -1 86 4.4464017264544964e-004</internalNodes>
          <leafValues>
            2.8605481982231140e-001 -4.3357715010643005e-002</leafValues></_>
        <_>
          <internalNodes>
            0 -1 358 9.5736859366297722e-003</internalNodes>
          <leafValues>
            -1.6036887466907501e-001 6.6111572086811066e-002</leafValues></_>
        <_>
          <internalNodes>
            0 -1 94 1.5544932335615158e-002</internalNodes>
          <leafValues>
            1.2046807259321213e-001 -9.7021475434303284e-002</leafValues></_>
        <_>
          <internalNodes>
            0 -1 411 1.7269633244723082e-003</internalNodes>
          <leafValues>
            -4.3535941839218140e-001 2.3357966914772987e-002</leafValues></_>
        <_>
          <internalNodes>
            0 -1 250 1.5728855505585670e-003</internalNodes>
          <leafValues>
            2.2741831839084625e-001 -4.6709463000297546e-002</leafValues></_></weakClassifiers></_>
    <!-- stage 18 -->
    <_>
      <maxWeakCount>100</maxWeakCount>
      <stageThreshold>-1.6767231747508049e-002</stageThreshold>
      <weakClassifiers>
        <_>
          <internalNodes>
            0 -1 4 1.1098827235400677e-003</internalNodes>
          <leafValues>
            9.6362179517745972e-001 8.7541103363037109e-001</leafValues></_>
        <_>
          <internalNodes>
            0 -1 111 5.4696417646482587e-004</internalNodes>
          <leafValues>
            8.4285068511962891e-001 4.9022370576858521e-001</leafValues></_>
        <_>
          <internalNodes>
            0 -1 74 2.2619876835960895e-004</internalNodes>
          <leafValues>
            7.3233741521835327e-001 8.8144429028034210e-003</leafValues></_>
        <_>
          <internalNodes>
            0 -1 159 6.6484673880040646e-004</internalNodes>
          <leafValues>
            4.0766343474388123e-001 -1.9168898463249207e-001</leafValues></_>
        <_>
          <internalNodes>
            0 -1 27 4.3010048102587461e-004</internalNodes>
          <leafValues>
            3.6671927571296692e-001 -1.3854524493217468e-001</leafValues></_>
        <_>
          <internalNodes>
            0 -1 151 1.8023116514086723e-002</internalNodes>
          <leafValues>
            -1.9572274386882782e-001 1.9180509448051453e-001</leafValues></_>
        <_>
          <internalNodes>
            0 -1 370 2.6714995503425598e-002</internalNodes>
          <leafValues>
            -1.3417714834213257e-001 2.4856978654861450e-001</leafValues></_>
        <_>
          <internalNodes>
            0 -1 259 3.9875847287476063e-003</internalNodes>
          <leafValues>
            2.4716055393218994e-001 -1.7089302837848663e-001</leafValues></_>
        <_>
          <internalNodes>
            0 -1 4 3.9118685526773334e-004</internalNodes>
          <leafValues>
            2.1311450004577637e-001 -1.4275982975959778e-001</leafValues></_>
        <_>
          <internalNodes>
            0 -1 62 8.6866253986954689e-003</internalNodes>
          <leafValues>
            -5.9359645843505859e-001 5.3891591727733612e-002</leafValues></_>
        <_>
          <internalNodes>
            0 -1 330 9.6913464367389679e-003</internalNodes>
          <leafValues>
            1.5529464185237885e-001 -2.0359504222869873e-001</leafValues></_>
        <_>
          <internalNodes>
            0 -1 282 2.2015739232301712e-003</internalNodes>
          <leafValues>
            -3.0438002943992615e-001 7.9935953021049500e-002</leafValues></_>
        <_>
          <internalNodes>
            0 -1 360 7.8555747866630554e-002</internalNodes>
          <leafValues>
            -4.5480690896511078e-002 5.5008924007415771e-001</leafValues></_>
        <_>
          <internalNodes>
            0 -1 141 2.3669287562370300e-002</internalNodes>
          <leafValues>
            -2.3438656330108643e-001 8.8959857821464539e-002</leafValues></_>
        <_>
          <internalNodes>
            0 -1 130 5.7165712118148804e-002</internalNodes>
          <leafValues>
            -1.0091686248779297e-001 2.1621297299861908e-001</leafValues></_>
        <_>
          <internalNodes>
            0 -1 179 3.2111197710037231e-002</internalNodes>
          <leafValues>
            -1.1437630653381348e-001 1.7523561418056488e-001</leafValues></_>
        <_>
          <internalNodes>
            0 -1 10 4.2815424501895905e-002</internalNodes>
          <leafValues>
            -1.0989382863044739e-001 2.1297289431095123e-001</leafValues></_>
        <_>
          <internalNodes>
            0 -1 185 2.0213060081005096e-002</internalNodes>
          <leafValues>
            1.1442691087722778e-001 -2.2722145915031433e-001</leafValues></_>
        <_>
          <internalNodes>
            0 -1 164 2.2776786237955093e-002</internalNodes>
          <leafValues>
            -1.2587468326091766e-001 1.9349822402000427e-001</leafValues></_>
        <_>
          <internalNodes>
            0 -1 66 2.4474032688885927e-003</internalNodes>
          <leafValues>
            2.3813329637050629e-001 -1.0387972742319107e-001</leafValues></_>
        <_>
          <internalNodes>
            0 -1 370 8.3600357174873352e-003</internalNodes>
          <leafValues>
            -2.6525294780731201e-001 7.5205393135547638e-002</leafValues></_>
        <_>
          <internalNodes>
            0 -1 127 8.3268841262906790e-004</internalNodes>
          <leafValues>
            3.0248969793319702e-001 -6.1657540500164032e-002</leafValues></_>
        <_>
          <internalNodes>
            0 -1 308 9.0547377476468682e-004</internalNodes>
          <leafValues>
            -7.1898901462554932e-001 2.7676943689584732e-002</leafValues></_>
        <_>
          <internalNodes>
            0 -1 3 3.3724692184478045e-004</internalNodes>
          <leafValues>
            1.6239239275455475e-001 -1.1556556820869446e-001</leafValues></_>
        <_>
          <internalNodes>
            0 -1 363 9.6423849463462830e-003</internalNodes>
          <leafValues>
            -2.4200384318828583e-001 7.6547518372535706e-002</leafValues></_>
        <_>
          <internalNodes>
            0 -1 204 3.3478386467322707e-004</internalNodes>
          <leafValues>
            3.9331501722335815e-001 -5.5095259100198746e-002</leafValues></_>
        <_>
          <internalNodes>
            0 -1 380 2.2206670837476850e-004</internalNodes>
          <leafValues>
            -8.1766688823699951e-001 1.9870167598128319e-002</leafValues></_>
        <_>
          <internalNodes>
            0 -1 427 2.3413240909576416e-002</internalNodes>
          <leafValues>
            6.2568299472332001e-002 -2.6951685547828674e-001</leafValues></_>
        <_>
          <internalNodes>
            0 -1 410 2.0178630948066711e-001</internalNodes>
          <leafValues>
            2.2748967632651329e-002 -7.1250325441360474e-001</leafValues></_>
        <_>
          <internalNodes>
            0 -1 133 2.1935309632681310e-004</internalNodes>
          <leafValues>
            4.3347260355949402e-001 -4.4901799410581589e-002</leafValues></_>
        <_>
          <internalNodes>
            0 -1 92 1.9313880801200867e-001</internalNodes>
          <leafValues>
            3.3794868737459183e-002 -5.2452778816223145e-001</leafValues></_>
        <_>
          <internalNodes>
            0 -1 59 8.2929519703611732e-004</internalNodes>
          <leafValues>
            2.9247686266899109e-001 -6.2763534486293793e-002</leafValues></_>
        <_>
          <internalNodes>
            0 -1 376 4.5140879228711128e-003</internalNodes>
          <leafValues>
            -2.2007802128791809e-001 7.1428976953029633e-002</leafValues></_>
        <_>
          <internalNodes>
            0 -1 195 8.8992610573768616e-002</internalNodes>
          <leafValues>
            -3.3562362194061279e-002 4.8070588707923889e-001</leafValues></_>
        <_>
          <internalNodes>
            0 -1 319 1.5887893736362457e-002</internalNodes>
          <leafValues>
            8.5666112601757050e-002 -1.8544045090675354e-001</leafValues></_>
        <_>
          <internalNodes>
            0 -1 117 1.1461080983281136e-002</internalNodes>
          <leafValues>
            2.2585614025592804e-001 -6.9350972771644592e-002</leafValues></_>
        <_>
          <internalNodes>
            0 -1 402 4.5338291674852371e-002</internalNodes>
          <leafValues>
            -8.1622451543807983e-002 2.0303168892860413e-001</leafValues></_>
        <_>
          <internalNodes>
            0 -1 301 9.5269195735454559e-003</internalNodes>
          <leafValues>
            -2.8896737098693848e-001 5.0677087157964706e-002</leafValues></_>
        <_>
          <internalNodes>
            0 -1 162 5.6631271727383137e-003</internalNodes>
          <leafValues>
            2.1179723739624023e-001 -7.6275944709777832e-002</leafValues></_>
        <_>
          <internalNodes>
            0 -1 369 1.1737656313925982e-003</internalNodes>
          <leafValues>
            -3.8058766722679138e-001 4.5147974044084549e-002</leafValues></_>
        <_>
          <internalNodes>
            0 -1 36 1.6280648997053504e-003</internalNodes>
          <leafValues>
            3.6106306314468384e-001 -5.0747983157634735e-002</leafValues></_>
        <_>
          <internalNodes>
            0 -1 287 4.6509776439052075e-005</internalNodes>
          <leafValues>
            -5.0585675239562988e-001 2.8913401067256927e-002</leafValues></_>
        <_>
          <internalNodes>
            0 -1 294 4.8620603978633881e-002</internalNodes>
          <leafValues>
            2.0798003301024437e-002 -6.5573364496231079e-001</leafValues></_>
        <_>
          <internalNodes>
            0 -1 211 2.1398453041911125e-002</internalNodes>
          <leafValues>
            5.8566574007272720e-002 -2.3144231736660004e-001</leafValues></_>
        <_>
          <internalNodes>
            0 -1 157 1.4690676331520081e-001</internalNodes>
          <leafValues>
            2.0949436351656914e-002 -6.4833986759185791e-001</leafValues></_>
        <_>
          <internalNodes>
            0 -1 4 6.3370810821652412e-003</internalNodes>
          <leafValues>
            1.0393899679183960e-001 -1.3165155053138733e-001</leafValues></_>
        <_>
          <internalNodes>
            0 -1 179 5.2499445155262947e-003</internalNodes>
          <leafValues>
            -2.9384052753448486e-001 6.0972861945629120e-002</leafValues></_>
        <_>
          <internalNodes>
            0 -1 207 2.6492809411138296e-004</internalNodes>
          <leafValues>
            3.7673842906951904e-001 -4.1202511638402939e-002</leafValues></_>
        <_>
          <internalNodes>
            0 -1 329 4.0524765849113464e-002</internalNodes>
          <leafValues>
            2.3431310430169106e-002 -6.2150180339813232e-001</leafValues></_>
        <_>
          <internalNodes>
            0 -1 51 3.0244296789169312e-001</internalNodes>
          <leafValues>
            1.2695940211415291e-002 -8.8596332073211670e-001</leafValues></_>
        <_>
          <internalNodes>
            0 -1 123 1.1816214025020599e-001</internalNodes>
          <leafValues>
            1.2836972251534462e-002 -8.2673996686935425e-001</leafValues></_>
        <_>
          <internalNodes>
            0 -1 170 4.4771135435439646e-004</internalNodes>
          <leafValues>
            3.3986330032348633e-001 -4.6519193798303604e-002</leafValues></_>
        <_>
          <internalNodes>
            0 -1 301 2.1345723420381546e-002</internalNodes>
          <leafValues>
            -1.6131018102169037e-001 9.7958005964756012e-002</leafValues></_>
        <_>
          <internalNodes>
            0 -1 155 5.7299453765153885e-002</internalNodes>
          <leafValues>
            -2.9848530888557434e-002 4.1950887441635132e-001</leafValues></_>
        <_>
          <internalNodes>
            0 -1 2 3.3162720501422882e-003</internalNodes>
          <leafValues>
            1.4988918602466583e-001 -9.4566002488136292e-002</leafValues></_>
        <_>
          <internalNodes>
            0 -1 171 7.0277497172355652e-002</internalNodes>
          <leafValues>
            2.1445007994771004e-002 -6.1464083194732666e-001</leafValues></_>
        <_>
          <internalNodes>
            0 -1 192 1.1196777224540710e-001</internalNodes>
          <leafValues>
            -2.3916972801089287e-002 6.1978030204772949e-001</leafValues></_>
        <_>
          <internalNodes>
            0 -1 275 1.3361261785030365e-001</internalNodes>
          <leafValues>
            -2.3007668554782867e-002 5.0657367706298828e-001</leafValues></_>
        <_>
          <internalNodes>
            0 -1 387 1.7207127064466476e-002</internalNodes>
          <leafValues>
            -3.7364831566810608e-001 3.5700328648090363e-002</leafValues></_>
        <_>
          <internalNodes>
            0 -1 412 2.9408015310764313e-002</internalNodes>
          <leafValues>
            -5.9492379426956177e-002 2.3392462730407715e-001</leafValues></_>
        <_>
          <internalNodes>
            0 -1 44 2.6262365281581879e-004</internalNodes>
          <leafValues>
            2.9337406158447266e-001 -4.2894173413515091e-002</leafValues></_>
        <_>
          <internalNodes>
            0 -1 291 5.1363877719268203e-004</internalNodes>
          <leafValues>
            -5.4856073856353760e-001 2.4539317935705185e-002</leafValues></_>
        <_>
          <internalNodes>
            0 -1 358 4.4310707598924637e-003</internalNodes>
          <leafValues>
            -2.9733774065971375e-001 4.4510535895824432e-002</leafValues></_>
        <_>
          <internalNodes>
            0 -1 233 3.8974732160568237e-004</internalNodes>
          <leafValues>
            2.8912028670310974e-001 -4.5772131532430649e-002</leafValues></_>
        <_>
          <internalNodes>
            0 -1 372 1.6054454445838928e-001</internalNodes>
          <leafValues>
            1.9530443474650383e-002 -6.8758141994476318e-001</leafValues></_>
        <_>
          <internalNodes>
            0 -1 317 4.6542815864086151e-002</internalNodes>
          <leafValues>
            2.1975984796881676e-002 -5.4170817136764526e-001</leafValues></_>
        <_>
          <internalNodes>
            0 -1 252 7.7947862446308136e-002</internalNodes>
          <leafValues>
            -3.3785238862037659e-002 3.6853486299514771e-001</leafValues></_>
        <_>
          <internalNodes>
            0 -1 142 4.6111643314361572e-002</internalNodes>
          <leafValues>
            -6.6926389932632446e-002 1.6844916343688965e-001</leafValues></_>
        <_>
          <internalNodes>
            0 -1 216 5.5299729108810425e-002</internalNodes>
          <leafValues>
            -2.6014288887381554e-002 4.3814304471015930e-001</leafValues></_>
        <_>
          <internalNodes>
            0 -1 354 6.5654300851747394e-004</internalNodes>
          <leafValues>
            -6.3215464353561401e-001 1.9573956727981567e-002</leafValues></_>
        <_>
          <internalNodes>
            0 -1 121 2.0608487538993359e-003</internalNodes>
          <leafValues>
            2.3551547527313232e-001 -5.7855613529682159e-002</leafValues></_>
        <_>
          <internalNodes>
            0 -1 163 2.8678901799139567e-005</internalNodes>
          <leafValues>
            -6.6223001480102539e-001 1.9001541659235954e-002</leafValues></_>
        <_>
          <internalNodes>
            0 -1 194 6.7819610238075256e-002</internalNodes>
          <leafValues>
            -2.6704007759690285e-002 4.8065605759620667e-001</leafValues></_>
        <_>
          <internalNodes>
            0 -1 231 1.8330886960029602e-002</internalNodes>
          <leafValues>
            6.4157217741012573e-002 -1.7730228602886200e-001</leafValues></_>
        <_>
          <internalNodes>
            0 -1 9 2.4818778038024902e-002</internalNodes>
          <leafValues>
            -1.0589969158172607e-001 1.1377640068531036e-001</leafValues></_>
        <_>
          <internalNodes>
            0 -1 160 3.1481748446822166e-003</internalNodes>
          <leafValues>
            1.4850512146949768e-001 -7.9864114522933960e-002</leafValues></_>
        <_>
          <internalNodes>
            0 -1 196 2.3940163664519787e-003</internalNodes>
          <leafValues>
            -7.0931279659271240e-001 1.6455689445137978e-002</leafValues></_>
        <_>
          <internalNodes>
            0 -1 427 3.5827930551022291e-003</internalNodes>
          <leafValues>
            -2.1550033986568451e-001 5.5913541465997696e-002</leafValues></_>
        <_>
          <internalNodes>
            0 -1 123 4.0204031392931938e-004</internalNodes>
          <leafValues>
            3.8960161805152893e-001 -3.0788948759436607e-002</leafValues></_>
        <_>
          <internalNodes>
            0 -1 284 1.7616800963878632e-002</internalNodes>
          <leafValues>
            -8.6886592209339142e-002 1.4502024650573730e-001</leafValues></_>
        <_>
          <internalNodes>
            0 -1 63 6.5876439213752747e-002</internalNodes>
          <leafValues>
            -5.6801605969667435e-002 2.3241269588470459e-001</leafValues></_>
        <_>
          <internalNodes>
            0 -1 114 1.4315566420555115e-001</internalNodes>
          <leafValues>
            2.1291969344019890e-002 -5.3441679477691650e-001</leafValues></_>
        <_>
          <internalNodes>
            0 -1 42 1.4308360405266285e-003</internalNodes>
          <leafValues>
            1.8331000208854675e-001 -6.0217868536710739e-002</leafValues></_>
        <_>
          <internalNodes>
            0 -1 412 2.7156462892889977e-003</internalNodes>
          <leafValues>
            -2.7689513564109802e-001 4.0481958538293839e-002</leafValues></_>
        <_>
          <internalNodes>
            0 -1 132 6.5257571637630463e-002</internalNodes>
          <leafValues>
            2.9346859082579613e-002 -4.5364809036254883e-001</leafValues></_>
        <_>
          <internalNodes>
            0 -1 37 3.9318253402598202e-004</internalNodes>
          <leafValues>
            3.0465438961982727e-001 -3.7542570382356644e-002</leafValues></_>
        <_>
          <internalNodes>
            0 -1 137 1.1026084423065186e-002</internalNodes>
          <leafValues>
            1.0517824441194534e-001 -1.0072837024927139e-001</leafValues></_>
        <_>
          <internalNodes>
            0 -1 353 6.2600299715995789e-002</internalNodes>
          <leafValues>
            1.3657808303833008e-002 -8.2530069351196289e-001</leafValues></_>
        <_>
          <internalNodes>
            0 -1 6 1.5943434834480286e-001</internalNodes>
          <leafValues>
            1.5071988105773926e-002 -5.7966238260269165e-001</leafValues></_>
        <_>
          <internalNodes>
            0 -1 15 7.2584167122840881e-002</internalNodes>
          <leafValues>
            -3.4512400627136230e-002 3.1069597601890564e-001</leafValues></_>
        <_>
          <internalNodes>
            0 -1 390 1.5765989199280739e-002</internalNodes>
          <leafValues>
            -1.2407012283802032e-001 9.1489478945732117e-002</leafValues></_>
        <_>
          <internalNodes>
            0 -1 4 1.2264352291822433e-002</internalNodes>
          <leafValues>
            8.3071187138557434e-002 -1.5842379629611969e-001</leafValues></_>
        <_>
          <internalNodes>
            0 -1 93 6.9522217381745577e-004</internalNodes>
          <leafValues>
            2.9989483952522278e-001 -4.5436672866344452e-002</leafValues></_>
        <_>
          <internalNodes>
            0 -1 336 2.3057661019265652e-003</internalNodes>
          <leafValues>
            -3.4072616696357727e-001 3.0287759378552437e-002</leafValues></_>
        <_>
          <internalNodes>
            0 -1 189 3.5635009407997131e-002</internalNodes>
          <leafValues>
            -1.1694015562534332e-001 9.2318616807460785e-002</leafValues></_>
        <_>
          <internalNodes>
            0 -1 153 3.8538027554750443e-002</internalNodes>
          <leafValues>
            -6.9023109972476959e-002 1.5361863374710083e-001</leafValues></_>
        <_>
          <internalNodes>
            0 -1 66 6.6712535917758942e-002</internalNodes>
          <leafValues>
            1.7308441922068596e-002 -6.7829000949859619e-001</leafValues></_>
        <_>
          <internalNodes>
            0 -1 309 4.3542191386222839e-002</internalNodes>
          <leafValues>
            -1.4319920539855957e-001 6.9446995854377747e-002</leafValues></_>
        <_>
          <internalNodes>
            0 -1 298 4.4654496014118195e-002</internalNodes>
          <leafValues>
            -5.1654003560543060e-002 2.1604731678962708e-001</leafValues></_>
        <_>
          <internalNodes>
            0 -1 162 3.9768844726495445e-004</internalNodes>
          <leafValues>
            3.3030354976654053e-001 -3.0786104500293732e-002</leafValues></_></weakClassifiers></_>
    <!-- stage 19 -->
    <_>
      <maxWeakCount>100</maxWeakCount>
      <stageThreshold>4.9557562917470932e-002</stageThreshold>
      <weakClassifiers>
        <_>
          <internalNodes>
            0 -1 184 5.0713671371340752e-003</internalNodes>
          <leafValues>
            9.6302849054336548e-001 8.8421928882598877e-001</leafValues></_>
        <_>
          <internalNodes>
            0 -1 260 1.3456838205456734e-003</internalNodes>
          <leafValues>
            8.2548451423645020e-001 4.8103129863739014e-001</leafValues></_>
        <_>
          <internalNodes>
            0 -1 34 4.1908380808308721e-004</internalNodes>
          <leafValues>
            7.0929062366485596e-001 1.2488508597016335e-002</leafValues></_>
        <_>
          <internalNodes>
            0 -1 4 3.6036496749147773e-004</internalNodes>
          <leafValues>
            2.6373198628425598e-001 -2.1818438172340393e-001</leafValues></_>
        <_>
          <internalNodes>
            0 -1 110 2.3274472914636135e-003</internalNodes>
          <leafValues>
            2.7914270758628845e-001 -1.8208493292331696e-001</leafValues></_>
        <_>
          <internalNodes>
            0 -1 150 9.0589998289942741e-003</internalNodes>
          <leafValues>
            -3.5919395089149475e-001 1.4997191727161407e-001</leafValues></_>
        <_>
          <internalNodes>
            0 -1 159 1.0354776168242097e-003</internalNodes>
          <leafValues>
            2.7543297410011292e-001 -1.4401623606681824e-001</leafValues></_>
        <_>
          <internalNodes>
            0 -1 371 5.7588322088122368e-003</internalNodes>
          <leafValues>
            -5.9645396471023560e-001 6.5256960690021515e-002</leafValues></_>
        <_>
          <internalNodes>
            0 -1 406 1.8982976675033569e-002</internalNodes>
          <leafValues>
            1.0452173650264740e-001 -3.5421106219291687e-001</leafValues></_>
        <_>
          <internalNodes>
            0 -1 10 2.5674350559711456e-002</internalNodes>
          <leafValues>
            -2.0479999482631683e-001 1.5403248369693756e-001</leafValues></_>
        <_>
          <internalNodes>
            0 -1 305 5.7657159864902496e-002</internalNodes>
          <leafValues>
            -8.9584439992904663e-002 3.2915040850639343e-001</leafValues></_>
        <_>
          <internalNodes>
            0 -1 160 1.1120270006358624e-002</internalNodes>
          <leafValues>
            1.5174213051795959e-001 -2.0243088901042938e-001</leafValues></_>
        <_>
          <internalNodes>
            0 -1 304 1.2262737751007080e-001</internalNodes>
          <leafValues>
            5.0112050026655197e-002 -5.7855778932571411e-001</leafValues></_>
        <_>
          <internalNodes>
            0 -1 17 5.5996648734435439e-004</internalNodes>
          <leafValues>
            3.0814051628112793e-001 -1.1036138981580734e-001</leafValues></_>
        <_>
          <internalNodes>
            0 -1 291 1.1519626714289188e-003</internalNodes>
          <leafValues>
            -5.3879290819168091e-001 4.5423410832881927e-002</leafValues></_>
        <_>
          <internalNodes>
            0 -1 97 5.7719903998076916e-004</internalNodes>
          <leafValues>
            3.7337681651115417e-001 -7.4186518788337708e-002</leafValues></_>
        <_>
          <internalNodes>
            0 -1 297 1.7181372642517090e-001</internalNodes>
          <leafValues>
            3.3224288374185562e-002 -8.2899612188339233e-001</leafValues></_>
        <_>
          <internalNodes>
            0 -1 74 3.8907772977836430e-004</internalNodes>
          <leafValues>
            4.0820235013961792e-001 -6.8530410528182983e-002</leafValues></_>
        <_>
          <internalNodes>
            0 -1 262 2.5126291438937187e-003</internalNodes>
          <leafValues>
            -7.4102371931076050e-001 3.0656076967716217e-002</leafValues></_>
        <_>
          <internalNodes>
            0 -1 2 1.3792450772598386e-003</internalNodes>
          <leafValues>
            2.1435324847698212e-001 -1.2518860399723053e-001</leafValues></_>
        <_>
          <internalNodes>
            0 -1 338 5.0459507852792740e-002</internalNodes>
          <leafValues>
            -8.6634568870067596e-002 2.6439085602760315e-001</leafValues></_>
        <_>
          <internalNodes>
            0 -1 198 3.2867603003978729e-002</internalNodes>
          <leafValues>
            -8.0202154815196991e-002 2.7406442165374756e-001</leafValues></_>
        <_>
          <internalNodes>
            0 -1 122 4.6160995960235596e-002</internalNodes>
          <leafValues>
            -1.1281023919582367e-001 2.1256157755851746e-001</leafValues></_>
        <_>
          <internalNodes>
            0 -1 308 8.2729943096637726e-003</internalNodes>
          <leafValues>
            -3.7894931435585022e-001 6.7678675055503845e-002</leafValues></_>
        <_>
          <internalNodes>
            0 -1 185 1.3165336567908525e-003</internalNodes>
          <leafValues>
            3.1645056605339050e-001 -7.4557557702064514e-002</leafValues></_>
        <_>
          <internalNodes>
            0 -1 302 3.3120505511760712e-002</internalNodes>
          <leafValues>
            -8.3825133740901947e-002 2.5442808866500854e-001</leafValues></_>
        <_>
          <internalNodes>
            0 -1 8 4.1573088616132736e-002</internalNodes>
          <leafValues>
            -6.8287640810012817e-002 2.9318717122077942e-001</leafValues></_>
        <_>
          <internalNodes>
            0 -1 45 6.7866459488868713e-002</internalNodes>
          <leafValues>
            -4.6195574104785919e-002 4.1005542874336243e-001</leafValues></_>
        <_>
          <internalNodes>
            0 -1 157 2.4385266442550346e-005</internalNodes>
          <leafValues>
            -8.1102001667022705e-001 2.3444924503564835e-002</leafValues></_>
        <_>
          <internalNodes>
            0 -1 185 5.2608743309974670e-002</internalNodes>
          <leafValues>
            3.3478606492280960e-002 -4.7674605250358582e-001</leafValues></_>
        <_>
          <internalNodes>
            0 -1 261 4.7792738769203424e-004</internalNodes>
          <leafValues>
            3.0974036455154419e-001 -6.0306627303361893e-002</leafValues></_>
        <_>
          <internalNodes>
            0 -1 195 5.7093951909337193e-005</internalNodes>
          <leafValues>
            -5.6783771514892578e-001 3.4841954708099365e-002</leafValues></_>
        <_>
          <internalNodes>
            0 -1 366 1.7264503240585327e-001</internalNodes>
          <leafValues>
            1.9298639148473740e-002 -8.6512666940689087e-001</leafValues></_>
        <_>
          <internalNodes>
            0 -1 67 4.3182345689274371e-004</internalNodes>
          <leafValues>
            2.5800853967666626e-001 -9.0487733483314514e-002</leafValues></_>
        <_>
          <internalNodes>
            0 -1 152 3.0925486236810684e-002</internalNodes>
          <leafValues>
            -9.0635426342487335e-002 1.9397731125354767e-001</leafValues></_>
        <_>
          <internalNodes>
            0 -1 293 6.4175218343734741e-002</internalNodes>
          <leafValues>
            2.1204611286520958e-002 -8.7173706293106079e-001</leafValues></_>
        <_>
          <internalNodes>
            0 -1 163 1.5312716364860535e-001</internalNodes>
          <leafValues>
            1.7870206385850906e-002 -6.4736598730087280e-001</leafValues></_>
        <_>
          <internalNodes>
            0 -1 26 5.8783218264579773e-004</internalNodes>
          <leafValues>
            1.9746120274066925e-001 -9.1423399746417999e-002</leafValues></_>
        <_>
          <internalNodes>
            0 -1 307 4.5533485710620880e-002</internalNodes>
          <leafValues>
            2.3982673883438110e-002 -6.8367248773574829e-001</leafValues></_>
        <_>
          <internalNodes>
            0 -1 240 7.7865103958174586e-004</internalNodes>
          <leafValues>
            3.2681536674499512e-001 -4.9979612231254578e-002</leafValues></_>
        <_>
          <internalNodes>
            0 -1 376 2.4352008476853371e-003</internalNodes>
          <leafValues>
            -3.0707260966300964e-001 5.8926440775394440e-002</leafValues></_>
        <_>
          <internalNodes>
            0 -1 50 8.2310020923614502e-002</internalNodes>
          <leafValues>
            3.1210415065288544e-002 -6.2798035144805908e-001</leafValues></_>
        <_>
          <internalNodes>
            0 -1 3 1.2634445447474718e-003</internalNodes>
          <leafValues>
            1.3171166181564331e-001 -1.1660790443420410e-001</leafValues></_>
        <_>
          <internalNodes>
            0 -1 293 5.0904357340186834e-004</internalNodes>
          <leafValues>
            -3.5415711998939514e-001 5.2203152328729630e-002</leafValues></_>
        <_>
          <internalNodes>
            0 -1 119 2.3619304411113262e-003</internalNodes>
          <leafValues>
            2.2706049680709839e-001 -7.5042240321636200e-002</leafValues></_>
        <_>
          <internalNodes>
            0 -1 25 3.5343779018148780e-004</internalNodes>
          <leafValues>
            2.2299277782440186e-001 -6.9144040346145630e-002</leafValues></_>
        <_>
          <internalNodes>
            0 -1 62 5.3235539235174656e-004</internalNodes>
          <leafValues>
            -7.9495215415954590e-001 1.8018482252955437e-002</leafValues></_>
        <_>
          <internalNodes>
            0 -1 205 4.5134417712688446e-002</internalNodes>
          <leafValues>
            -5.6414056569337845e-002 2.6238811016082764e-001</leafValues></_>
        <_>
          <internalNodes>
            0 -1 380 5.4844990372657776e-003</internalNodes>
          <leafValues>
            -4.3832665681838989e-001 3.1694039702415466e-002</leafValues></_>
        <_>
          <internalNodes>
            0 -1 223 6.6697713918983936e-004</internalNodes>
          <leafValues>
            2.8067284822463989e-001 -5.7724863290786743e-002</leafValues></_>
        <_>
          <internalNodes>
            0 -1 363 9.7388653084635735e-003</internalNodes>
          <leafValues>
            -2.3381978273391724e-001 7.7856034040451050e-002</leafValues></_>
        <_>
          <internalNodes>
            0 -1 1 6.7708052694797516e-002</internalNodes>
          <leafValues>
            2.3195689544081688e-002 -6.9664120674133301e-001</leafValues></_>
        <_>
          <internalNodes>
            0 -1 358 2.6326826773583889e-003</internalNodes>
          <leafValues>
            -3.7610277533531189e-001 3.1109500676393509e-002</leafValues></_>
        <_>
          <internalNodes>
            0 -1 407 2.3251727223396301e-002</internalNodes>
          <leafValues>
            5.7658523321151733e-002 -2.4237279593944550e-001</leafValues></_>
        <_>
          <internalNodes>
            0 -1 206 3.5146664595231414e-004</internalNodes>
          <leafValues>
            3.8174852728843689e-001 -3.6856532096862793e-002</leafValues></_>
        <_>
          <internalNodes>
            0 -1 262 1.6056442260742188e-001</internalNodes>
          <leafValues>
            3.3948335796594620e-002 -3.6602237820625305e-001</leafValues></_>
        <_>
          <internalNodes>
            0 -1 162 1.4730915427207947e-003</internalNodes>
          <leafValues>
            2.7613943815231323e-001 -4.6957906335592270e-002</leafValues></_>
        <_>
          <internalNodes>
            0 -1 301 2.9773168265819550e-002</internalNodes>
          <leafValues>
            -1.0354924947023392e-001 1.3132105767726898e-001</leafValues></_>
        <_>
          <internalNodes>
            0 -1 389 7.2944894433021545e-002</internalNodes>
          <leafValues>
            2.7448616921901703e-002 -5.8444339036941528e-001</leafValues></_>
        <_>
          <internalNodes>
            0 -1 181 4.0867254137992859e-002</internalNodes>
          <leafValues>
            -7.7011018991470337e-002 1.6931600868701935e-001</leafValues></_>
        <_>
          <internalNodes>
            0 -1 386 8.9721783995628357e-002</internalNodes>
          <leafValues>
            -2.1493205800652504e-002 5.6405138969421387e-001</leafValues></_>
        <_>
          <internalNodes>
            0 -1 330 1.3712930012843572e-005</internalNodes>
          <leafValues>
            -5.6923222541809082e-001 2.2949777543544769e-002</leafValues></_>
        <_>
          <internalNodes>
            0 -1 88 2.6832491857931018e-004</internalNodes>
          <leafValues>
            2.7322509884834290e-001 -4.8454605042934418e-002</leafValues></_>
        <_>
          <internalNodes>
            0 -1 340 2.5043444475159049e-004</internalNodes>
          <leafValues>
            -6.9033408164978027e-001 1.7346665263175964e-002</leafValues></_>
        <_>
          <internalNodes>
            0 -1 273 3.9885094156488776e-004</internalNodes>
          <leafValues>
            4.0612855553627014e-001 -3.5552881658077240e-002</leafValues></_>
        <_>
          <internalNodes>
            0 -1 417 1.3005143955524545e-005</internalNodes>
          <leafValues>
            -5.9482204914093018e-001 2.1190706640481949e-002</leafValues></_>
        <_>
          <internalNodes>
            0 -1 212 4.9528927775099874e-004</internalNodes>
          <leafValues>
            2.7669885754585266e-001 -3.9941053837537766e-002</leafValues></_>
        <_>
          <internalNodes>
            0 -1 426 5.9419027820695192e-005</internalNodes>
          <leafValues>
            -5.2085649967193604e-001 2.3929016664624214e-002</leafValues></_>
        <_>
          <internalNodes>
            0 -1 103 3.9958290290087461e-004</internalNodes>
          <leafValues>
            3.3725720643997192e-001 -3.3193845301866531e-002</leafValues></_>
        <_>
          <internalNodes>
            0 -1 312 2.8496817685663700e-003</internalNodes>
          <leafValues>
            -2.6588961482048035e-001 5.0982967019081116e-002</leafValues></_>
        <_>
          <internalNodes>
            0 -1 138 7.6051622629165649e-002</internalNodes>
          <leafValues>
            1.8121873959898949e-002 -7.0544749498367310e-001</leafValues></_>
        <_>
          <internalNodes>
            0 -1 250 5.0817220471799374e-004</internalNodes>
          <leafValues>
            2.9322606325149536e-001 -4.4112540781497955e-002</leafValues></_>
        <_>
          <internalNodes>
            0 -1 366 4.8113828524947166e-003</internalNodes>
          <leafValues>
            -6.2948685884475708e-001 1.8808700144290924e-002</leafValues></_>
        <_>
          <internalNodes>
            0 -1 429 3.9629038656130433e-004</internalNodes>
          <leafValues>
            -7.1333402395248413e-001 1.4372889883816242e-002</leafValues></_>
        <_>
          <internalNodes>
            0 -1 5 2.3435303010046482e-003</internalNodes>
          <leafValues>
            1.6414488852024078e-001 -8.1255234777927399e-002</leafValues></_>
        <_>
          <internalNodes>
            0 -1 179 2.9010817408561707e-002</internalNodes>
          <leafValues>
            -1.0601050406694412e-001 1.3442735373973846e-001</leafValues></_>
        <_>
          <internalNodes>
            0 -1 239 8.8680252432823181e-002</internalNodes>
          <leafValues>
            -3.5758104175329208e-002 3.7545746564865112e-001</leafValues></_>
        <_>
          <internalNodes>
            0 -1 175 3.1050050165504217e-004</internalNodes>
          <leafValues>
            4.0520820021629333e-001 -2.9466703534126282e-002</leafValues></_>
        <_>
          <internalNodes>
            0 -1 13 3.0466279713436961e-004</internalNodes>
          <leafValues>
            -4.0543779730796814e-001 3.5227220505475998e-002</leafValues></_>
        <_>
          <internalNodes>
            0 -1 158 1.9281093031167984e-002</internalNodes>
          <leafValues>
            1.0135305672883987e-001 -1.1697805672883987e-001</leafValues></_>
        <_>
          <internalNodes>
            0 -1 284 2.8751425445079803e-002</internalNodes>
          <leafValues>
            -5.5294416844844818e-002 2.1077366173267365e-001</leafValues></_>
        <_>
          <internalNodes>
            0 -1 339 4.6018358319997787e-002</internalNodes>
          <leafValues>
            -1.4385427534580231e-001 8.9973084628582001e-002</leafValues></_>
        <_>
          <internalNodes>
            0 -1 411 8.7086651474237442e-003</internalNodes>
          <leafValues>
            -2.4694411456584930e-001 5.5123206228017807e-002</leafValues></_>
        <_>
          <internalNodes>
            0 -1 288 1.0130610316991806e-002</internalNodes>
          <leafValues>
            1.3513764739036560e-001 -8.7199106812477112e-002</leafValues></_>
        <_>
          <internalNodes>
            0 -1 151 4.5442704111337662e-002</internalNodes>
          <leafValues>
            -4.0058508515357971e-002 2.8456422686576843e-001</leafValues></_>
        <_>
          <internalNodes>
            0 -1 285 1.4720572531223297e-001</internalNodes>
          <leafValues>
            3.1443975865840912e-002 -3.7040871381759644e-001</leafValues></_>
        <_>
          <internalNodes>
            0 -1 28 4.8191868700087070e-003</internalNodes>
          <leafValues>
            1.0724215209484100e-001 -1.1241273581981659e-001</leafValues></_>
        <_>
          <internalNodes>
            0 -1 267 1.2185140512883663e-003</internalNodes>
          <leafValues>
            2.9377233982086182e-001 -4.1475333273410797e-002</leafValues></_>
        <_>
          <internalNodes>
            0 -1 408 1.8506777705624700e-003</internalNodes>
          <leafValues>
            -2.8195649385452271e-001 4.1842371225357056e-002</leafValues></_>
        <_>
          <internalNodes>
            0 -1 382 3.1284913420677185e-002</internalNodes>
          <leafValues>
            4.0718324482440948e-002 -2.8846889734268188e-001</leafValues></_>
        <_>
          <internalNodes>
            0 -1 367 1.3471467792987823e-001</internalNodes>
          <leafValues>
            9.7851371392607689e-003 -9.1850674152374268e-001</leafValues></_>
        <_>
          <internalNodes>
            0 -1 116 1.0080387815833092e-002</internalNodes>
          <leafValues>
            1.3079291582107544e-001 -8.6242042481899261e-002</leafValues></_>
        <_>
          <internalNodes>
            0 -1 385 6.7386440932750702e-002</internalNodes>
          <leafValues>
            -1.7282880842685699e-002 6.6351270675659180e-001</leafValues></_>
        <_>
          <internalNodes>
            0 -1 285 2.2167386487126350e-003</internalNodes>
          <leafValues>
            -5.2075332403182983e-001 2.2007755935192108e-002</leafValues></_>
        <_>
          <internalNodes>
            0 -1 304 2.0143683254718781e-001</internalNodes>
          <leafValues>
            1.0435961186885834e-002 -7.8350913524627686e-001</leafValues></_>
        <_>
          <internalNodes>
            0 -1 189 3.4542798995971680e-002</internalNodes>
          <leafValues>
            -1.1905830353498459e-001 8.3054766058921814e-002</leafValues></_>
        <_>
          <internalNodes>
            0 -1 414 2.7968399226665497e-002</internalNodes>
          <leafValues>
            -6.8823792040348053e-002 1.6987101733684540e-001</leafValues></_>
        <_>
          <internalNodes>
            0 -1 214 1.3237216044217348e-003</internalNodes>
          <leafValues>
            -6.6119021177291870e-001 1.8201399594545364e-002</leafValues></_>
        <_>
          <internalNodes>
            0 -1 65 1.2251420412212610e-003</internalNodes>
          <leafValues>
            2.5130507349967957e-001 -4.7308046370744705e-002</leafValues></_>
        <_>
          <internalNodes>
            0 -1 309 2.2188368439674377e-001</internalNodes>
          <leafValues>
            1.3665971346199512e-002 -7.6916849613189697e-001</leafValues></_></weakClassifiers></_>
    <!-- stage 20 -->
    <_>
      <maxWeakCount>100</maxWeakCount>
      <stageThreshold>-9.7683751955628395e-003</stageThreshold>
      <weakClassifiers>
        <_>
          <internalNodes>
            0 -1 293 9.9558979272842407e-002</internalNodes>
          <leafValues>
            9.3066799640655518e-001 -7.6470589637756348e-001</leafValues></_>
        <_>
          <internalNodes>
            0 -1 3 1.8409390468150377e-003</internalNodes>
          <leafValues>
            7.5843155384063721e-001 3.9620834589004517e-001</leafValues></_>
        <_>
          <internalNodes>
            0 -1 74 1.3362918980419636e-004</internalNodes>
          <leafValues>
            7.7415001392364502e-001 -2.5057080201804638e-003</leafValues></_>
        <_>
          <internalNodes>
            0 -1 159 6.4820225816220045e-004</internalNodes>
          <leafValues>
            4.3169420957565308e-001 -1.5123413503170013e-001</leafValues></_>
        <_>
          <internalNodes>
            0 -1 110 1.2168472167104483e-003</internalNodes>
          <leafValues>
            3.2967174053192139e-001 -1.7858161032199860e-001</leafValues></_>
        <_>
          <internalNodes>
            0 -1 62 1.2692114338278770e-002</internalNodes>
          <leafValues>
            -5.6914275884628296e-001 6.2070704996585846e-002</leafValues></_>
        <_>
          <internalNodes>
            0 -1 361 2.9030974954366684e-002</internalNodes>
          <leafValues>
            -1.7387919127941132e-001 1.9401429593563080e-001</leafValues></_>
        <_>
          <internalNodes>
            0 -1 404 3.8980789482593536e-002</internalNodes>
          <leafValues>
            -1.3087292015552521e-001 2.6223385334014893e-001</leafValues></_>
        <_>
          <internalNodes>
            0 -1 66 8.8721315842121840e-004</internalNodes>
          <leafValues>
            3.0474790930747986e-001 -1.1517108976840973e-001</leafValues></_>
        <_>
          <internalNodes>
            0 -1 12 1.1472346261143684e-002</internalNodes>
          <leafValues>
            -2.4704314768314362e-001 1.2175356596708298e-001</leafValues></_>
        <_>
          <internalNodes>
            0 -1 184 1.1727435514330864e-002</internalNodes>
          <leafValues>
            1.5241593122482300e-001 -2.0597571134567261e-001</leafValues></_>
        <_>
          <internalNodes>
            0 -1 4 2.2068701218813658e-004</internalNodes>
          <leafValues>
            2.1680963039398193e-001 -1.2953305244445801e-001</leafValues></_>
        <_>
          <internalNodes>
            0 -1 291 3.6822089896304533e-005</internalNodes>
          <leafValues>
            -7.3802131414413452e-001 3.6636255681514740e-002</leafValues></_>
        <_>
          <internalNodes>
            0 -1 10 3.2963994890451431e-002</internalNodes>
          <leafValues>
            -1.6082178056240082e-001 1.6613478958606720e-001</leafValues></_>
        <_>
          <internalNodes>
            0 -1 174 1.1378789786249399e-003</internalNodes>
          <leafValues>
            -8.5209333896636963e-001 3.2574124634265900e-002</leafValues></_>
        <_>
          <internalNodes>
            0 -1 329 1.7423804849386215e-002</internalNodes>
          <leafValues>
            7.1223154664039612e-002 -3.0217671394348145e-001</leafValues></_>
        <_>
          <internalNodes>
            0 -1 259 8.1020395737141371e-004</internalNodes>
          <leafValues>
            2.5401344895362854e-001 -8.1880502402782440e-002</leafValues></_>
        <_>
          <internalNodes>
            0 -1 377 3.3852746710181236e-003</internalNodes>
          <leafValues>
            -3.1395503878593445e-001 7.5772844254970551e-002</leafValues></_>
        <_>
          <internalNodes>
            0 -1 141 6.7066559568047523e-003</internalNodes>
          <leafValues>
            -4.3330803513526917e-001 4.4916193932294846e-002</leafValues></_>
        <_>
          <internalNodes>
            0 -1 277 7.0495247840881348e-002</internalNodes>
          <leafValues>
            -6.8111516535282135e-002 3.1518900394439697e-001</leafValues></_>
        <_>
          <internalNodes>
            0 -1 2 3.7824339233338833e-004</internalNodes>
          <leafValues>
            2.7036550641059875e-001 -8.4039561450481415e-002</leafValues></_>
        <_>
          <internalNodes>
            0 -1 152 1.7724266275763512e-002</internalNodes>
          <leafValues>
            -1.6010040044784546e-001 1.3254019618034363e-001</leafValues></_>
        <_>
          <internalNodes>
            0 -1 185 2.3050520569086075e-002</internalNodes>
          <leafValues>
            9.7665362060070038e-002 -2.3150248825550079e-001</leafValues></_>
        <_>
          <internalNodes>
            0 -1 366 1.2258055806159973e-001</internalNodes>
          <leafValues>
            3.3381536602973938e-002 -5.4157876968383789e-001</leafValues></_>
        <_>
          <internalNodes>
            0 -1 129 1.4445921406149864e-003</internalNodes>
          <leafValues>
            2.7225014567375183e-001 -7.7373549342155457e-002</leafValues></_>
        <_>
          <internalNodes>
            0 -1 308 3.2367854146286845e-005</internalNodes>
          <leafValues>
            -8.7855541706085205e-001 2.0568896085023880e-002</leafValues></_>
        <_>
          <internalNodes>
            0 -1 253 5.1479967078194022e-004</internalNodes>
          <leafValues>
            4.0753820538520813e-001 -5.2648764103651047e-002</leafValues></_>
        <_>
          <internalNodes>
            0 -1 355 1.9716849923133850e-001</internalNodes>
          <leafValues>
            2.7496043592691422e-002 -7.2948515415191650e-001</leafValues></_>
        <_>
          <internalNodes>
            0 -1 275 6.9546394050121307e-002</internalNodes>
          <leafValues>
            -7.4083253741264343e-002 2.5254693627357483e-001</leafValues></_>
        <_>
          <internalNodes>
            0 -1 180 2.2409850731492043e-002</internalNodes>
          <leafValues>
            -2.1884733438491821e-001 7.5955286622047424e-002</leafValues></_>
        <_>
          <internalNodes>
            0 -1 173 7.0736527442932129e-002</internalNodes>
          <leafValues>
            -3.9660692214965820e-002 4.3869379162788391e-001</leafValues></_>
        <_>
          <internalNodes>
            0 -1 27 1.3526808470487595e-003</internalNodes>
          <leafValues>
            1.7907945811748505e-001 -8.9745052158832550e-002</leafValues></_>
        <_>
          <internalNodes>
            0 -1 372 1.6201710700988770e-001</internalNodes>
          <leafValues>
            2.2096764296293259e-002 -7.6101100444793701e-001</leafValues></_>
        <_>
          <internalNodes>
            0 -1 387 5.9615280479192734e-002</internalNodes>
          <leafValues>
            -1.4174863696098328e-001 1.5002118051052094e-001</leafValues></_>
        <_>
          <internalNodes>
            0 -1 412 1.9237991422414780e-002</internalNodes>
          <leafValues>
            -1.1340095102787018e-001 1.8205565214157104e-001</leafValues></_>
        <_>
          <internalNodes>
            0 -1 204 4.6729808673262596e-004</internalNodes>
          <leafValues>
            3.5716491937637329e-001 -4.9891177564859390e-002</leafValues></_>
        <_>
          <internalNodes>
            0 -1 336 6.1602767556905746e-002</internalNodes>
          <leafValues>
            2.5628348812460899e-002 -6.4150619506835938e-001</leafValues></_>
        <_>
          <internalNodes>
            0 -1 10 1.4579178765416145e-002</internalNodes>
          <leafValues>
            -2.0102421939373016e-001 7.7142253518104553e-002</leafValues></_>
        <_>
          <internalNodes>
            0 -1 319 2.3786388337612152e-002</internalNodes>
          <leafValues>
            5.6726172566413879e-002 -2.9161763191223145e-001</leafValues></_>
        <_>
          <internalNodes>
            0 -1 192 7.8027084469795227e-002</internalNodes>
          <leafValues>
            -4.4371977448463440e-002 3.9300748705863953e-001</leafValues></_>
        <_>
          <internalNodes>
            0 -1 376 1.7967370804399252e-003</internalNodes>
          <leafValues>
            -3.0950468778610229e-001 5.7179346680641174e-002</leafValues></_>
        <_>
          <internalNodes>
            0 -1 119 6.1642425134778023e-004</internalNodes>
          <leafValues>
            2.7797144651412964e-001 -4.9960114061832428e-002</leafValues></_>
        <_>
          <internalNodes>
            0 -1 283 2.8514554724097252e-003</internalNodes>
          <leafValues>
            -3.0158320069313049e-001 6.1441149562597275e-002</leafValues></_>
        <_>
          <internalNodes>
            0 -1 244 5.8764935238286853e-004</internalNodes>
          <leafValues>
            3.1038510799407959e-001 -5.2604548633098602e-002</leafValues></_>
        <_>
          <internalNodes>
            0 -1 418 1.2457773555070162e-003</internalNodes>
          <leafValues>
            -7.4390876293182373e-001 2.6023503392934799e-002</leafValues></_>
        <_>
          <internalNodes>
            0 -1 409 6.1530016362667084e-002</internalNodes>
          <leafValues>
            -4.8244845122098923e-002 3.4113779664039612e-001</leafValues></_>
        <_>
          <internalNodes>
            0 -1 413 2.1827401593327522e-002</internalNodes>
          <leafValues>
            -9.2151351273059845e-002 1.6539141535758972e-001</leafValues></_>
        <_>
          <internalNodes>
            0 -1 392 5.1165927201509476e-002</internalNodes>
          <leafValues>
            -6.5910890698432922e-002 2.2984056174755096e-001</leafValues></_>
        <_>
          <internalNodes>
            0 -1 367 1.2014880776405334e-001</internalNodes>
          <leafValues>
            1.7388161271810532e-002 -8.8041645288467407e-001</leafValues></_>
        <_>
          <internalNodes>
            0 -1 88 9.9297019187361002e-004</internalNodes>
          <leafValues>
            2.1696463227272034e-001 -7.1136415004730225e-002</leafValues></_>
        <_>
          <internalNodes>
            0 -1 153 2.4580753233749419e-005</internalNodes>
          <leafValues>
            -4.9132809042930603e-001 2.4634443223476410e-002</leafValues></_>
        <_>
          <internalNodes>
            0 -1 36 7.9132744576781988e-004</internalNodes>
          <leafValues>
            3.7719279527664185e-001 -3.8070920854806900e-002</leafValues></_>
        <_>
          <internalNodes>
            0 -1 372 1.0879746079444885e-001</internalNodes>
          <leafValues>
            4.0668118745088577e-002 -3.6635673046112061e-001</leafValues></_>
        <_>
          <internalNodes>
            0 -1 41 9.2757433652877808e-002</internalNodes>
          <leafValues>
            -2.0000420510768890e-002 6.9361507892608643e-001</leafValues></_>
        <_>
          <internalNodes>
            0 -1 316 8.3439953625202179e-002</internalNodes>
          <leafValues>
            2.5258084759116173e-002 -6.6436153650283813e-001</leafValues></_>
        <_>
          <internalNodes>
            0 -1 40 6.1933703720569611e-002</internalNodes>
          <leafValues>
            -5.3381528705358505e-002 2.3984308540821075e-001</leafValues></_>
        <_>
          <internalNodes>
            0 -1 371 1.4185160398483276e-003</internalNodes>
          <leafValues>
            -5.7730704545974731e-001 2.0355183631181717e-002</leafValues></_>
        <_>
          <internalNodes>
            0 -1 222 7.7012588735669851e-004</internalNodes>
          <leafValues>
            3.4641724824905396e-001 -4.6697456389665604e-002</leafValues></_>
        <_>
          <internalNodes>
            0 -1 424 1.5244436217471957e-003</internalNodes>
          <leafValues>
            -6.1444526910781860e-001 2.1973220631480217e-002</leafValues></_>
        <_>
          <internalNodes>
            0 -1 300 3.4243214875459671e-002</internalNodes>
          <leafValues>
            -7.7826187014579773e-002 1.6638785600662231e-001</leafValues></_>
        <_>
          <internalNodes>
            0 -1 160 1.4512098859995604e-003</internalNodes>
          <leafValues>
            1.8198266625404358e-001 -7.4961028993129730e-002</leafValues></_>
        <_>
          <internalNodes>
            0 -1 383 3.3207863569259644e-002</internalNodes>
          <leafValues>
            3.2301988452672958e-002 -4.1945096850395203e-001</leafValues></_>
        <_>
          <internalNodes>
            0 -1 5 8.2889507757499814e-004</internalNodes>
          <leafValues>
            2.0551359653472900e-001 -7.4438795447349548e-002</leafValues></_>
        <_>
          <internalNodes>
            0 -1 326 7.4428394436836243e-002</internalNodes>
          <leafValues>
            2.6189485564827919e-002 -5.6070280075073242e-001</leafValues></_>
        <_>
          <internalNodes>
            0 -1 301 2.3763712961226702e-003</internalNodes>
          <leafValues>
            -5.0821119546890259e-001 2.2617094218730927e-002</leafValues></_>
        <_>
          <internalNodes>
            0 -1 16 4.4966634595766664e-004</internalNodes>
          <leafValues>
            2.6370465755462646e-001 -4.4827941805124283e-002</leafValues></_>
        <_>
          <internalNodes>
            0 -1 292 9.5698412042111158e-004</internalNodes>
          <leafValues>
            -3.7939828634262085e-001 4.0796592831611633e-002</leafValues></_>
        <_>
          <internalNodes>
            0 -1 1 7.2835914790630341e-002</internalNodes>
          <leafValues>
            1.5676578506827354e-002 -7.1285325288772583e-001</leafValues></_>
        <_>
          <internalNodes>
            0 -1 104 1.1325719952583313e-001</internalNodes>
          <leafValues>
            9.6796760335564613e-003 -8.8478004932403564e-001</leafValues></_>
        <_>
          <internalNodes>
            0 -1 25 3.8747294456698000e-004</internalNodes>
          <leafValues>
            1.9538554549217224e-001 -6.0354374349117279e-002</leafValues></_>
        <_>
          <internalNodes>
            0 -1 293 4.1149591561406851e-004</internalNodes>
          <leafValues>
            -3.2287555932998657e-001 4.0728952735662460e-002</leafValues></_>
        <_>
          <internalNodes>
            0 -1 233 9.5284654526039958e-004</internalNodes>
          <leafValues>
            2.3626641929149628e-001 -5.0449006259441376e-002</leafValues></_>
        <_>
          <internalNodes>
            0 -1 139 6.2856689095497131e-002</internalNodes>
          <leafValues>
            2.2634252905845642e-002 -5.3125602006912231e-001</leafValues></_>
        <_>
          <internalNodes>
            0 -1 283 5.4465092718601227e-002</internalNodes>
          <leafValues>
            -4.1252493858337402e-002 3.1439816951751709e-001</leafValues></_>
        <_>
          <internalNodes>
            0 -1 387 7.7839232981204987e-003</internalNodes>
          <leafValues>
            -5.6602531671524048e-001 2.2804681211709976e-002</leafValues></_>
        <_>
          <internalNodes>
            0 -1 115 5.7726837694644928e-002</internalNodes>
          <leafValues>
            -1.9070867449045181e-002 6.5045350790023804e-001</leafValues></_>
        <_>
          <internalNodes>
            0 -1 356 2.6667185127735138e-002</internalNodes>
          <leafValues>
            -1.2658104300498962e-001 8.4965221583843231e-002</leafValues></_>
        <_>
          <internalNodes>
            0 -1 264 7.0591492112725973e-004</internalNodes>
          <leafValues>
            3.6013218760490417e-001 -3.4560941159725189e-002</leafValues></_>
        <_>
          <internalNodes>
            0 -1 147 4.3085493147373199e-002</internalNodes>
          <leafValues>
            -3.1212585046887398e-002 3.2334160804748535e-001</leafValues></_>
        <_>
          <internalNodes>
            0 -1 379 4.8726655542850494e-002</internalNodes>
          <leafValues>
            -1.4109566807746887e-001 8.9091412723064423e-002</leafValues></_>
        <_>
          <internalNodes>
            0 -1 411 9.8757985979318619e-003</internalNodes>
          <leafValues>
            -1.9812834262847900e-001 6.0607422143220901e-002</leafValues></_>
        <_>
          <internalNodes>
            0 -1 53 1.2432087678462267e-003</internalNodes>
          <leafValues>
            1.9132027029991150e-001 -5.9848207980394363e-002</leafValues></_>
        <_>
          <internalNodes>
            0 -1 73 2.6082610711455345e-002</internalNodes>
          <leafValues>
            -6.6374160349369049e-002 1.7238660156726837e-001</leafValues></_>
        <_>
          <internalNodes>
            0 -1 153 5.2752733230590820e-002</internalNodes>
          <leafValues>
            -4.9337554723024368e-002 2.2268454730510712e-001</leafValues></_>
        <_>
          <internalNodes>
            0 -1 14 3.1257648515747860e-005</internalNodes>
          <leafValues>
            -6.1852908134460449e-001 1.7850419506430626e-002</leafValues></_>
        <_>
          <internalNodes>
            0 -1 162 3.7008387153036892e-004</internalNodes>
          <leafValues>
            3.3035692572593689e-001 -3.8075622171163559e-002</leafValues></_>
        <_>
          <internalNodes>
            0 -1 392 3.4795895218849182e-002</internalNodes>
          <leafValues>
            -8.7419413030147552e-002 1.3137763738632202e-001</leafValues></_>
        <_>
          <internalNodes>
            0 -1 158 2.7024742215871811e-002</internalNodes>
          <leafValues>
            8.2668334245681763e-002 -1.5101563930511475e-001</leafValues></_>
        <_>
          <internalNodes>
            0 -1 385 2.4501853622496128e-003</internalNodes>
          <leafValues>
            -2.9016971588134766e-001 4.2559701949357986e-002</leafValues></_>
        <_>
          <internalNodes>
            0 -1 4 4.8463242128491402e-003</internalNodes>
          <leafValues>
            1.0428620874881744e-001 -1.1580102145671844e-001</leafValues></_>
        <_>
          <internalNodes>
            0 -1 29 5.3792238235473633e-002</internalNodes>
          <leafValues>
            -2.5820853188633919e-002 4.6537241339683533e-001</leafValues></_>
        <_>
          <internalNodes>
            0 -1 297 1.7596153914928436e-001</internalNodes>
          <leafValues>
            1.6447039321064949e-002 -7.5503021478652954e-001</leafValues></_>
        <_>
          <internalNodes>
            0 -1 56 2.3755422444082797e-004</internalNodes>
          <leafValues>
            3.2496345043182373e-001 -3.8722407072782516e-002</leafValues></_>
        <_>
          <internalNodes>
            0 -1 347 2.5550904683768749e-003</internalNodes>
          <leafValues>
            -2.8071039915084839e-001 4.2845994234085083e-002</leafValues></_>
        <_>
          <internalNodes>
            0 -1 278 7.3490321636199951e-002</internalNodes>
          <leafValues>
            -9.1095842421054840e-002 1.2710013985633850e-001</leafValues></_>
        <_>
          <internalNodes>
            0 -1 156 5.2123843488516286e-005</internalNodes>
          <leafValues>
            -3.1231379508972168e-001 3.1847450882196426e-002</leafValues></_>
        <_>
          <internalNodes>
            0 -1 2 1.6692327335476875e-003</internalNodes>
          <leafValues>
            1.4930181205272675e-001 -7.0318423211574554e-002</leafValues></_>
        <_>
          <internalNodes>
            0 -1 33 3.1541055068373680e-004</internalNodes>
          <leafValues>
            3.7436175346374512e-001 -3.0976464971899986e-002</leafValues></_>
        <_>
          <internalNodes>
            0 -1 18 1.2204220547573641e-004</internalNodes>
          <leafValues>
            -3.3796176314353943e-001 3.3498704433441162e-002</leafValues></_>
        <_>
          <internalNodes>
            0 -1 41 7.0372538175433874e-004</internalNodes>
          <leafValues>
            2.5429335236549377e-001 -4.5856337994337082e-002</leafValues></_></weakClassifiers></_>
    <!-- stage 21 -->
    <_>
      <maxWeakCount>100</maxWeakCount>
      <stageThreshold>2.9950261116027832e-002</stageThreshold>
      <weakClassifiers>
        <_>
          <internalNodes>
            0 -1 119 1.2660247087478638e-001</internalNodes>
          <leafValues>
            9.3060249090194702e-001 -8.6666667461395264e-001</leafValues></_>
        <_>
          <internalNodes>
            0 -1 4 9.6687802579253912e-004</internalNodes>
          <leafValues>
            7.7813577651977539e-001 4.1932243108749390e-001</leafValues></_>
        <_>
          <internalNodes>
            0 -1 242 1.0609210003167391e-003</internalNodes>
          <leafValues>
            5.8609348535537720e-001 -4.6063605695962906e-002</leafValues></_>
        <_>
          <internalNodes>
            0 -1 88 5.5783311836421490e-004</internalNodes>
          <leafValues>
            4.1941910982131958e-001 -1.2009220570325851e-001</leafValues></_>
        <_>
          <internalNodes>
            0 -1 159 7.9904450103640556e-004</internalNodes>
          <leafValues>
            2.7866974472999573e-001 -2.0670238137245178e-001</leafValues></_>
        <_>
          <internalNodes>
            0 -1 150 1.4593490399420261e-002</internalNodes>
          <leafValues>
            -2.6733127236366272e-001 1.7518362402915955e-001</leafValues></_>
        <_>
          <internalNodes>
            0 -1 2 4.9379264237359166e-004</internalNodes>
          <leafValues>
            2.8128352761268616e-001 -1.1863403767347336e-001</leafValues></_>
        <_>
          <internalNodes>
            0 -1 370 1.9411750137805939e-002</internalNodes>
          <leafValues>
            -1.8099962174892426e-001 1.7651709914207458e-001</leafValues></_>
        <_>
          <internalNodes>
            0 -1 57 1.3218686217442155e-004</internalNodes>
          <leafValues>
            6.0093414783477783e-001 -6.2956221401691437e-002</leafValues></_>
        <_>
          <internalNodes>
            0 -1 330 2.0062491297721863e-002</internalNodes>
          <leafValues>
            8.6473919451236725e-002 -3.9318272471427917e-001</leafValues></_>
        <_>
          <internalNodes>
            0 -1 354 5.8461877051740885e-004</internalNodes>
          <leafValues>
            -8.5513240098953247e-001 3.4685038030147552e-002</leafValues></_>
        <_>
          <internalNodes>
            0 -1 153 3.1610004603862762e-002</internalNodes>
          <leafValues>
            -1.3634581863880157e-001 1.9662991166114807e-001</leafValues></_>
        <_>
          <internalNodes>
            0 -1 3 1.6098566120490432e-003</internalNodes>
          <leafValues>
            1.5281417965888977e-001 -1.6238053143024445e-001</leafValues></_>
        <_>
          <internalNodes>
            0 -1 402 4.8002351075410843e-002</internalNodes>
          <leafValues>
            -1.0502290725708008e-001 2.7315539121627808e-001</leafValues></_>
        <_>
          <internalNodes>
            0 -1 387 3.7852846086025238e-002</internalNodes>
          <leafValues>
            -2.3183570802211761e-001 1.0390019416809082e-001</leafValues></_>
        <_>
          <internalNodes>
            0 -1 419 1.6214849054813385e-001</internalNodes>
          <leafValues>
            4.1696317493915558e-002 -6.4578312635421753e-001</leafValues></_>
        <_>
          <internalNodes>
            0 -1 296 3.3861309930216521e-005</internalNodes>
          <leafValues>
            -5.5796706676483154e-001 3.9951443672180176e-002</leafValues></_>
        <_>
          <internalNodes>
            0 -1 185 8.8409357704222202e-004</internalNodes>
          <leafValues>
            3.4269374608993530e-001 -7.2316586971282959e-002</leafValues></_>
        <_>
          <internalNodes>
            0 -1 263 7.3759377002716064e-002</internalNodes>
          <leafValues>
            -7.6512753963470459e-002 3.0010530352592468e-001</leafValues></_>
        <_>
          <internalNodes>
            0 -1 301 3.0566137284040451e-003</internalNodes>
          <leafValues>
            -5.6173807382583618e-001 3.8085516542196274e-002</leafValues></_>
        <_>
          <internalNodes>
            0 -1 27 5.0546880811452866e-004</internalNodes>
          <leafValues>
            2.5817722082138062e-001 -8.9686937630176544e-002</leafValues></_>
        <_>
          <internalNodes>
            0 -1 362 1.7967704683542252e-002</internalNodes>
          <leafValues>
            -1.7200013995170593e-001 1.2824293971061707e-001</leafValues></_>
        <_>
          <internalNodes>
            0 -1 157 8.9595786994323134e-004</internalNodes>
          <leafValues>
            -5.8597910404205322e-001 3.5428278148174286e-002</leafValues></_>
        <_>
          <internalNodes>
            0 -1 196 1.3140633702278137e-002</internalNodes>
          <leafValues>
            -3.9213588833808899e-001 4.8257362097501755e-002</leafValues></_>
        <_>
          <internalNodes>
            0 -1 97 5.7095137890428305e-004</internalNodes>
          <leafValues>
            3.2773450016975403e-001 -6.7813284695148468e-002</leafValues></_>
        <_>
          <internalNodes>
            0 -1 294 2.9820509254932404e-002</internalNodes>
          <leafValues>
            5.4958194494247437e-002 -3.5129582881927490e-001</leafValues></_>
        <_>
          <internalNodes>
            0 -1 105 8.3233118057250977e-002</internalNodes>
          <leafValues>
            2.0293243229389191e-002 -7.9177063703536987e-001</leafValues></_>
        <_>
          <internalNodes>
            0 -1 233 6.8185792770236731e-004</internalNodes>
          <leafValues>
            2.7595815062522888e-001 -6.9516390562057495e-002</leafValues></_>
        <_>
          <internalNodes>
            0 -1 394 2.4030350148677826e-002</internalNodes>
          <leafValues>
            8.4754586219787598e-002 -2.3505574464797974e-001</leafValues></_>
        <_>
          <internalNodes>
            0 -1 425 4.6589327976107597e-003</internalNodes>
          <leafValues>
            -3.1941208243370056e-001 6.2180913984775543e-002</leafValues></_>
        <_>
          <internalNodes>
            0 -1 301 3.7991315126419067e-002</internalNodes>
          <leafValues>
            -9.9029548466205597e-002 1.9929452240467072e-001</leafValues></_>
        <_>
          <internalNodes>
            0 -1 141 2.8063305653631687e-003</internalNodes>
          <leafValues>
            -5.9678798913955688e-001 3.2619450241327286e-002</leafValues></_>
        <_>
          <internalNodes>
            0 -1 160 2.7560078888200223e-004</internalNodes>
          <leafValues>
            2.2772453725337982e-001 -8.1787958741188049e-002</leafValues></_>
        <_>
          <internalNodes>
            0 -1 371 8.5984560428187251e-004</internalNodes>
          <leafValues>
            -6.9894427061080933e-001 2.6089420542120934e-002</leafValues></_>
        <_>
          <internalNodes>
            0 -1 163 1.4500811696052551e-001</internalNodes>
          <leafValues>
            2.1607106551527977e-002 -6.4386743307113647e-001</leafValues></_>
        <_>
          <internalNodes>
            0 -1 219 2.4943839525803924e-004</internalNodes>
          <leafValues>
            4.0223893523216248e-001 -4.7076418995857239e-002</leafValues></_>
        <_>
          <internalNodes>
            0 -1 179 7.8762181103229523e-002</internalNodes>
          <leafValues>
            -3.6181978881359100e-002 4.4786593317985535e-001</leafValues></_>
        <_>
          <internalNodes>
            0 -1 62 1.2180816847831011e-003</internalNodes>
          <leafValues>
            -7.2813344001770020e-001 2.5119926780462265e-002</leafValues></_>
        <_>
          <internalNodes>
            0 -1 4 4.2921025305986404e-003</internalNodes>
          <leafValues>
            1.0989747196435928e-001 -1.3136450946331024e-001</leafValues></_>
        <_>
          <internalNodes>
            0 -1 154 3.1481035053730011e-002</internalNodes>
          <leafValues>
            -6.7350633442401886e-002 2.6834547519683838e-001</leafValues></_>
        <_>
          <internalNodes>
            0 -1 169 6.1230607330799103e-002</internalNodes>
          <leafValues>
            -5.6007981300354004e-002 2.9564535617828369e-001</leafValues></_>
        <_>
          <internalNodes>
            0 -1 52 4.2029436677694321e-002</internalNodes>
          <leafValues>
            -5.2925936877727509e-002 2.6821202039718628e-001</leafValues></_>
        <_>
          <internalNodes>
            0 -1 112 3.0094047542661428e-004</internalNodes>
          <leafValues>
            2.5867134332656860e-001 -4.9027130007743835e-002</leafValues></_>
        <_>
          <internalNodes>
            0 -1 307 1.2400822015479207e-005</internalNodes>
          <leafValues>
            -5.9739404916763306e-001 2.7204217389225960e-002</leafValues></_>
        <_>
          <internalNodes>
            0 -1 99 9.0994330821558833e-004</internalNodes>
          <leafValues>
            2.3179741203784943e-001 -6.8357236683368683e-002</leafValues></_>
        <_>
          <internalNodes>
            0 -1 355 1.7289751768112183e-001</internalNodes>
          <leafValues>
            2.6215918362140656e-002 -5.4531896114349365e-001</leafValues></_>
        <_>
          <internalNodes>
            0 -1 325 5.8652967214584351e-002</internalNodes>
          <leafValues>
            3.0088940635323524e-002 -4.1640919446945190e-001</leafValues></_>
        <_>
          <internalNodes>
            0 -1 9 3.6762103438377380e-002</internalNodes>
          <leafValues>
            -8.5705928504467010e-002 1.7016033828258514e-001</leafValues></_>
        <_>
          <internalNodes>
            0 -1 288 3.4726722515188158e-004</internalNodes>
          <leafValues>
            3.7935829162597656e-001 -3.5951521247625351e-002</leafValues></_>
        <_>
          <internalNodes>
            0 -1 427 4.7518638893961906e-005</internalNodes>
          <leafValues>
            -4.4875377416610718e-001 3.6603186279535294e-002</leafValues></_>
        <_>
          <internalNodes>
            0 -1 272 8.4038841305300593e-004</internalNodes>
          <leafValues>
            3.1718847155570984e-001 -4.6460483223199844e-002</leafValues></_>
        <_>
          <internalNodes>
            0 -1 173 6.8310402333736420e-002</internalNodes>
          <leafValues>
            -3.4688405692577362e-002 3.5684069991111755e-001</leafValues></_>
        <_>
          <internalNodes>
            0 -1 315 8.7255451944656670e-005</internalNodes>
          <leafValues>
            -7.1840918064117432e-001 1.8741168081760406e-002</leafValues></_>
        <_>
          <internalNodes>
            0 -1 53 2.6770599652081728e-004</internalNodes>
          <leafValues>
            2.5184702873229980e-001 -5.8423243463039398e-002</leafValues></_>
        <_>
          <internalNodes>
            0 -1 190 1.2706946581602097e-002</internalNodes>
          <leafValues>
            -1.2690871953964233e-001 1.2470163404941559e-001</leafValues></_>
        <_>
          <internalNodes>
            0 -1 228 1.0173146426677704e-001</internalNodes>
          <leafValues>
            -2.0935650914907455e-002 5.4538142681121826e-001</leafValues></_>
        <_>
          <internalNodes>
            0 -1 189 5.7087492197751999e-002</internalNodes>
          <leafValues>
            -8.1580214202404022e-002 1.4968711137771606e-001</leafValues></_>
        <_>
          <internalNodes>
            0 -1 167 2.4525986984372139e-002</internalNodes>
          <leafValues>
            -9.0493910014629364e-002 1.4195841550827026e-001</leafValues></_>
        <_>
          <internalNodes>
            0 -1 333 5.7079322636127472e-002</internalNodes>
          <leafValues>
            -6.2506683170795441e-002 1.8146297335624695e-001</leafValues></_>
        <_>
          <internalNodes>
            0 -1 283 3.8213655352592468e-002</internalNodes>
          <leafValues>
            -6.0692574828863144e-002 2.2686725854873657e-001</leafValues></_>
        <_>
          <internalNodes>
            0 -1 266 5.3802929818630219e-002</internalNodes>
          <leafValues>
            3.1465511769056320e-002 -4.2575666308403015e-001</leafValues></_>
        <_>
          <internalNodes>
            0 -1 13 3.1874992419034243e-004</internalNodes>
          <leafValues>
            -3.7071678042411804e-001 2.9949456453323364e-002</leafValues></_>
        <_>
          <internalNodes>
            0 -1 3 1.0410227812826633e-002</internalNodes>
          <leafValues>
            7.5765304267406464e-002 -1.6687105596065521e-001</leafValues></_>
        <_>
          <internalNodes>
            0 -1 155 4.1003726422786713e-002</internalNodes>
          <leafValues>
            -5.4965496063232422e-002 2.9631388187408447e-001</leafValues></_>
        <_>
          <internalNodes>
            0 -1 332 5.9131942689418793e-002</internalNodes>
          <leafValues>
            -1.0602023452520370e-001 1.1071542650461197e-001</leafValues></_>
        <_>
          <internalNodes>
            0 -1 96 1.6266487538814545e-002</internalNodes>
          <leafValues>
            1.8858008086681366e-001 -8.8098786771297455e-002</leafValues></_>
        <_>
          <internalNodes>
            0 -1 375 2.0970390178263187e-003</internalNodes>
          <leafValues>
            -2.9570490121841431e-001 4.8909686505794525e-002</leafValues></_>
        <_>
          <internalNodes>
            0 -1 206 3.1414808472618461e-004</internalNodes>
          <leafValues>
            3.6318963766098022e-001 -3.5791300237178802e-002</leafValues></_>
        <_>
          <internalNodes>
            0 -1 406 2.1167045459151268e-002</internalNodes>
          <leafValues>
            5.3817894309759140e-002 -2.2475330531597137e-001</leafValues></_>
        <_>
          <internalNodes>
            0 -1 238 1.9820265471935272e-001</internalNodes>
          <leafValues>
            2.2832963615655899e-002 -4.9280023574829102e-001</leafValues></_>
        <_>
          <internalNodes>
            0 -1 145 5.8670109137892723e-003</internalNodes>
          <leafValues>
            -1.6566397249698639e-001 6.4140439033508301e-002</leafValues></_>
        <_>
          <internalNodes>
            0 -1 85 9.3990921974182129e-002</internalNodes>
          <leafValues>
            -2.9088350012898445e-002 3.8391619920730591e-001</leafValues></_>
        <_>
          <internalNodes>
            0 -1 278 7.3085620999336243e-002</internalNodes>
          <leafValues>
            -9.4770379364490509e-002 1.2273566424846649e-001</leafValues></_>
        <_>
          <internalNodes>
            0 -1 1 9.4526410102844238e-002</internalNodes>
          <leafValues>
            1.0820196010172367e-002 -9.0337574481964111e-001</leafValues></_>
        <_>
          <internalNodes>
            0 -1 248 2.0513960719108582e-001</internalNodes>
          <leafValues>
            1.9679911434650421e-002 -4.4911786913871765e-001</leafValues></_>
        <_>
          <internalNodes>
            0 -1 395 1.2100850790739059e-001</internalNodes>
          <leafValues>
            1.1121372692286968e-002 -8.7356263399124146e-001</leafValues></_>
        <_>
          <internalNodes>
            0 -1 244 5.3510639816522598e-002</internalNodes>
          <leafValues>
            -3.2180614769458771e-002 4.1960588097572327e-001</leafValues></_>
        <_>
          <internalNodes>
            0 -1 224 3.6204999196343124e-004</internalNodes>
          <leafValues>
            2.9908284544944763e-001 -3.3271882683038712e-002</leafValues></_>
        <_>
          <internalNodes>
            0 -1 290 1.3536030054092407e-001</internalNodes>
          <leafValues>
            3.2711867243051529e-002 -3.1464204192161560e-001</leafValues></_>
        <_>
          <internalNodes>
            0 -1 264 5.3104880498722196e-004</internalNodes>
          <leafValues>
            3.6111369729042053e-001 -3.2099209725856781e-002</leafValues></_>
        <_>
          <internalNodes>
            0 -1 377 4.5294299721717834e-002</internalNodes>
          <leafValues>
            3.5895090550184250e-002 -3.6806935071945190e-001</leafValues></_>
        <_>
          <internalNodes>
            0 -1 235 2.5224760174751282e-002</internalNodes>
          <leafValues>
            -6.9372788071632385e-002 1.7308422923088074e-001</leafValues></_>
        <_>
          <internalNodes>
            0 -1 319 2.2857287898659706e-002</internalNodes>
          <leafValues>
            5.4025821387767792e-002 -2.5291308760643005e-001</leafValues></_>
        <_>
          <internalNodes>
            0 -1 184 1.3967562466859818e-002</internalNodes>
          <leafValues>
            7.9570144414901733e-002 -1.2555813789367676e-001</leafValues></_>
        <_>
          <internalNodes>
            0 -1 300 3.8018293678760529e-002</internalNodes>
          <leafValues>
            -6.6572248935699463e-002 1.8868115544319153e-001</leafValues></_>
        <_>
          <internalNodes>
            0 -1 213 1.5501854068133980e-004</internalNodes>
          <leafValues>
            -4.5364713668823242e-001 2.6465639472007751e-002</leafValues></_>
        <_>
          <internalNodes>
            0 -1 43 2.9725010972470045e-004</internalNodes>
          <leafValues>
            2.2740869224071503e-001 -4.6469349414110184e-002</leafValues></_>
        <_>
          <internalNodes>
            0 -1 342 1.3569953807746060e-005</internalNodes>
          <leafValues>
            -5.4283493757247925e-001 2.3885615170001984e-002</leafValues></_>
        <_>
          <internalNodes>
            0 -1 117 2.1437671035528183e-002</internalNodes>
          <leafValues>
            1.2633989751338959e-001 -8.1026785075664520e-002</leafValues></_>
        <_>
          <internalNodes>
            0 -1 134 5.8880914002656937e-002</internalNodes>
          <leafValues>
            -5.9534724801778793e-002 1.9487273693084717e-001</leafValues></_>
        <_>
          <internalNodes>
            0 -1 351 2.1962719038128853e-003</internalNodes>
          <leafValues>
            -2.2322763502597809e-001 5.1713068038225174e-002</leafValues></_>
        <_>
          <internalNodes>
            0 -1 120 6.1555916909128428e-004</internalNodes>
          <leafValues>
            2.2745421528816223e-001 -5.2400544285774231e-002</leafValues></_>
        <_>
          <internalNodes>
            0 -1 214 2.7647548913955688e-001</internalNodes>
          <leafValues>
            1.0193465277552605e-002 -8.9720141887664795e-001</leafValues></_>
        <_>
          <internalNodes>
            0 -1 91 8.9504174888134003e-002</internalNodes>
          <leafValues>
            -2.6914609596133232e-002 4.0186735987663269e-001</leafValues></_>
        <_>
          <internalNodes>
            0 -1 2 1.0493157897144556e-003</internalNodes>
          <leafValues>
            1.6036064922809601e-001 -5.9422448277473450e-002</leafValues></_>
        <_>
          <internalNodes>
            0 -1 18 1.9316615536808968e-002</internalNodes>
          <leafValues>
            -1.1100350320339203e-001 9.8970219492912292e-002</leafValues></_>
        <_>
          <internalNodes>
            0 -1 90 1.9417016301304102e-004</internalNodes>
          <leafValues>
            2.5704631209373474e-001 -3.6950342357158661e-002</leafValues></_>
        <_>
          <internalNodes>
            0 -1 153 2.4580753233749419e-005</internalNodes>
          <leafValues>
            -4.8404046893119812e-001 2.1898202598094940e-002</leafValues></_>
        <_>
          <internalNodes>
            0 -1 411 1.6212251037359238e-002</internalNodes>
          <leafValues>
            -1.3861885666847229e-001 7.7909603714942932e-002</leafValues></_>
        <_>
          <internalNodes>
            0 -1 34 2.0157676772214472e-004</internalNodes>
          <leafValues>
            3.2161104679107666e-001 -3.5095140337944031e-002</leafValues></_></weakClassifiers></_>
    <!-- stage 22 -->
    <_>
      <maxWeakCount>100</maxWeakCount>
      <stageThreshold>2.7283290401101112e-002</stageThreshold>
      <weakClassifiers>
        <_>
          <internalNodes>
            0 -1 62 5.2721596148330718e-005</internalNodes>
          <leafValues>
            -4.2857143282890320e-001 9.3132835626602173e-001</leafValues></_>
        <_>
          <internalNodes>
            0 -1 259 2.1092998795211315e-003</internalNodes>
          <leafValues>
            8.4453046321868896e-001 4.6068239212036133e-001</leafValues></_>
        <_>
          <internalNodes>
            0 -1 4 5.0510326400399208e-004</internalNodes>
          <leafValues>
            4.7299054265022278e-001 -1.2418837100267410e-001</leafValues></_>
        <_>
          <internalNodes>
            0 -1 88 7.5042655225843191e-004</internalNodes>
          <leafValues>
            4.6408027410507202e-001 -1.5687051415443420e-001</leafValues></_>
        <_>
          <internalNodes>
            0 -1 160 2.0295353606343269e-003</internalNodes>
          <leafValues>
            2.4707259237766266e-001 -2.2639265656471252e-001</leafValues></_>
        <_>
          <internalNodes>
            0 -1 353 3.0167359858751297e-002</internalNodes>
          <leafValues>
            8.5498578846454620e-002 -5.7809662818908691e-001</leafValues></_>
        <_>
          <internalNodes>
            0 -1 229 7.3444411158561707e-002</internalNodes>
          <leafValues>
            -9.2184126377105713e-002 4.9236431717872620e-001</leafValues></_>
        <_>
          <internalNodes>
            0 -1 215 2.0706543000414968e-004</internalNodes>
          <leafValues>
            5.2172970771789551e-001 -5.7334300130605698e-002</leafValues></_>
        <_>
          <internalNodes>
            0 -1 292 1.9382471218705177e-003</internalNodes>
          <leafValues>
            -5.1971721649169922e-001 7.3808617889881134e-002</leafValues></_>
        <_>
          <internalNodes>
            0 -1 27 3.5466728149913251e-004</internalNodes>
          <leafValues>
            3.1416746973991394e-001 -1.1925941705703735e-001</leafValues></_>
        <_>
          <internalNodes>
            0 -1 151 1.1076884344220161e-002</internalNodes>
          <leafValues>
            -2.4205909669399261e-001 1.3304845988750458e-001</leafValues></_>
        <_>
          <internalNodes>
            0 -1 427 1.7388099804520607e-002</internalNodes>
          <leafValues>
            1.1842893809080124e-001 -2.3836366832256317e-001</leafValues></_>
        <_>
          <internalNodes>
            0 -1 128 2.5857126456685364e-004</internalNodes>
          <leafValues>
            3.7457126379013062e-001 -7.2759605944156647e-002</leafValues></_>
        <_>
          <internalNodes>
            0 -1 145 5.5969255045056343e-003</internalNodes>
          <leafValues>
            -2.4686503410339355e-001 1.0502590239048004e-001</leafValues></_>
        <_>
          <internalNodes>
            0 -1 185 8.6291751358658075e-004</internalNodes>
          <leafValues>
            3.3702456951141357e-001 -7.4707441031932831e-002</leafValues></_>
        <_>
          <internalNodes>
            0 -1 10 1.1164581403136253e-002</internalNodes>
          <leafValues>
            -3.1622344255447388e-001 9.1724798083305359e-002</leafValues></_>
        <_>
          <internalNodes>
            0 -1 332 5.6160882115364075e-002</internalNodes>
          <leafValues>
            -1.7967411875724792e-001 1.5635901689529419e-001</leafValues></_>
        <_>
          <internalNodes>
            0 -1 13 3.6889120936393738e-002</internalNodes>
          <leafValues>
            -1.1983609944581985e-001 2.3425039649009705e-001</leafValues></_>
        <_>
          <internalNodes>
            0 -1 331 9.9527649581432343e-004</internalNodes>
          <leafValues>
            -7.3471724987030029e-001 3.3622682094573975e-002</leafValues></_>
        <_>
          <internalNodes>
            0 -1 3 3.5859533818438649e-004</internalNodes>
          <leafValues>
            1.9278092682361603e-001 -1.4460571110248566e-001</leafValues></_>
        <_>
          <internalNodes>
            0 -1 297 1.4127168059349060e-001</internalNodes>
          <leafValues>
            3.9772890508174896e-002 -6.3958179950714111e-001</leafValues></_>
        <_>
          <internalNodes>
            0 -1 126 9.1331399977207184e-002</internalNodes>
          <leafValues>
            -1.0625278949737549e-001 2.5372704863548279e-001</leafValues></_>
        <_>
          <internalNodes>
            0 -1 134 1.1509658396244049e-001</internalNodes>
          <leafValues>
            -3.4202925860881805e-002 6.1945396661758423e-001</leafValues></_>
        <_>
          <internalNodes>
            0 -1 267 1.0896738618612289e-001</internalNodes>
          <leafValues>
            2.8922863304615021e-002 -8.3232414722442627e-001</leafValues></_>
        <_>
          <internalNodes>
            0 -1 106 6.3335569575428963e-004</internalNodes>
          <leafValues>
            4.0547943115234375e-001 -5.5806085467338562e-002</leafValues></_>
        <_>
          <internalNodes>
            0 -1 342 4.4158097356557846e-002</internalNodes>
          <leafValues>
            3.4782890230417252e-002 -6.6323208808898926e-001</leafValues></_>
        <_>
          <internalNodes>
            0 -1 159 1.1463714763522148e-003</internalNodes>
          <leafValues>
            2.0210473239421844e-001 -1.0169627517461777e-001</leafValues></_>
        <_>
          <internalNodes>
            0 -1 369 1.8507413566112518e-002</internalNodes>
          <leafValues>
            -1.1470703035593033e-001 1.8259939551353455e-001</leafValues></_>
        <_>
          <internalNodes>
            0 -1 7 5.7544890791177750e-002</internalNodes>
          <leafValues>
            -5.0670679658651352e-002 3.6314207315444946e-001</leafValues></_>
        <_>
          <internalNodes>
            0 -1 343 3.1860144808888435e-003</internalNodes>
          <leafValues>
            -4.4764572381973267e-001 4.2162202298641205e-002</leafValues></_>
        <_>
          <internalNodes>
            0 -1 243 3.2642949372529984e-004</internalNodes>
          <leafValues>
            3.0067881941795349e-001 -7.3382459580898285e-002</leafValues></_>
        <_>
          <internalNodes>
            0 -1 262 2.8825037181377411e-002</internalNodes>
          <leafValues>
            -2.1497842669487000e-001 8.4407299757003784e-002</leafValues></_>
        <_>
          <internalNodes>
            0 -1 214 2.5282263755798340e-001</internalNodes>
          <leafValues>
            2.1188881248235703e-002 -8.6963397264480591e-001</leafValues></_>
        <_>
          <internalNodes>
            0 -1 420 5.9238765388727188e-003</internalNodes>
          <leafValues>
            -2.1067380905151367e-001 6.9899752736091614e-002</leafValues></_>
        <_>
          <internalNodes>
            0 -1 98 2.3908608127385378e-003</internalNodes>
          <leafValues>
            2.0969098806381226e-001 -8.6071267724037170e-002</leafValues></_>
        <_>
          <internalNodes>
            0 -1 398 6.5308317542076111e-002</internalNodes>
          <leafValues>
            -6.1904832720756531e-002 2.6966714859008789e-001</leafValues></_>
        <_>
          <internalNodes>
            0 -1 226 6.7609203979372978e-003</internalNodes>
          <leafValues>
            -5.0981253385543823e-001 3.1089609488844872e-002</leafValues></_>
        <_>
          <internalNodes>
            0 -1 235 2.4784341454505920e-002</internalNodes>
          <leafValues>
            -8.0351985991001129e-002 2.1827693283557892e-001</leafValues></_>
        <_>
          <internalNodes>
            0 -1 17 1.1914160568267107e-003</internalNodes>
          <leafValues>
            2.2463653981685638e-001 -7.9332590103149414e-002</leafValues></_>
        <_>
          <internalNodes>
            0 -1 50 7.7711693942546844e-002</internalNodes>
          <leafValues>
            2.7469098567962646e-002 -6.2769031524658203e-001</leafValues></_>
        <_>
          <internalNodes>
            0 -1 364 2.1608555689454079e-002</internalNodes>
          <leafValues>
            -1.5210358798503876e-001 1.3171122968196869e-001</leafValues></_>
        <_>
          <internalNodes>
            0 -1 195 9.2904582619667053e-002</internalNodes>
          <leafValues>
            -3.0638314783573151e-002 5.5639684200286865e-001</leafValues></_>
        <_>
          <internalNodes>
            0 -1 32 5.2231580018997192e-002</internalNodes>
          <leafValues>
            -7.6203100383281708e-002 2.4424791336059570e-001</leafValues></_>
        <_>
          <internalNodes>
            0 -1 71 9.9330954253673553e-002</internalNodes>
          <leafValues>
            2.3061921820044518e-002 -7.6540154218673706e-001</leafValues></_>
        <_>
          <internalNodes>
            0 -1 363 5.1818215288221836e-003</internalNodes>
          <leafValues>
            -3.1531500816345215e-001 4.6666890382766724e-002</leafValues></_>
        <_>
          <internalNodes>
            0 -1 167 2.3675945703871548e-004</internalNodes>
          <leafValues>
            4.3926352262496948e-001 -3.9083823561668396e-002</leafValues></_>
        <_>
          <internalNodes>
            0 -1 168 8.3630062639713287e-002</internalNodes>
          <leafValues>
            -4.1680514812469482e-002 4.5950254797935486e-001</leafValues></_>
        <_>
          <internalNodes>
            0 -1 341 4.2744189500808716e-002</internalNodes>
          <leafValues>
            3.0202029272913933e-002 -6.2932008504867554e-001</leafValues></_>
        <_>
          <internalNodes>
            0 -1 198 2.1825034171342850e-002</internalNodes>
          <leafValues>
            -1.0635611414909363e-001 1.5280750393867493e-001</leafValues></_>
        <_>
          <internalNodes>
            0 -1 180 2.8510876290965825e-005</internalNodes>
          <leafValues>
            -8.9651775360107422e-001 1.8427271395921707e-002</leafValues></_>
        <_>
          <internalNodes>
            0 -1 2 7.2697573341429234e-004</internalNodes>
          <leafValues>
            2.0341545343399048e-001 -8.4575526416301727e-002</leafValues></_>
        <_>
          <internalNodes>
            0 -1 10 6.0812793672084808e-002</internalNodes>
          <leafValues>
            -6.3936613500118256e-002 2.5934955477714539e-001</leafValues></_>
        <_>
          <internalNodes>
            0 -1 162 2.0391645375639200e-003</internalNodes>
          <leafValues>
            2.7834817767143250e-001 -6.3979201018810272e-002</leafValues></_>
        <_>
          <internalNodes>
            0 -1 354 8.6742691928520799e-004</internalNodes>
          <leafValues>
            -6.7477244138717651e-001 2.7124932035803795e-002</leafValues></_>
        <_>
          <internalNodes>
            0 -1 99 7.8767556697130203e-003</internalNodes>
          <leafValues>
            1.1944252252578735e-001 -1.3131822645664215e-001</leafValues></_>
        <_>
          <internalNodes>
            0 -1 169 7.5449973344802856e-002</internalNodes>
          <leafValues>
            -4.5049693435430527e-002 3.3930122852325439e-001</leafValues></_>
        <_>
          <internalNodes>
            0 -1 181 1.3999257981777191e-001</internalNodes>
          <leafValues>
            2.0375398918986320e-002 -8.0503958463668823e-001</leafValues></_>
        <_>
          <internalNodes>
            0 -1 37 1.3962179422378540e-001</internalNodes>
          <leafValues>
            1.0181685909628868e-002 -9.5828223228454590e-001</leafValues></_>
        <_>
          <internalNodes>
            0 -1 370 5.2500804886221886e-003</internalNodes>
          <leafValues>
            -2.9038611054420471e-001 4.3829616159200668e-002</leafValues></_>
        <_>
          <internalNodes>
            0 -1 205 3.1954137375578284e-004</internalNodes>
          <leafValues>
            4.3359413743019104e-001 -4.1289288550615311e-002</leafValues></_>
        <_>
          <internalNodes>
            0 -1 347 4.8834197514224797e-005</internalNodes>
          <leafValues>
            -4.2165288329124451e-001 3.4294214099645615e-002</leafValues></_>
        <_>
          <internalNodes>
            0 -1 36 4.4778119772672653e-003</internalNodes>
          <leafValues>
            2.8441193699836731e-001 -5.7119671255350113e-002</leafValues></_>
        <_>
          <internalNodes>
            0 -1 199 2.4265415966510773e-002</internalNodes>
          <leafValues>
            -7.8023172914981842e-002 1.9716881215572357e-001</leafValues></_>
        <_>
          <internalNodes>
            0 -1 8 3.6739006638526917e-002</internalNodes>
          <leafValues>
            -5.9551011770963669e-002 2.2429481148719788e-001</leafValues></_>
        <_>
          <internalNodes>
            0 -1 256 8.2073554396629333e-002</internalNodes>
          <leafValues>
            -4.0382929146289825e-002 3.6053755879402161e-001</leafValues></_>
        <_>
          <internalNodes>
            0 -1 227 6.1267620185390115e-004</internalNodes>
          <leafValues>
            3.2966649532318115e-001 -4.0029488503932953e-002</leafValues></_>
        <_>
          <internalNodes>
            0 -1 386 7.7194310724735260e-003</internalNodes>
          <leafValues>
            -3.3158850669860840e-001 5.1861763000488281e-002</leafValues></_>
        <_>
          <internalNodes>
            0 -1 177 9.3037553131580353e-002</internalNodes>
          <leafValues>
            2.2964194416999817e-002 -5.9164774417877197e-001</leafValues></_>
        <_>
          <internalNodes>
            0 -1 158 2.5987112894654274e-003</internalNodes>
          <leafValues>
            2.2835031151771545e-001 -6.1716929078102112e-002</leafValues></_>
        <_>
          <internalNodes>
            0 -1 64 7.6833434402942657e-002</internalNodes>
          <leafValues>
            -2.3164674639701843e-002 5.9159171581268311e-001</leafValues></_>
        <_>
          <internalNodes>
            0 -1 291 3.6822089896304533e-005</internalNodes>
          <leafValues>
            -6.7205786705017090e-001 2.4498803541064262e-002</leafValues></_>
        <_>
          <internalNodes>
            0 -1 65 6.6409981809556484e-004</internalNodes>
          <leafValues>
            3.2101160287857056e-001 -5.4325003176927567e-002</leafValues></_>
        <_>
          <internalNodes>
            0 -1 122 4.7137137502431870e-002</internalNodes>
          <leafValues>
            -7.8084871172904968e-002 1.6086186468601227e-001</leafValues></_>
        <_>
          <internalNodes>
            0 -1 10 2.8743344955728389e-005</internalNodes>
          <leafValues>
            -5.6749039888381958e-001 2.2869771346449852e-002</leafValues></_>
        <_>
          <internalNodes>
            0 -1 283 2.4426449090242386e-002</internalNodes>
          <leafValues>
            -9.1958776116371155e-002 1.4306451380252838e-001</leafValues></_>
        <_>
          <internalNodes>
            0 -1 428 4.1961509734392166e-002</internalNodes>
          <leafValues>
            3.3867128193378448e-002 -3.7885186076164246e-001</leafValues></_>
        <_>
          <internalNodes>
            0 -1 28 3.8619915721938014e-004</internalNodes>
          <leafValues>
            1.6672490537166595e-001 -7.8767202794551849e-002</leafValues></_>
        <_>
          <internalNodes>
            0 -1 92 2.8680380433797836e-002</internalNodes>
          <leafValues>
            -2.0090207457542419e-001 5.8806285262107849e-002</leafValues></_>
        <_>
          <internalNodes>
            0 -1 302 1.5421286225318909e-002</internalNodes>
          <leafValues>
            -1.5932181477546692e-001 8.6443468928337097e-002</leafValues></_>
        <_>
          <internalNodes>
            0 -1 417 2.2416591644287109e-002</internalNodes>
          <leafValues>
            7.1530431509017944e-002 -1.9798812270164490e-001</leafValues></_>
        <_>
          <internalNodes>
            0 -1 116 5.2303969860076904e-002</internalNodes>
          <leafValues>
            -3.2478313893079758e-002 3.3888408541679382e-001</leafValues></_>
        <_>
          <internalNodes>
            0 -1 237 8.3543662913143635e-004</internalNodes>
          <leafValues>
            3.0052995681762695e-001 -3.7898018956184387e-002</leafValues></_>
        <_>
          <internalNodes>
            0 -1 81 3.9185062632896006e-005</internalNodes>
          <leafValues>
            -8.3560073375701904e-001 1.4948084019124508e-002</leafValues></_>
        <_>
          <internalNodes>
            0 -1 348 1.8624994903802872e-002</internalNodes>
          <leafValues>
            -1.1120651662349701e-001 1.1251698434352875e-001</leafValues></_>
        <_>
          <internalNodes>
            0 -1 176 2.9286567587405443e-004</internalNodes>
          <leafValues>
            3.1829705834388733e-001 -3.5149760544300079e-002</leafValues></_>
        <_>
          <internalNodes>
            0 -1 150 3.7842048186575994e-005</internalNodes>
          <leafValues>
            -3.9243295788764954e-001 3.3197782933712006e-002</leafValues></_>
        <_>
          <internalNodes>
            0 -1 0 7.2924561798572540e-002</internalNodes>
          <leafValues>
            2.1389354020357132e-002 -5.2370965480804443e-001</leafValues></_>
        <_>
          <internalNodes>
            0 -1 35 1.9590691663324833e-003</internalNodes>
          <leafValues>
            2.6314663887023926e-001 -4.6115931123495102e-002</leafValues></_>
        <_>
          <internalNodes>
            0 -1 163 2.3436501622200012e-001</internalNodes>
          <leafValues>
            1.0643590241670609e-002 -9.8276197910308838e-001</leafValues></_>
        <_>
          <internalNodes>
            0 -1 141 3.3862972632050514e-003</internalNodes>
          <leafValues>
            -4.7551068663597107e-001 1.9180720672011375e-002</leafValues></_>
        <_>
          <internalNodes>
            0 -1 137 3.4850710071623325e-003</internalNodes>
          <leafValues>
            1.9523155689239502e-001 -6.4962446689605713e-002</leafValues></_>
        <_>
          <internalNodes>
            0 -1 409 5.3127389401197433e-004</internalNodes>
          <leafValues>
            -6.6913282871246338e-001 2.0055072382092476e-002</leafValues></_>
        <_>
          <internalNodes>
            0 -1 288 2.0847225096076727e-004</internalNodes>
          <leafValues>
            4.2519885301589966e-001 -3.5360049456357956e-002</leafValues></_>
        <_>
          <internalNodes>
            0 -1 399 2.4175641592592001e-003</internalNodes>
          <leafValues>
            -2.8497859835624695e-001 4.4487889856100082e-002</leafValues></_>
        <_>
          <internalNodes>
            0 -1 266 3.4259194508194923e-003</internalNodes>
          <leafValues>
            2.4891571700572968e-001 -7.0131316781044006e-002</leafValues></_>
        <_>
          <internalNodes>
            0 -1 117 1.0632965713739395e-002</internalNodes>
          <leafValues>
            2.1184676885604858e-001 -5.9523381292819977e-002</leafValues></_>
        <_>
          <internalNodes>
            0 -1 359 3.4712678752839565e-003</internalNodes>
          <leafValues>
            -2.9264512658119202e-001 4.7547161579132080e-002</leafValues></_>
        <_>
          <internalNodes>
            0 -1 371 1.5039017889648676e-003</internalNodes>
          <leafValues>
            -5.7681405544281006e-001 2.1813645958900452e-002</leafValues></_>
        <_>
          <internalNodes>
            0 -1 132 1.1313045397400856e-003</internalNodes>
          <leafValues>
            3.0905088782310486e-001 -4.0410321205854416e-002</leafValues></_>
        <_>
          <internalNodes>
            0 -1 290 1.4382597804069519e-001</internalNodes>
          <leafValues>
            3.1152818351984024e-002 -4.1069686412811279e-001</leafValues></_></weakClassifiers></_>
    <!-- stage 23 -->
    <_>
      <maxWeakCount>100</maxWeakCount>
      <stageThreshold>3.4603860694915056e-003</stageThreshold>
      <weakClassifiers>
        <_>
          <internalNodes>
            0 -1 79 8.8509559631347656e-002</internalNodes>
          <leafValues>
            9.3179017305374146e-001 -3.3333334326744080e-001</leafValues></_>
        <_>
          <internalNodes>
            0 -1 4 3.6008324241265655e-004</internalNodes>
          <leafValues>
            7.8058177232742310e-001 4.6128728985786438e-001</leafValues></_>
        <_>
          <internalNodes>
            0 -1 73 2.5561742950230837e-004</internalNodes>
          <leafValues>
            5.7800692319869995e-001 -1.9236199557781219e-002</leafValues></_>
        <_>
          <internalNodes>
            0 -1 159 1.2687018606811762e-003</internalNodes>
          <leafValues>
            3.1712037324905396e-001 -1.5874902904033661e-001</leafValues></_>
        <_>
          <internalNodes>
            0 -1 335 1.9322639331221581e-002</internalNodes>
          <leafValues>
            1.1446386575698853e-001 -3.6466035246849060e-001</leafValues></_>
        <_>
          <internalNodes>
            0 -1 361 2.4218767881393433e-002</internalNodes>
          <leafValues>
            -2.0100365579128265e-001 1.8101270496845245e-001</leafValues></_>
        <_>
          <internalNodes>
            0 -1 356 3.1898315995931625e-002</internalNodes>
          <leafValues>
            -2.2594769299030304e-001 1.7387536168098450e-001</leafValues></_>
        <_>
          <internalNodes>
            0 -1 110 2.1631291019730270e-004</internalNodes>
          <leafValues>
            3.6279198527336121e-001 -9.7594253718852997e-002</leafValues></_>
        <_>
          <internalNodes>
            0 -1 354 1.9917212426662445e-002</internalNodes>
          <leafValues>
            -2.1364159882068634e-001 1.5516608953475952e-001</leafValues></_>
        <_>
          <internalNodes>
            0 -1 145 3.4249958116561174e-003</internalNodes>
          <leafValues>
            -3.1312674283981323e-001 1.0391879081726074e-001</leafValues></_>
        <_>
          <internalNodes>
            0 -1 214 1.9313640892505646e-002</internalNodes>
          <leafValues>
            -3.8533413410186768e-001 7.7368147671222687e-002</leafValues></_>
        <_>
          <internalNodes>
            0 -1 3 2.6007285341620445e-003</internalNodes>
          <leafValues>
            1.4531208574771881e-001 -2.0529361069202423e-001</leafValues></_>
        <_>
          <internalNodes>
            0 -1 291 1.0082735680043697e-003</internalNodes>
          <leafValues>
            -6.1940431594848633e-001 4.2790658771991730e-002</leafValues></_>
        <_>
          <internalNodes>
            0 -1 17 5.0044525414705276e-004</internalNodes>
          <leafValues>
            2.7618518471717834e-001 -9.6435144543647766e-002</leafValues></_>
        <_>
          <internalNodes>
            0 -1 304 9.9170699715614319e-002</internalNodes>
          <leafValues>
            6.8240866065025330e-002 -4.0381360054016113e-001</leafValues></_>
        <_>
          <internalNodes>
            0 -1 160 7.5344108045101166e-003</internalNodes>
          <leafValues>
            1.6466192901134491e-001 -1.8399855494499207e-001</leafValues></_>
        <_>
          <internalNodes>
            0 -1 96 8.7978005409240723e-002</internalNodes>
          <leafValues>
            -5.3244959563016891e-002 4.7712257504463196e-001</leafValues></_>
        <_>
          <internalNodes>
            0 -1 371 1.9509807229042053e-002</internalNodes>
          <leafValues>
            -2.0549748837947845e-001 1.2261408567428589e-001</leafValues></_>
        <_>
          <internalNodes>
            0 -1 107 1.0809463262557983e-001</internalNodes>
          <leafValues>
            -4.2765282094478607e-002 5.8190983533859253e-001</leafValues></_>
        <_>
          <internalNodes>
            0 -1 251 2.5891623226925731e-004</internalNodes>
          <leafValues>
            4.1326594352722168e-001 -5.1850683987140656e-002</leafValues></_>
        <_>
          <internalNodes>
            0 -1 62 3.2167611643671989e-003</internalNodes>
          <leafValues>
            -6.3186269998550415e-001 3.3268943428993225e-002</leafValues></_>
        <_>
          <internalNodes>
            0 -1 297 1.4143252372741699e-001</internalNodes>
          <leafValues>
            2.9707185924053192e-002 -6.0673773288726807e-001</leafValues></_>
        <_>
          <internalNodes>
            0 -1 185 5.4494338110089302e-004</internalNodes>
          <leafValues>
            3.3675453066825867e-001 -6.9482617080211639e-002</leafValues></_>
        <_>
          <internalNodes>
            0 -1 301 1.4799546450376511e-002</internalNodes>
          <leafValues>
            -2.7335685491561890e-001 9.1597534716129303e-002</leafValues></_>
        <_>
          <internalNodes>
            0 -1 119 1.2473929673433304e-003</internalNodes>
          <leafValues>
            2.9021379351615906e-001 -7.4311427772045135e-002</leafValues></_>
        <_>
          <internalNodes>
            0 -1 388 6.0925319790840149e-002</internalNodes>
          <leafValues>
            3.9692491292953491e-002 -5.8916980028152466e-001</leafValues></_>
        <_>
          <internalNodes>
            0 -1 420 5.4606567136943340e-003</internalNodes>
          <leafValues>
            -2.2849857807159424e-001 7.9588554799556732e-002</leafValues></_>
        <_>
          <internalNodes>
            0 -1 384 2.0183142274618149e-002</internalNodes>
          <leafValues>
            7.9159587621688843e-002 -2.5359863042831421e-001</leafValues></_>
        <_>
          <internalNodes>
            0 -1 401 6.8411663174629211e-002</internalNodes>
          <leafValues>
            1.7605163156986237e-002 -7.7629542350769043e-001</leafValues></_>
        <_>
          <internalNodes>
            0 -1 2 5.8770278701558709e-004</internalNodes>
          <leafValues>
            2.0664814114570618e-001 -8.8412553071975708e-002</leafValues></_>
        <_>
          <internalNodes>
            0 -1 363 2.0569190382957458e-002</internalNodes>
          <leafValues>
            -1.5650022029876709e-001 1.5612415969371796e-001</leafValues></_>
        <_>
          <internalNodes>
            0 -1 177 2.9869787395000458e-003</internalNodes>
          <leafValues>
            3.0373600125312805e-001 -7.1436651051044464e-002</leafValues></_>
        <_>
          <internalNodes>
            0 -1 427 3.8730780943296850e-005</internalNodes>
          <leafValues>
            -4.6230432391166687e-001 3.6536335945129395e-002</leafValues></_>
        <_>
          <internalNodes>
            0 -1 308 4.7327995300292969e-002</internalNodes>
          <leafValues>
            -7.2588831186294556e-002 2.5078025460243225e-001</leafValues></_>
        <_>
          <internalNodes>
            0 -1 339 9.8020792007446289e-002</internalNodes>
          <leafValues>
            -7.4593700468540192e-002 2.1736092865467072e-001</leafValues></_>
        <_>
          <internalNodes>
            0 -1 364 1.0879684239625931e-002</internalNodes>
          <leafValues>
            -2.3698131740093231e-001 7.6685480773448944e-002</leafValues></_>
        <_>
          <internalNodes>
            0 -1 27 1.1617247015237808e-002</internalNodes>
          <leafValues>
            1.0019967705011368e-001 -1.9556079804897308e-001</leafValues></_>
        <_>
          <internalNodes>
            0 -1 263 8.8518381118774414e-002</internalNodes>
          <leafValues>
            -4.7371491789817810e-002 3.8036811351776123e-001</leafValues></_>
        <_>
          <internalNodes>
            0 -1 133 4.8932202160358429e-002</internalNodes>
          <leafValues>
            -4.5615885406732559e-002 3.4444612264633179e-001</leafValues></_>
        <_>
          <internalNodes>
            0 -1 343 3.3577056456124410e-005</internalNodes>
          <leafValues>
            -7.2064626216888428e-001 2.3374615237116814e-002</leafValues></_>
        <_>
          <internalNodes>
            0 -1 89 3.5333022242411971e-004</internalNodes>
          <leafValues>
            2.2425265610218048e-001 -8.0800198018550873e-002</leafValues></_>
        <_>
          <internalNodes>
            0 -1 349 2.6254722848534584e-002</internalNodes>
          <leafValues>
            -8.4613248705863953e-002 2.0103789865970612e-001</leafValues></_>
        <_>
          <internalNodes>
            0 -1 185 1.0637354105710983e-002</internalNodes>
          <leafValues>
            1.2884010374546051e-001 -1.1596073955297470e-001</leafValues></_>
        <_>
          <internalNodes>
            0 -1 372 1.1965505778789520e-001</internalNodes>
          <leafValues>
            3.4363500773906708e-002 -4.4327744841575623e-001</leafValues></_>
        <_>
          <internalNodes>
            0 -1 286 6.3787892460823059e-002</internalNodes>
          <leafValues>
            2.5428125634789467e-002 -5.4905205965042114e-001</leafValues></_>
        <_>
          <internalNodes>
            0 -1 66 9.5410689711570740e-002</internalNodes>
          <leafValues>
            1.1383258737623692e-002 -9.4539356231689453e-001</leafValues></_>
        <_>
          <internalNodes>
            0 -1 83 7.4144196696579456e-004</internalNodes>
          <leafValues>
            2.9029110074043274e-001 -5.8734752237796783e-002</leafValues></_>
        <_>
          <internalNodes>
            0 -1 11 8.5101565346121788e-003</internalNodes>
          <leafValues>
            -1.8768090009689331e-001 7.4007451534271240e-002</leafValues></_>
        <_>
          <internalNodes>
            0 -1 217 9.8536744713783264e-002</internalNodes>
          <leafValues>
            2.1407032385468483e-002 -6.4563155174255371e-001</leafValues></_>
        <_>
          <internalNodes>
            0 -1 241 1.2698241043835878e-003</internalNodes>
          <leafValues>
            2.0545722544193268e-001 -7.0207357406616211e-002</leafValues></_>
        <_>
          <internalNodes>
            0 -1 324 1.1701665818691254e-002</internalNodes>
          <leafValues>
            -2.9482376575469971e-001 4.4317990541458130e-002</leafValues></_>
        <_>
          <internalNodes>
            0 -1 146 2.5333795696496964e-002</internalNodes>
          <leafValues>
            -8.7497718632221222e-002 1.4862319827079773e-001</leafValues></_>
        <_>
          <internalNodes>
            0 -1 132 9.4125315546989441e-002</internalNodes>
          <leafValues>
            2.1972820162773132e-002 -6.7795801162719727e-001</leafValues></_>
        <_>
          <internalNodes>
            0 -1 65 2.9135588556528091e-004</internalNodes>
          <leafValues>
            2.7568811178207397e-001 -4.8401750624179840e-002</leafValues></_>
        <_>
          <internalNodes>
            0 -1 375 2.3459563963115215e-003</internalNodes>
          <leafValues>
            -3.1661215424537659e-001 5.1978923380374908e-002</leafValues></_>
        <_>
          <internalNodes>
            0 -1 97 4.1796764708124101e-004</internalNodes>
          <leafValues>
            2.9466924071311951e-001 -4.8632636666297913e-002</leafValues></_>
        <_>
          <internalNodes>
            0 -1 328 3.2143561838893220e-005</internalNodes>
          <leafValues>
            -8.1709450483322144e-001 2.0368197932839394e-002</leafValues></_>
        <_>
          <internalNodes>
            0 -1 247 3.6562822060659528e-004</internalNodes>
          <leafValues>
            3.3992844820022583e-001 -4.2610954493284225e-002</leafValues></_>
        <_>
          <internalNodes>
            0 -1 220 2.0292043685913086e-001</internalNodes>
          <leafValues>
            2.2929215803742409e-002 -6.0190528631210327e-001</leafValues></_>
        <_>
          <internalNodes>
            0 -1 92 3.6083191633224487e-002</internalNodes>
          <leafValues>
            -1.8595707416534424e-001 7.6066799461841583e-002</leafValues></_>
        <_>
          <internalNodes>
            0 -1 6 1.1402772367000580e-001</internalNodes>
          <leafValues>
            3.2768134027719498e-002 -3.7585210800170898e-001</leafValues></_>
        <_>
          <internalNodes>
            0 -1 34 5.5847712792456150e-004</internalNodes>
          <leafValues>
            3.0332237482070923e-001 -5.0566088408231735e-002</leafValues></_>
        <_>
          <internalNodes>
            0 -1 418 4.0607159462524578e-005</internalNodes>
          <leafValues>
            -7.9713749885559082e-001 1.5993736684322357e-002</leafValues></_>
        <_>
          <internalNodes>
            0 -1 421 1.3543352906708606e-005</internalNodes>
          <leafValues>
            -6.7206048965454102e-001 1.5188086777925491e-002</leafValues></_>
        <_>
          <internalNodes>
            0 -1 8 4.9770735204219818e-002</internalNodes>
          <leafValues>
            -5.0779979676008224e-002 2.5821092724800110e-001</leafValues></_>
        <_>
          <internalNodes>
            0 -1 353 3.0963372439146042e-002</internalNodes>
          <leafValues>
            4.1064802557229996e-002 -3.3436131477355957e-001</leafValues></_>
        <_>
          <internalNodes>
            0 -1 4 1.8736573401838541e-003</internalNodes>
          <leafValues>
            1.2662298977375031e-001 -1.0922031104564667e-001</leafValues></_>
        <_>
          <internalNodes>
            0 -1 365 1.0237865149974823e-002</internalNodes>
          <leafValues>
            -2.4926827847957611e-001 6.2350839376449585e-002</leafValues></_>
        <_>
          <internalNodes>
            0 -1 204 9.0144207933917642e-004</internalNodes>
          <leafValues>
            2.9794901609420776e-001 -5.0604518502950668e-002</leafValues></_>
        <_>
          <internalNodes>
            0 -1 198 5.2287820726633072e-002</internalNodes>
          <leafValues>
            -3.6525048315525055e-002 3.9468985795974731e-001</leafValues></_>
        <_>
          <internalNodes>
            0 -1 175 1.3568621128797531e-002</internalNodes>
          <leafValues>
            1.5425094962120056e-001 -8.6911685764789581e-002</leafValues></_>
        <_>
          <internalNodes>
            0 -1 287 8.7265253067016602e-002</internalNodes>
          <leafValues>
            2.0376894623041153e-002 -6.8364721536636353e-001</leafValues></_>
        <_>
          <internalNodes>
            0 -1 82 4.6566713601350784e-002</internalNodes>
          <leafValues>
            -4.8676885664463043e-002 2.8137153387069702e-001</leafValues></_>
        <_>
          <internalNodes>
            0 -1 158 2.6969395577907562e-002</internalNodes>
          <leafValues>
            8.6644001305103302e-002 -1.5492764115333557e-001</leafValues></_>
        <_>
          <internalNodes>
            0 -1 149 5.6668355682631955e-005</internalNodes>
          <leafValues>
            -4.1003292798995972e-001 2.9989616945385933e-002</leafValues></_>
        <_>
          <internalNodes>
            0 -1 101 3.9006592123769224e-004</internalNodes>
          <leafValues>
            2.9532957077026367e-001 -4.3006546795368195e-002</leafValues></_>
        <_>
          <internalNodes>
            0 -1 369 1.4179532881826162e-003</internalNodes>
          <leafValues>
            -3.3461496233940125e-001 3.5274781286716461e-002</leafValues></_>
        <_>
          <internalNodes>
            0 -1 284 3.8487233221530914e-002</internalNodes>
          <leafValues>
            -3.8747973740100861e-002 3.1702622771263123e-001</leafValues></_>
        <_>
          <internalNodes>
            0 -1 274 3.9334788918495178e-002</internalNodes>
          <leafValues>
            -1.3283406198024750e-001 1.0286560654640198e-001</leafValues></_>
        <_>
          <internalNodes>
            0 -1 302 9.4267524778842926e-002</internalNodes>
          <leafValues>
            1.6436424106359482e-002 -7.1201473474502563e-001</leafValues></_>
        <_>
          <internalNodes>
            0 -1 214 1.3226215960457921e-003</internalNodes>
          <leafValues>
            -7.0294034481048584e-001 1.2822262942790985e-002</leafValues></_>
        <_>
          <internalNodes>
            0 -1 199 5.6794762611389160e-002</internalNodes>
          <leafValues>
            -2.6558361947536469e-002 4.6806406974792480e-001</leafValues></_>
        <_>
          <internalNodes>
            0 -1 310 1.0055795311927795e-001</internalNodes>
          <leafValues>
            -2.6617076247930527e-002 3.7786853313446045e-001</leafValues></_>
        <_>
          <internalNodes>
            0 -1 168 6.7857012152671814e-002</internalNodes>
          <leafValues>
            -4.2460817843675613e-002 2.7978676557540894e-001</leafValues></_>
        <_>
          <internalNodes>
            0 -1 10 6.0341522097587585e-002</internalNodes>
          <leafValues>
            -5.5272735655307770e-002 2.2304132580757141e-001</leafValues></_>
        <_>
          <internalNodes>
            0 -1 172 4.1297219693660736e-002</internalNodes>
          <leafValues>
            -3.8277775049209595e-002 3.2890453934669495e-001</leafValues></_>
        <_>
          <internalNodes>
            0 -1 185 7.2492942214012146e-002</internalNodes>
          <leafValues>
            2.2972431033849716e-002 -6.2098807096481323e-001</leafValues></_>
        <_>
          <internalNodes>
            0 -1 343 1.9793005194514990e-003</internalNodes>
          <leafValues>
            -4.1810929775238037e-001 2.3682016879320145e-002</leafValues></_>
        <_>
          <internalNodes>
            0 -1 54 3.1758693512529135e-004</internalNodes>
          <leafValues>
            2.7629500627517700e-001 -6.4464829862117767e-002</leafValues></_>
        <_>
          <internalNodes>
            0 -1 412 1.0498717427253723e-002</internalNodes>
          <leafValues>
            -1.3864120841026306e-001 8.2992471754550934e-002</leafValues></_>
        <_>
          <internalNodes>
            0 -1 386 9.5321618020534515e-002</internalNodes>
          <leafValues>
            -2.0343270152807236e-002 5.8952987194061279e-001</leafValues></_>
        <_>
          <internalNodes>
            0 -1 224 3.6500539863482118e-004</internalNodes>
          <leafValues>
            3.0502656102180481e-001 -3.9619401097297668e-002</leafValues></_>
        <_>
          <internalNodes>
            0 -1 342 5.3974844515323639e-002</internalNodes>
          <leafValues>
            1.6789456829428673e-002 -6.8798434734344482e-001</leafValues></_>
        <_>
          <internalNodes>
            0 -1 321 3.8913105527171865e-005</internalNodes>
          <leafValues>
            -3.6294895410537720e-001 2.5806039571762085e-002</leafValues></_>
        <_>
          <internalNodes>
            0 -1 27 3.5466728149913251e-004</internalNodes>
          <leafValues>
            2.0434747636318207e-001 -6.4114414155483246e-002</leafValues></_>
        <_>
          <internalNodes>
            0 -1 291 8.5749849677085876e-002</internalNodes>
          <leafValues>
            1.9803563132882118e-002 -4.7661507129669189e-001</leafValues></_>
        <_>
          <internalNodes>
            0 -1 15 8.8220521807670593e-002</internalNodes>
          <leafValues>
            -3.2163877040147781e-002 4.5245006680488586e-001</leafValues></_>
        <_>
          <internalNodes>
            0 -1 400 5.3402606397867203e-002</internalNodes>
          <leafValues>
            1.9897833466529846e-002 -5.1224386692047119e-001</leafValues></_>
        <_>
          <internalNodes>
            0 -1 137 2.3018871434032917e-004</internalNodes>
          <leafValues>
            3.1258109211921692e-001 -3.5916686058044434e-002</leafValues></_>
        <_>
          <internalNodes>
            0 -1 282 1.4283213764429092e-002</internalNodes>
          <leafValues>
            -9.6189886331558228e-002 1.1773480474948883e-001</leafValues></_></weakClassifiers></_></stages>
  <features>
    <_>
      <rect>
        0 0 8 8 1</rect></_>
    <_>
      <rect>
        0 0 8 8 3</rect></_>
    <_>
      <rect>
        0 0 8 8 4</rect></_>
    <_>
      <rect>
        0 0 8 8 5</rect></_>
    <_>
      <rect>
        0 0 8 8 6</rect></_>
    <_>
      <rect>
        0 0 8 8 7</rect></_>
    <_>
      <rect>
        0 0 8 8 8</rect></_>
    <_>
      <rect>
        0 0 8 8 10</rect></_>
    <_>
      <rect>
        0 0 8 8 11</rect></_>
    <_>
      <rect>
        0 0 8 8 12</rect></_>
    <_>
      <rect>
        0 0 8 8 13</rect></_>
    <_>
      <rect>
        0 0 8 8 14</rect></_>
    <_>
      <rect>
        0 0 8 8 15</rect></_>
    <_>
      <rect>
        0 0 8 8 16</rect></_>
    <_>
      <rect>
        0 0 8 8 17</rect></_>
    <_>
      <rect>
        0 0 8 8 18</rect></_>
    <_>
      <rect>
        0 0 8 8 19</rect></_>
    <_>
      <rect>
        0 0 8 8 22</rect></_>
    <_>
      <rect>
        0 0 8 8 25</rect></_>
    <_>
      <rect>
        0 0 8 8 27</rect></_>
    <_>
      <rect>
        0 0 8 8 30</rect></_>
    <_>
      <rect>
        0 0 8 8 31</rect></_>
    <_>
      <rect>
        0 0 8 8 32</rect></_>
    <_>
      <rect>
        0 0 8 8 33</rect></_>
    <_>
      <rect>
        0 4 8 8 0</rect></_>
    <_>
      <rect>
        0 4 8 8 2</rect></_>
    <_>
      <rect>
        0 4 8 8 3</rect></_>
    <_>
      <rect>
        0 4 8 8 4</rect></_>
    <_>
      <rect>
        0 4 8 8 5</rect></_>
    <_>
      <rect>
        0 4 8 8 6</rect></_>
    <_>
      <rect>
        0 4 8 8 7</rect></_>
    <_>
      <rect>
        0 4 8 8 8</rect></_>
    <_>
      <rect>
        0 4 8 8 9</rect></_>
    <_>
      <rect>
        0 4 8 8 10</rect></_>
    <_>
      <rect>
        0 4 8 8 11</rect></_>
    <_>
      <rect>
        0 4 8 8 12</rect></_>
    <_>
      <rect>
        0 4 8 8 13</rect></_>
    <_>
      <rect>
        0 4 8 8 14</rect></_>
    <_>
      <rect>
        0 4 8 8 15</rect></_>
    <_>
      <rect>
        0 4 8 8 17</rect></_>
    <_>
      <rect>
        0 4 8 8 18</rect></_>
    <_>
      <rect>
        0 4 8 8 19</rect></_>
    <_>
      <rect>
        0 4 8 8 20</rect></_>
    <_>
      <rect>
        0 4 8 8 22</rect></_>
    <_>
      <rect>
        0 4 8 8 24</rect></_>
    <_>
      <rect>
        0 4 8 8 25</rect></_>
    <_>
      <rect>
        0 4 8 8 26</rect></_>
    <_>
      <rect>
        0 4 8 8 27</rect></_>
    <_>
      <rect>
        0 4 8 8 28</rect></_>
    <_>
      <rect>
        0 4 8 8 30</rect></_>
    <_>
      <rect>
        0 4 8 8 31</rect></_>
    <_>
      <rect>
        0 4 8 8 35</rect></_>
    <_>
      <rect>
        0 8 8 8 1</rect></_>
    <_>
      <rect>
        0 8 8 8 4</rect></_>
    <_>
      <rect>
        0 8 8 8 6</rect></_>
    <_>
      <rect>
        0 8 8 8 7</rect></_>
    <_>
      <rect>
        0 8 8 8 14</rect></_>
    <_>
      <rect>
        0 8 8 8 15</rect></_>
    <_>
      <rect>
        0 8 8 8 18</rect></_>
    <_>
      <rect>
        0 8 8 8 19</rect></_>
    <_>
      <rect>
        0 8 8 8 22</rect></_>
    <_>
      <rect>
        0 8 8 8 24</rect></_>
    <_>
      <rect>
        0 8 8 8 26</rect></_>
    <_>
      <rect>
        0 8 8 8 27</rect></_>
    <_>
      <rect>
        0 8 8 8 28</rect></_>
    <_>
      <rect>
        0 12 8 8 1</rect></_>
    <_>
      <rect>
        0 12 8 8 4</rect></_>
    <_>
      <rect>
        0 12 8 8 5</rect></_>
    <_>
      <rect>
        0 12 8 8 6</rect></_>
    <_>
      <rect>
        0 12 8 8 7</rect></_>
    <_>
      <rect>
        0 12 8 8 8</rect></_>
    <_>
      <rect>
        0 12 8 8 12</rect></_>
    <_>
      <rect>
        0 12 8 8 13</rect></_>
    <_>
      <rect>
        0 12 8 8 14</rect></_>
    <_>
      <rect>
        0 12 8 8 15</rect></_>
    <_>
      <rect>
        0 12 8 8 16</rect></_>
    <_>
      <rect>
        0 12 8 8 18</rect></_>
    <_>
      <rect>
        0 12 8 8 19</rect></_>
    <_>
      <rect>
        0 12 8 8 21</rect></_>
    <_>
      <rect>
        0 12 8 8 22</rect></_>
    <_>
      <rect>
        0 12 8 8 24</rect></_>
    <_>
      <rect>
        0 12 8 8 26</rect></_>
    <_>
      <rect>
        0 12 8 8 28</rect></_>
    <_>
      <rect>
        0 12 8 8 33</rect></_>
    <_>
      <rect>
        0 12 8 8 34</rect></_>
    <_>
      <rect>
        0 16 8 8 0</rect></_>
    <_>
      <rect>
        0 16 8 8 1</rect></_>
    <_>
      <rect>
        0 16 8 8 2</rect></_>
    <_>
      <rect>
        0 16 8 8 4</rect></_>
    <_>
      <rect>
        0 16 8 8 5</rect></_>
    <_>
      <rect>
        0 16 8 8 6</rect></_>
    <_>
      <rect>
        0 16 8 8 7</rect></_>
    <_>
      <rect>
        0 16 8 8 8</rect></_>
    <_>
      <rect>
        0 16 8 8 11</rect></_>
    <_>
      <rect>
        0 16 8 8 15</rect></_>
    <_>
      <rect>
        0 16 8 8 16</rect></_>
    <_>
      <rect>
        0 16 8 8 18</rect></_>
    <_>
      <rect>
        0 16 8 8 19</rect></_>
    <_>
      <rect>
        0 16 8 8 20</rect></_>
    <_>
      <rect>
        0 16 8 8 22</rect></_>
    <_>
      <rect>
        0 16 8 8 23</rect></_>
    <_>
      <rect>
        0 16 8 8 24</rect></_>
    <_>
      <rect>
        0 16 8 8 27</rect></_>
    <_>
      <rect>
        0 16 8 8 28</rect></_>
    <_>
      <rect>
        0 16 8 8 30</rect></_>
    <_>
      <rect>
        0 16 8 8 31</rect></_>
    <_>
      <rect>
        0 16 8 8 33</rect></_>
    <_>
      <rect>
        0 16 8 8 34</rect></_>
    <_>
      <rect>
        0 20 8 8 1</rect></_>
    <_>
      <rect>
        0 20 8 8 2</rect></_>
    <_>
      <rect>
        0 20 8 8 4</rect></_>
    <_>
      <rect>
        0 20 8 8 5</rect></_>
    <_>
      <rect>
        0 20 8 8 6</rect></_>
    <_>
      <rect>
        0 20 8 8 7</rect></_>
    <_>
      <rect>
        0 20 8 8 9</rect></_>
    <_>
      <rect>
        0 20 8 8 14</rect></_>
    <_>
      <rect>
        0 20 8 8 15</rect></_>
    <_>
      <rect>
        0 20 8 8 16</rect></_>
    <_>
      <rect>
        0 20 8 8 19</rect></_>
    <_>
      <rect>
        0 20 8 8 22</rect></_>
    <_>
      <rect>
        0 20 8 8 23</rect></_>
    <_>
      <rect>
        0 20 8 8 24</rect></_>
    <_>
      <rect>
        0 20 8 8 27</rect></_>
    <_>
      <rect>
        0 20 8 8 31</rect></_>
    <_>
      <rect>
        0 20 8 8 33</rect></_>
    <_>
      <rect>
        0 20 8 8 34</rect></_>
    <_>
      <rect>
        0 20 8 8 35</rect></_>
    <_>
      <rect>
        0 24 8 8 1</rect></_>
    <_>
      <rect>
        0 24 8 8 4</rect></_>
    <_>
      <rect>
        0 24 8 8 6</rect></_>
    <_>
      <rect>
        0 24 8 8 9</rect></_>
    <_>
      <rect>
        0 24 8 8 10</rect></_>
    <_>
      <rect>
        0 24 8 8 13</rect></_>
    <_>
      <rect>
        0 24 8 8 15</rect></_>
    <_>
      <rect>
        0 24 8 8 16</rect></_>
    <_>
      <rect>
        0 24 8 8 17</rect></_>
    <_>
      <rect>
        0 24 8 8 18</rect></_>
    <_>
      <rect>
        0 24 8 8 19</rect></_>
    <_>
      <rect>
        0 24 8 8 21</rect></_>
    <_>
      <rect>
        0 24 8 8 22</rect></_>
    <_>
      <rect>
        0 24 8 8 24</rect></_>
    <_>
      <rect>
        0 24 8 8 26</rect></_>
    <_>
      <rect>
        0 24 8 8 27</rect></_>
    <_>
      <rect>
        0 24 8 8 28</rect></_>
    <_>
      <rect>
        0 24 8 8 29</rect></_>
    <_>
      <rect>
        0 24 8 8 30</rect></_>
    <_>
      <rect>
        0 24 8 8 31</rect></_>
    <_>
      <rect>
        0 24 8 8 32</rect></_>
    <_>
      <rect>
        0 24 8 8 35</rect></_>
    <_>
      <rect>
        4 0 8 8 0</rect></_>
    <_>
      <rect>
        4 0 8 8 1</rect></_>
    <_>
      <rect>
        4 0 8 8 2</rect></_>
    <_>
      <rect>
        4 0 8 8 3</rect></_>
    <_>
      <rect>
        4 0 8 8 4</rect></_>
    <_>
      <rect>
        4 0 8 8 5</rect></_>
    <_>
      <rect>
        4 0 8 8 6</rect></_>
    <_>
      <rect>
        4 0 8 8 7</rect></_>
    <_>
      <rect>
        4 0 8 8 8</rect></_>
    <_>
      <rect>
        4 0 8 8 9</rect></_>
    <_>
      <rect>
        4 0 8 8 10</rect></_>
    <_>
      <rect>
        4 0 8 8 11</rect></_>
    <_>
      <rect>
        4 0 8 8 12</rect></_>
    <_>
      <rect>
        4 0 8 8 13</rect></_>
    <_>
      <rect>
        4 0 8 8 17</rect></_>
    <_>
      <rect>
        4 0 8 8 20</rect></_>
    <_>
      <rect>
        4 0 8 8 21</rect></_>
    <_>
      <rect>
        4 0 8 8 22</rect></_>
    <_>
      <rect>
        4 0 8 8 24</rect></_>
    <_>
      <rect>
        4 0 8 8 25</rect></_>
    <_>
      <rect>
        4 0 8 8 27</rect></_>
    <_>
      <rect>
        4 0 8 8 28</rect></_>
    <_>
      <rect>
        4 0 8 8 31</rect></_>
    <_>
      <rect>
        4 0 8 8 32</rect></_>
    <_>
      <rect>
        4 0 8 8 33</rect></_>
    <_>
      <rect>
        4 0 8 8 35</rect></_>
    <_>
      <rect>
        4 4 8 8 1</rect></_>
    <_>
      <rect>
        4 4 8 8 2</rect></_>
    <_>
      <rect>
        4 4 8 8 4</rect></_>
    <_>
      <rect>
        4 4 8 8 5</rect></_>
    <_>
      <rect>
        4 4 8 8 7</rect></_>
    <_>
      <rect>
        4 4 8 8 8</rect></_>
    <_>
      <rect>
        4 4 8 8 9</rect></_>
    <_>
      <rect>
        4 4 8 8 10</rect></_>
    <_>
      <rect>
        4 4 8 8 11</rect></_>
    <_>
      <rect>
        4 4 8 8 12</rect></_>
    <_>
      <rect>
        4 4 8 8 13</rect></_>
    <_>
      <rect>
        4 4 8 8 14</rect></_>
    <_>
      <rect>
        4 4 8 8 15</rect></_>
    <_>
      <rect>
        4 4 8 8 16</rect></_>
    <_>
      <rect>
        4 4 8 8 17</rect></_>
    <_>
      <rect>
        4 4 8 8 21</rect></_>
    <_>
      <rect>
        4 4 8 8 24</rect></_>
    <_>
      <rect>
        4 4 8 8 25</rect></_>
    <_>
      <rect>
        4 4 8 8 30</rect></_>
    <_>
      <rect>
        4 4 8 8 33</rect></_>
    <_>
      <rect>
        4 4 8 8 34</rect></_>
    <_>
      <rect>
        4 4 8 8 35</rect></_>
    <_>
      <rect>
        4 8 8 8 1</rect></_>
    <_>
      <rect>
        4 8 8 8 2</rect></_>
    <_>
      <rect>
        4 8 8 8 5</rect></_>
    <_>
      <rect>
        4 8 8 8 6</rect></_>
    <_>
      <rect>
        4 8 8 8 9</rect></_>
    <_>
      <rect>
        4 8 8 8 10</rect></_>
    <_>
      <rect>
        4 8 8 8 11</rect></_>
    <_>
      <rect>
        4 8 8 8 13</rect></_>
    <_>
      <rect>
        4 8 8 8 15</rect></_>
    <_>
      <rect>
        4 8 8 8 19</rect></_>
    <_>
      <rect>
        4 8 8 8 24</rect></_>
    <_>
      <rect>
        4 8 8 8 27</rect></_>
    <_>
      <rect>
        4 8 8 8 28</rect></_>
    <_>
      <rect>
        4 8 8 8 29</rect></_>
    <_>
      <rect>
        4 8 8 8 31</rect></_>
    <_>
      <rect>
        4 8 8 8 33</rect></_>
    <_>
      <rect>
        4 8 8 8 34</rect></_>
    <_>
      <rect>
        4 8 8 8 35</rect></_>
    <_>
      <rect>
        4 12 8 8 1</rect></_>
    <_>
      <rect>
        4 12 8 8 2</rect></_>
    <_>
      <rect>
        4 12 8 8 4</rect></_>
    <_>
      <rect>
        4 12 8 8 5</rect></_>
    <_>
      <rect>
        4 12 8 8 6</rect></_>
    <_>
      <rect>
        4 12 8 8 8</rect></_>
    <_>
      <rect>
        4 12 8 8 9</rect></_>
    <_>
      <rect>
        4 12 8 8 10</rect></_>
    <_>
      <rect>
        4 12 8 8 13</rect></_>
    <_>
      <rect>
        4 12 8 8 15</rect></_>
    <_>
      <rect>
        4 12 8 8 16</rect></_>
    <_>
      <rect>
        4 12 8 8 17</rect></_>
    <_>
      <rect>
        4 12 8 8 24</rect></_>
    <_>
      <rect>
        4 12 8 8 25</rect></_>
    <_>
      <rect>
        4 12 8 8 27</rect></_>
    <_>
      <rect>
        4 12 8 8 28</rect></_>
    <_>
      <rect>
        4 12 8 8 29</rect></_>
    <_>
      <rect>
        4 12 8 8 31</rect></_>
    <_>
      <rect>
        4 12 8 8 33</rect></_>
    <_>
      <rect>
        4 12 8 8 35</rect></_>
    <_>
      <rect>
        4 16 8 8 4</rect></_>
    <_>
      <rect>
        4 16 8 8 5</rect></_>
    <_>
      <rect>
        4 16 8 8 6</rect></_>
    <_>
      <rect>
        4 16 8 8 8</rect></_>
    <_>
      <rect>
        4 16 8 8 9</rect></_>
    <_>
      <rect>
        4 16 8 8 10</rect></_>
    <_>
      <rect>
        4 16 8 8 11</rect></_>
    <_>
      <rect>
        4 16 8 8 13</rect></_>
    <_>
      <rect>
        4 16 8 8 14</rect></_>
    <_>
      <rect>
        4 16 8 8 15</rect></_>
    <_>
      <rect>
        4 16 8 8 17</rect></_>
    <_>
      <rect>
        4 16 8 8 19</rect></_>
    <_>
      <rect>
        4 16 8 8 24</rect></_>
    <_>
      <rect>
        4 16 8 8 26</rect></_>
    <_>
      <rect>
        4 16 8 8 28</rect></_>
    <_>
      <rect>
        4 16 8 8 31</rect></_>
    <_>
      <rect>
        4 16 8 8 33</rect></_>
    <_>
      <rect>
        4 16 8 8 34</rect></_>
    <_>
      <rect>
        4 20 8 8 1</rect></_>
    <_>
      <rect>
        4 20 8 8 5</rect></_>
    <_>
      <rect>
        4 20 8 8 6</rect></_>
    <_>
      <rect>
        4 20 8 8 7</rect></_>
    <_>
      <rect>
        4 20 8 8 10</rect></_>
    <_>
      <rect>
        4 20 8 8 11</rect></_>
    <_>
      <rect>
        4 20 8 8 13</rect></_>
    <_>
      <rect>
        4 20 8 8 14</rect></_>
    <_>
      <rect>
        4 20 8 8 15</rect></_>
    <_>
      <rect>
        4 20 8 8 17</rect></_>
    <_>
      <rect>
        4 20 8 8 18</rect></_>
    <_>
      <rect>
        4 20 8 8 19</rect></_>
    <_>
      <rect>
        4 20 8 8 20</rect></_>
    <_>
      <rect>
        4 20 8 8 21</rect></_>
    <_>
      <rect>
        4 20 8 8 22</rect></_>
    <_>
      <rect>
        4 20 8 8 23</rect></_>
    <_>
      <rect>
        4 20 8 8 24</rect></_>
    <_>
      <rect>
        4 20 8 8 26</rect></_>
    <_>
      <rect>
        4 20 8 8 27</rect></_>
    <_>
      <rect>
        4 20 8 8 31</rect></_>
    <_>
      <rect>
        4 20 8 8 33</rect></_>
    <_>
      <rect>
        4 20 8 8 35</rect></_>
    <_>
      <rect>
        4 24 8 8 0</rect></_>
    <_>
      <rect>
        4 24 8 8 6</rect></_>
    <_>
      <rect>
        4 24 8 8 7</rect></_>
    <_>
      <rect>
        4 24 8 8 8</rect></_>
    <_>
      <rect>
        4 24 8 8 14</rect></_>
    <_>
      <rect>
        4 24 8 8 17</rect></_>
    <_>
      <rect>
        4 24 8 8 18</rect></_>
    <_>
      <rect>
        4 24 8 8 21</rect></_>
    <_>
      <rect>
        4 24 8 8 22</rect></_>
    <_>
      <rect>
        4 24 8 8 23</rect></_>
    <_>
      <rect>
        4 24 8 8 26</rect></_>
    <_>
      <rect>
        4 24 8 8 30</rect></_>
    <_>
      <rect>
        4 24 8 8 31</rect></_>
    <_>
      <rect>
        4 24 8 8 33</rect></_>
    <_>
      <rect>
        4 24 8 8 34</rect></_>
    <_>
      <rect>
        4 24 8 8 35</rect></_>
    <_>
      <rect>
        0 0 8 16 0</rect></_>
    <_>
      <rect>
        0 0 8 16 1</rect></_>
    <_>
      <rect>
        0 0 8 16 2</rect></_>
    <_>
      <rect>
        0 0 8 16 3</rect></_>
    <_>
      <rect>
        0 0 8 16 4</rect></_>
    <_>
      <rect>
        0 0 8 16 7</rect></_>
    <_>
      <rect>
        0 0 8 16 8</rect></_>
    <_>
      <rect>
        0 0 8 16 10</rect></_>
    <_>
      <rect>
        0 0 8 16 11</rect></_>
    <_>
      <rect>
        0 0 8 16 12</rect></_>
    <_>
      <rect>
        0 0 8 16 13</rect></_>
    <_>
      <rect>
        0 0 8 16 14</rect></_>
    <_>
      <rect>
        0 0 8 16 15</rect></_>
    <_>
      <rect>
        0 0 8 16 17</rect></_>
    <_>
      <rect>
        0 0 8 16 18</rect></_>
    <_>
      <rect>
        0 0 8 16 21</rect></_>
    <_>
      <rect>
        0 0 8 16 22</rect></_>
    <_>
      <rect>
        0 0 8 16 25</rect></_>
    <_>
      <rect>
        0 0 8 16 26</rect></_>
    <_>
      <rect>
        0 0 8 16 27</rect></_>
    <_>
      <rect>
        0 0 8 16 28</rect></_>
    <_>
      <rect>
        0 0 8 16 30</rect></_>
    <_>
      <rect>
        0 0 8 16 31</rect></_>
    <_>
      <rect>
        0 0 8 16 35</rect></_>
    <_>
      <rect>
        0 4 8 16 0</rect></_>
    <_>
      <rect>
        0 4 8 16 1</rect></_>
    <_>
      <rect>
        0 4 8 16 2</rect></_>
    <_>
      <rect>
        0 4 8 16 3</rect></_>
    <_>
      <rect>
        0 4 8 16 4</rect></_>
    <_>
      <rect>
        0 4 8 16 5</rect></_>
    <_>
      <rect>
        0 4 8 16 6</rect></_>
    <_>
      <rect>
        0 4 8 16 7</rect></_>
    <_>
      <rect>
        0 4 8 16 8</rect></_>
    <_>
      <rect>
        0 4 8 16 9</rect></_>
    <_>
      <rect>
        0 4 8 16 12</rect></_>
    <_>
      <rect>
        0 4 8 16 13</rect></_>
    <_>
      <rect>
        0 4 8 16 17</rect></_>
    <_>
      <rect>
        0 4 8 16 18</rect></_>
    <_>
      <rect>
        0 4 8 16 21</rect></_>
    <_>
      <rect>
        0 4 8 16 22</rect></_>
    <_>
      <rect>
        0 4 8 16 25</rect></_>
    <_>
      <rect>
        0 4 8 16 26</rect></_>
    <_>
      <rect>
        0 4 8 16 27</rect></_>
    <_>
      <rect>
        0 4 8 16 28</rect></_>
    <_>
      <rect>
        0 4 8 16 30</rect></_>
    <_>
      <rect>
        0 4 8 16 31</rect></_>
    <_>
      <rect>
        0 4 8 16 32</rect></_>
    <_>
      <rect>
        0 4 8 16 34</rect></_>
    <_>
      <rect>
        0 4 8 16 35</rect></_>
    <_>
      <rect>
        0 8 8 16 0</rect></_>
    <_>
      <rect>
        0 8 8 16 3</rect></_>
    <_>
      <rect>
        0 8 8 16 4</rect></_>
    <_>
      <rect>
        0 8 8 16 7</rect></_>
    <_>
      <rect>
        0 8 8 16 8</rect></_>
    <_>
      <rect>
        0 8 8 16 9</rect></_>
    <_>
      <rect>
        0 8 8 16 10</rect></_>
    <_>
      <rect>
        0 8 8 16 12</rect></_>
    <_>
      <rect>
        0 8 8 16 13</rect></_>
    <_>
      <rect>
        0 8 8 16 14</rect></_>
    <_>
      <rect>
        0 8 8 16 18</rect></_>
    <_>
      <rect>
        0 8 8 16 20</rect></_>
    <_>
      <rect>
        0 8 8 16 21</rect></_>
    <_>
      <rect>
        0 8 8 16 22</rect></_>
    <_>
      <rect>
        0 8 8 16 25</rect></_>
    <_>
      <rect>
        0 8 8 16 26</rect></_>
    <_>
      <rect>
        0 8 8 16 27</rect></_>
    <_>
      <rect>
        0 8 8 16 30</rect></_>
    <_>
      <rect>
        0 8 8 16 31</rect></_>
    <_>
      <rect>
        0 8 8 16 32</rect></_>
    <_>
      <rect>
        0 8 8 16 34</rect></_>
    <_>
      <rect>
        4 0 8 16 1</rect></_>
    <_>
      <rect>
        4 0 8 16 2</rect></_>
    <_>
      <rect>
        4 0 8 16 3</rect></_>
    <_>
      <rect>
        4 0 8 16 4</rect></_>
    <_>
      <rect>
        4 0 8 16 7</rect></_>
    <_>
      <rect>
        4 0 8 16 8</rect></_>
    <_>
      <rect>
        4 0 8 16 9</rect></_>
    <_>
      <rect>
        4 0 8 16 12</rect></_>
    <_>
      <rect>
        4 0 8 16 14</rect></_>
    <_>
      <rect>
        4 0 8 16 15</rect></_>
    <_>
      <rect>
        4 0 8 16 16</rect></_>
    <_>
      <rect>
        4 0 8 16 17</rect></_>
    <_>
      <rect>
        4 0 8 16 18</rect></_>
    <_>
      <rect>
        4 0 8 16 19</rect></_>
    <_>
      <rect>
        4 0 8 16 20</rect></_>
    <_>
      <rect>
        4 0 8 16 21</rect></_>
    <_>
      <rect>
        4 0 8 16 22</rect></_>
    <_>
      <rect>
        4 0 8 16 25</rect></_>
    <_>
      <rect>
        4 0 8 16 26</rect></_>
    <_>
      <rect>
        4 0 8 16 27</rect></_>
    <_>
      <rect>
        4 0 8 16 28</rect></_>
    <_>
      <rect>
        4 0 8 16 29</rect></_>
    <_>
      <rect>
        4 0 8 16 30</rect></_>
    <_>
      <rect>
        4 0 8 16 31</rect></_>
    <_>
      <rect>
        4 0 8 16 33</rect></_>
    <_>
      <rect>
        4 0 8 16 34</rect></_>
    <_>
      <rect>
        4 0 8 16 35</rect></_>
    <_>
      <rect>
        4 4 8 16 3</rect></_>
    <_>
      <rect>
        4 4 8 16 4</rect></_>
    <_>
      <rect>
        4 4 8 16 6</rect></_>
    <_>
      <rect>
        4 4 8 16 7</rect></_>
    <_>
      <rect>
        4 4 8 16 9</rect></_>
    <_>
      <rect>
        4 4 8 16 11</rect></_>
    <_>
      <rect>
        4 4 8 16 13</rect></_>
    <_>
      <rect>
        4 4 8 16 15</rect></_>
    <_>
      <rect>
        4 4 8 16 16</rect></_>
    <_>
      <rect>
        4 4 8 16 17</rect></_>
    <_>
      <rect>
        4 4 8 16 18</rect></_>
    <_>
      <rect>
        4 4 8 16 20</rect></_>
    <_>
      <rect>
        4 4 8 16 21</rect></_>
    <_>
      <rect>
        4 4 8 16 22</rect></_>
    <_>
      <rect>
        4 4 8 16 25</rect></_>
    <_>
      <rect>
        4 4 8 16 26</rect></_>
    <_>
      <rect>
        4 4 8 16 27</rect></_>
    <_>
      <rect>
        4 4 8 16 28</rect></_>
    <_>
      <rect>
        4 4 8 16 30</rect></_>
    <_>
      <rect>
        4 4 8 16 31</rect></_>
    <_>
      <rect>
        4 4 8 16 32</rect></_>
    <_>
      <rect>
        4 4 8 16 34</rect></_>
    <_>
      <rect>
        4 4 8 16 35</rect></_>
    <_>
      <rect>
        4 8 8 16 1</rect></_>
    <_>
      <rect>
        4 8 8 16 3</rect></_>
    <_>
      <rect>
        4 8 8 16 4</rect></_>
    <_>
      <rect>
        4 8 8 16 6</rect></_>
    <_>
      <rect>
        4 8 8 16 7</rect></_>
    <_>
      <rect>
        4 8 8 16 9</rect></_>
    <_>
      <rect>
        4 8 8 16 13</rect></_>
    <_>
      <rect>
        4 8 8 16 16</rect></_>
    <_>
      <rect>
        4 8 8 16 17</rect></_>
    <_>
      <rect>
        4 8 8 16 21</rect></_>
    <_>
      <rect>
        4 8 8 16 22</rect></_>
    <_>
      <rect>
        4 8 8 16 24</rect></_>
    <_>
      <rect>
        4 8 8 16 25</rect></_>
    <_>
      <rect>
        4 8 8 16 27</rect></_>
    <_>
      <rect>
        4 8 8 16 28</rect></_>
    <_>
      <rect>
        4 8 8 16 29</rect></_>
    <_>
      <rect>
        4 8 8 16 30</rect></_>
    <_>
      <rect>
        4 8 8 16 31</rect></_>
    <_>
      <rect>
        4 8 8 16 34</rect></_>
    <_>
      <rect>
        4 8 8 16 35</rect></_></features></cascade>
</opencv_storage>
